.	-2.22234
<s>	0
</s>	0
<unk>	0
▁a	-3.84386
▁tom	-3.85935
▁i	-3.97996
'	-3.99861
?	-4.08527
▁the	-4.18941
▁to	-4.23872
s	-4.32417
▁you	-4.37858
▁de	-4.39163
▁no	-4.46803
▁que	-4.48613
▁la	-4.63176
t	-4.73664
▁¿	-4.77995
▁el	-4.80342
▁me	-4.84708
▁is	-4.84883
,	-4.88092
▁he	-4.98339
▁en	-4.99219
▁es	-5.04701
▁un	-5.18883
▁it	-5.28888
▁in	-5.34616
▁	-5.36819
▁mary	-5.38084
▁of	-5.42836
▁that	-5.43359
▁se	-5.48643
▁was	-5.52579
n	-5.54155
▁él	-5.58956
▁do	-5.61434
▁lo	-5.6312
▁have	-5.67691
▁una	-5.67928
▁this	-5.68123
▁my	-5.69885
▁por	-5.72494
▁for	-5.79964
▁she	-5.82456
▁we	-5.82651
▁what	-5.85617
▁su	-5.88887
▁mi	-5.92804
▁con	-5.94207
▁los	-5.94513
▁don	-5.95081
▁can	-5.95352
▁está	-5.96997
▁are	-5.98909
▁be	-6.00623
▁le	-6.01074
▁ella	-6.02429
▁his	-6.03125
m	-6.05763
▁did	-6.07733
▁your	-6.07945
▁on	-6.11731
▁want	-6.16197
▁with	-6.1622
▁para	-6.16243
▁al	-6.18491
▁has	-6.18941
▁and	-6.23745
▁not	-6.25156
▁y	-6.25565
▁te	-6.25935
▁like	-6.26703
▁know	-6.29916
▁más	-6.30161
▁las	-6.30685
▁at	-6.38011
▁him	-6.38947
▁there	-6.46699
▁go	-6.47363
▁they	-6.49359
re	-6.49749
▁tu	-6.5095
d	-6.51712
▁yo	-6.53109
▁her	-6.54182
ll	-6.54892
▁qué	-6.56421
ó	-6.58961
▁will	-6.63074
▁time	-6.66393
▁estoy	-6.67118
▁how	-6.67834
▁muy	-6.69069
ed	-6.69719
▁esta	-6.71624
▁very	-6.71752
▁had	-6.71945
▁eso	-6.72927
▁este	-6.73205
▁tiene	-6.73278
ve	-6.75353
▁all	-6.77165
▁del	-6.78345
▁here	-6.78787
▁estaba	-6.79374
▁up	-6.7971
▁about	-6.79782
a	-6.81753
▁quiero	-6.81984
▁si	-6.83151
▁think	-6.83378
qué	-6.83442
!	-6.83444
▁tengo	-6.84439
▁fue	-6.85066
▁casa	-6.86486
▁aquí	-6.8715
▁get	-6.89039
▁out	-6.90039
▁when	-6.9012
▁hacer	-6.91748
▁as	-6.91819
▁from	-6.93451
ing	-6.93891
▁como	-6.94214
te	-6.95357
▁if	-6.96257
▁were	-6.98765
▁who	-6.99055
▁son	-6.9924
▁one	-6.99788
▁come	-7.00961
▁ha	-7.02209
▁an	-7.04715
▁could	-7.04934
▁todo	-7.05361
▁algo	-7.05796
▁esto	-7.07029
▁doesn	-7.07667
▁would	-7.0795
▁going	-7.08134
▁by	-7.0885
▁tiempo	-7.09223
▁gusta	-7.11438
▁why	-7.11992
▁see	-7.12145
o	-7.13066
▁good	-7.13306
▁favor	-7.14217
▁tan	-7.17191
▁please	-7.18735
▁ir	-7.18904
▁should	-7.1922
▁so	-7.19699
▁nada	-7.20286
▁just	-7.2049
▁where	-7.21308
▁todos	-7.21615
▁puedo	-7.21781
▁hay	-7.2208
▁need	-7.22085
▁been	-7.22224
▁era	-7.22448
▁let	-7.23219
▁cuando	-7.24422
▁boston	-7.24792
▁tell	-7.249
▁vez	-7.2509
▁bien	-7.27195
▁mucho	-7.27437
▁help	-7.29413
▁more	-7.29584
mos	-7.3104
▁puede	-7.31425
▁but	-7.32912
▁now	-7.3375
▁than	-7.34166
▁never	-7.35845
▁ellos	-7.36411
es	-7.36745
▁ser	-7.36792
▁us	-7.37132
por	-7.37682
▁car	-7.37833
▁sé	-7.38455
▁some	-7.38515
▁solo	-7.38637
▁something	-7.3999
▁got	-7.40314
me	-7.40516
▁too	-7.41001
▁take	-7.41041
▁nunca	-7.41913
▁mañana	-7.41916
▁day	-7.43221
▁much	-7.43811
▁am	-7.43972
▁¡	-7.44228
▁last	-7.44443
▁trabajo	-7.44589
▁creo	-7.47155
▁money	-7.47617
▁home	-7.49686
▁ahora	-7.50653
▁work	-7.50702
▁dijo	-7.5094
▁dinero	-7.51032
▁people	-7.51225
▁sus	-7.52155
▁hablar	-7.52189
▁dos	-7.53303
▁ya	-7.53609
▁había	-7.54976
é	-7.55363
▁pero	-7.55995
▁tomás	-7.56984
▁back	-7.57305
▁soy	-7.61031
▁día	-7.61081
▁our	-7.6258
▁hace	-7.63186
▁house	-7.63233
▁siempre	-7.63341
▁really	-7.63562
▁nos	-7.64161
▁book	-7.64317
▁went	-7.64344
▁many	-7.64575
▁están	-7.64638
▁ese	-7.64715
▁said	-7.65208
▁libro	-7.65492
▁told	-7.65767
▁o	-7.65933
▁must	-7.66214
▁give	-7.66907
▁any	-7.67542
▁poco	-7.68608
▁anything	-7.69061
▁lot	-7.69792
▁hoy	-7.69831
▁haber	-7.69838
▁man	-7.69874
▁today	-7.70958
▁does	-7.71066
▁school	-7.71283
▁quiere	-7.71292
▁say	-7.71451
▁make	-7.71553
▁eat	-7.71655
▁thought	-7.71803
▁voy	-7.71877
▁new	-7.72467
▁room	-7.72656
▁only	-7.73159
▁va	-7.73545
▁french	-7.73551
▁ver	-7.73606
▁mejor	-7.73619
▁nadie	-7.73675
▁two	-7.73916
▁made	-7.75153
▁esa	-7.75211
▁always	-7.75627
▁años	-7.75942
▁tú	-7.76303
ly	-7.7716
▁estar	-7.77228
▁speak	-7.77371
▁right	-7.7761
▁father	-7.77621
ta	-7.77862
▁long	-7.77873
▁tarde	-7.78127
▁sabe	-7.78281
▁idea	-7.78624
se	-7.79028
▁john	-7.79271
▁demasiado	-7.79399
▁francés	-7.79527
▁padre	-7.79924
▁quería	-7.80479
▁maría	-7.8069
e	-7.80896
▁tenía	-7.82877
▁may	-7.83096
▁parece	-7.83168
▁every	-7.83338
▁love	-7.83664
▁hizo	-7.8372
▁three	-7.83853
▁old	-7.84385
▁antes	-7.84747
▁tienes	-7.86177
▁mis	-7.86878
▁well	-7.87399
▁estás	-7.87637
no	-7.8768
▁night	-7.87817
▁tres	-7.88076
▁debería	-7.88521
▁look	-7.89272
▁still	-7.89502
▁off	-7.89681
▁wanted	-7.9004
-	-7.91506
▁noche	-7.91583
▁tomorrow	-7.91651
▁before	-7.92087
▁talk	-7.92362
▁won	-7.92523
▁asked	-7.92911
dónde	-7.92919
▁hora	-7.93304
▁over	-7.95153
▁left	-7.95641
▁put	-7.95663
▁usted	-7.95915
▁sin	-7.95961
r	-7.96322
▁eres	-7.96481
▁way	-7.96984
▁dog	-7.96997
▁sobre	-7.97004
▁or	-7.97296
▁little	-7.98235
▁leave	-7.98679
▁nothing	-7.99011
▁job	-7.99811
▁ti	-7.99863
▁uno	-8.00143
▁verdad	-8.00274
▁mí	-8.00474
▁ayer	-8.00748
▁hombre	-8.01057
▁saw	-8.01064
▁again	-8.01207
▁yesterday	-8.01218
▁perro	-8.01219
▁comer	-8.0151
▁after	-8.01697
▁estado	-8.02152
y	-8.02216
▁live	-8.02329
cómo	-8.02458
▁into	-8.03246
▁puedes	-8.03538
▁better	-8.03801
▁years	-8.04049
▁down	-8.04133
▁debe	-8.04399
▁vida	-8.05265
▁english	-8.05614
▁mother	-8.06118
▁alguna	-8.06356
▁everything	-8.06452
▁find	-8.06528
quién	-8.06642
▁necesito	-8.06793
▁nuevo	-8.07212
▁inglés	-8.07466
▁buy	-8.07477
▁stay	-8.07583
▁read	-8.08621
▁came	-8.09505
le	-8.09863
▁happy	-8.09868
▁días	-8.10215
▁play	-8.10629
▁first	-8.11268
▁coche	-8.13228
▁decir	-8.13535
▁next	-8.13586
▁todavía	-8.14175
▁gente	-8.1431
▁mismo	-8.14515
▁hecho	-8.14705
ok	-8.14706
▁nosotros	-8.15039
do	-8.15345
▁tenemos	-8.15428
▁understand	-8.15526
▁life	-8.15587
▁other	-8.15814
▁believe	-8.15953
▁children	-8.16328
▁problema	-8.16453
▁así	-8.166
▁ask	-8.17312
▁madre	-8.18421
▁gustaría	-8.19156
▁hard	-8.1932
cuál	-8.19613
▁them	-8.2009
▁pensé	-8.20117
▁alguien	-8.20358
▁semana	-8.20572
▁stop	-8.21586
▁these	-8.21629
▁keep	-8.22356
▁plan	-8.2268
▁morning	-8.22837
▁call	-8.22884
▁friends	-8.2304
mente	-8.23067
▁bought	-8.23633
▁wants	-8.23917
▁problem	-8.24817
▁otra	-8.24978
▁door	-8.25089
▁sabía	-8.25151
▁name	-8.25405
▁habitación	-8.25646
▁feel	-8.25708
▁buen	-8.25829
▁used	-8.25847
on	-8.25911
▁puerta	-8.26459
▁quieres	-8.2649
▁doing	-8.26756
▁pasado	-8.26888
▁estamos	-8.27188
▁escuela	-8.27287
▁their	-8.27425
▁ever	-8.27667
▁deberías	-8.27725
▁away	-8.28384
gún	-8.28536
▁después	-8.28745
cuánto	-8.29738
▁friend	-8.29966
lo	-8.30414
▁gave	-8.3045
▁dónde	-8.30715
▁podría	-8.30752
▁cosas	-8.31213
▁doctor	-8.31432
▁mundo	-8.31512
▁soon	-8.31583
▁quién	-8.31916
▁casi	-8.31944
▁1	-8.32526
▁late	-8.32559
▁amigos	-8.32857
▁sure	-8.33347
▁happened	-8.34215
▁niños	-8.35788
▁remember	-8.35823
▁feliz	-8.35927
▁bus	-8.36519
▁fuera	-8.36531
▁saber	-8.36639
▁lost	-8.36909
▁difícil	-8.37446
▁veces	-8.37514
cuándo	-8.37716
▁ayuda	-8.37737
▁already	-8.37743
▁hacerlo	-8.3785
▁allí	-8.3802
▁año	-8.38209
▁tus	-8.38287
▁sea	-8.3878
▁year	-8.38807
▁pronto	-8.38898
▁cómo	-8.39315
▁enough	-8.40066
▁auto	-8.4037
▁otro	-8.40438
▁boy	-8.40681
▁niño	-8.40915
▁teacher	-8.40929
▁turn	-8.41134
▁water	-8.41151
▁week	-8.41404
▁heard	-8.41655
▁alone	-8.41734
▁ni	-8.41798
▁show	-8.41822
▁seguro	-8.42142
▁married	-8.42204
á	-8.42427
▁menos	-8.42743
▁best	-8.42814
▁even	-8.42904
▁without	-8.43176
ble	-8.4327
▁dio	-8.43371
▁wrong	-8.43411
▁agua	-8.43891
▁comprar	-8.43932
▁bad	-8.44107
▁desde	-8.44161
▁buena	-8.44229
▁busy	-8.44424
▁beautiful	-8.44634
▁amigo	-8.44833
cause	-8.44878
▁mal	-8.4503
▁muchos	-8.4536
▁bed	-8.45401
▁often	-8.45404
que	-8.45411
▁realmente	-8.45672
▁hear	-8.4607
▁try	-8.46279
▁looking	-8.46565
▁things	-8.46605
▁found	-8.46742
▁visto	-8.47125
▁wait	-8.4766
▁cold	-8.47691
▁same	-8.48141
▁party	-8.48153
▁comida	-8.48411
▁ahí	-8.48651
▁ciudad	-8.48655
▁nuestro	-8.48911
▁conmigo	-8.49163
▁vi	-8.49193
▁done	-8.4934
▁habla	-8.49702
▁thing	-8.49958
▁podía	-8.50459
0	-8.50802
▁vino	-8.51033
▁persona	-8.51127
▁sólo	-8.51244
cada	-8.51337
▁seen	-8.51629
▁looks	-8.52052
puedo	-8.52083
▁nombre	-8.5209
▁food	-8.52103
▁train	-8.52265
▁brother	-8.52353
▁ten	-8.52441
de	-8.53065
▁everyone	-8.53102
▁person	-8.53232
▁use	-8.53355
▁todas	-8.53362
▁big	-8.53367
▁gran	-8.54184
▁café	-8.54448
▁knew	-8.54448
▁personas	-8.54707
▁fiesta	-8.55104
▁vas	-8.55132
▁answer	-8.55141
▁hermano	-8.55357
▁hope	-8.55765
▁coffee	-8.55814
▁tren	-8.56025
▁open	-8.5608
▁tired	-8.561
▁tener	-8.56197
▁dice	-8.5665
▁toda	-8.56821
▁hotel	-8.57133
▁knows	-8.57151
▁being	-8.57858
▁wish	-8.57976
▁true	-8.58067
▁contigo	-8.58604
▁haciendo	-8.58606
▁australia	-8.58924
en	-8.59146
▁while	-8.59457
▁learn	-8.59528
▁drink	-8.59549
▁likes	-8.59809
▁letter	-8.59902
▁carta	-8.60027
▁around	-8.60028
▁suficiente	-8.6021
▁watch	-8.60322
tuvo	-8.60506
▁lugar	-8.60604
▁someone	-8.60607
▁japan	-8.61181
▁les	-8.61347
▁profesor	-8.61561
▁tanto	-8.61984
▁japón	-8.62057
▁which	-8.62057
▁once	-8.62686
▁girl	-8.62845
▁clase	-8.63742
▁cama	-8.63843
▁yet	-8.64133
▁policía	-8.64343
▁acerca	-8.64581
▁pay	-8.64919
▁hospital	-8.64957
▁salir	-8.65335
▁leer	-8.65339
▁world	-8.65635
▁mind	-8.65643
▁sleep	-8.65752
▁books	-8.65961
▁bueno	-8.66
▁few	-8.66244
▁muchas	-8.66389
▁grande	-8.66517
▁libros	-8.66687
▁cuenta	-8.66814
▁nuestra	-8.67117
▁died	-8.67628
▁momento	-8.67824
▁kind	-8.68324
most	-8.69069
▁days	-8.6912
▁own	-8.69257
▁write	-8.69316
▁most	-8.69525
▁place	-8.69763
▁study	-8.69883
▁diez	-8.69978
▁care	-8.70101
is	-8.70716
▁those	-8.70932
▁truth	-8.70932
ther	-8.70993
▁young	-8.70998
▁cerca	-8.7152
▁another	-8.71575
▁sister	-8.71587
▁pasó	-8.71616
▁walk	-8.71695
▁each	-8.71896
▁siento	-8.72224
▁rápido	-8.72546
▁hermana	-8.72565
▁parents	-8.72568
ndo	-8.72597
▁talking	-8.72755
▁seems	-8.72912
▁lunch	-8.73195
▁espero	-8.7357
▁family	-8.73854
▁teléfono	-8.73854
▁tv	-8.73854
▁happen	-8.7401
▁looked	-8.74135
▁getting	-8.74221
▁anyone	-8.74518
▁hijo	-8.74562
estás	-8.74612
ando	-8.74793
▁lunes	-8.74848
▁padres	-8.75487
▁historia	-8.75584
▁afraid	-8.75851
▁great	-8.75855
▁tried	-8.76188
▁monday	-8.7628
▁familia	-8.76324
▁fui	-8.76452
▁problemas	-8.76517
▁dejó	-8.76549
os	-8.76664
▁vive	-8.7671
▁anoche	-8.76867
▁pudo	-8.76868
▁both	-8.77146
▁ago	-8.77159
▁early	-8.7721
▁hate	-8.77293
▁sido	-8.77751
▁aún	-8.77957
▁mine	-8.78102
▁mujer	-8.78167
until	-8.78331
tienes	-8.78667
▁rain	-8.78799
▁también	-8.78929
▁duran	-8.79024
▁vivir	-8.79112
▁vamos	-8.79133
▁acuerdo	-8.79623
▁together	-8.79628
▁trabajar	-8.79805
▁horas	-8.79855
▁tienen	-8.79908
▁cat	-8.80066
▁joven	-8.80161
▁difficult	-8.80283
▁puso	-8.80329
▁mayor	-8.80607
▁gustan	-8.80657
▁jugar	-8.80664
▁venir	-8.81035
▁cosa	-8.81163
▁dinner	-8.81379
▁nueva	-8.81495
▁else	-8.81529
▁child	-8.81734
▁murió	-8.81735
▁estaban	-8.82179
▁country	-8.82809
▁wife	-8.82815
▁angry	-8.83171
▁donde	-8.83539
▁coming	-8.83553
l	-8.83607
▁aprender	-8.84053
▁cinco	-8.84262
▁since	-8.84601
quieres	-8.85057
▁nadar	-8.85085
▁dije	-8.85349
▁favorite	-8.85367
▁dejar	-8.85639
▁entre	-8.85741
▁hurt	-8.85963
▁parte	-8.86016
▁himself	-8.86107
▁tomar	-8.86178
▁encontrar	-8.86197
▁pregunta	-8.8667
▁haven	-8.8683
▁hours	-8.86925
▁mano	-8.86974
▁accidente	-8.87121
puedes	-8.87229
▁nobody	-8.87231
▁hice	-8.87231
▁sí	-8.87253
▁mesa	-8.87327
▁yourself	-8.87608
▁five	-8.87647
▁wouldn	-8.87674
▁question	-8.87718
▁han	-8.87727
▁ocupado	-8.87845
▁gracias	-8.88006
▁pasar	-8.88523
▁meeting	-8.88707
▁table	-8.88772
▁playing	-8.88953
▁gato	-8.89001
▁menudo	-8.89137
▁hand	-8.89294
▁viene	-8.89385
▁phone	-8.89386
▁matter	-8.89393
▁bastante	-8.89517
▁ayudar	-8.8957
▁televisión	-8.89903
▁might	-8.89903
▁piano	-8.9029
▁temprano	-8.90292
▁meet	-8.90609
▁mucha	-8.90675
▁everybody	-8.90679
▁sorry	-8.90682
▁necesita	-8.91384
▁llegar	-8.91459
▁police	-8.91459
▁easy	-8.91462
▁volver	-8.91642
▁accident	-8.91644
has	-8.91684
▁estudiar	-8.91818
▁such	-8.91874
▁reading	-8.92071
▁fácil	-8.92155
▁month	-8.92558
▁dormir	-8.92656
▁camino	-8.93047
▁swim	-8.93047
▁lleva	-8.93317
▁eating	-8.93361
▁start	-8.93459
▁pidió	-8.93848
▁under	-8.93849
▁japanese	-8.93852
▁says	-8.94161
▁visit	-8.94187
▁d	-8.94289
▁aren	-8.94554
as	-8.94698
▁fire	-8.94925
▁última	-8.94972
▁nice	-8.94985
▁solía	-8.95073
▁far	-8.95118
▁waiting	-8.95213
▁lives	-8.95851
▁mientra	-8.95881
er	-8.95961
▁trying	-8.96034
▁algunos	-8.96423
▁park	-8.96834
▁thank	-8.96845
▁drive	-8.97062
▁minutos	-8.97249
▁wonder	-8.97421
▁estación	-8.97604
▁decided	-8.97609
▁dar	-8.97728
▁ve	-8.97758
▁office	-8.97921
▁cansado	-8.98008
▁finished	-8.98064
▁trouble	-8.98229
▁called	-8.98327
▁started	-8.98503
▁minutes	-8.98537
▁dicho	-8.98798
▁razón	-8.99221
▁students	-8.99694
▁podemos	-8.99747
▁será	-8.99916
▁fuerte	-9.00054
▁miedo	-9.00076
▁estos	-9.00259
▁sola	-9.00331
▁small	-9.0049
▁story	-9.00503
verdad	-9.00884
▁myself	-9.00934
▁lado	-9.01079
▁país	-9.01301
▁station	-9.01371
▁tonight	-9.01389
▁ready	-9.01451
having	-9.01793
▁colegio	-9.01802
▁preguntó	-9.0181
▁felt	-9.01811
▁window	-9.01827
▁alto	-9.01938
▁important	-9.02139
▁tipo	-9.02275
▁conozco	-9.02677
▁woman	-9.02678
▁ran	-9.02715
▁error	-9.03088
▁shoes	-9.03241
▁met	-9.03343
▁radio	-9.03561
▁hablando	-9.03595
▁frío	-9.04006
▁ventana	-9.04059
la	-9.04148
▁arrived	-9.04521
▁importante	-9.04557
▁city	-9.049
▁sick	-9.04903
▁zapatos	-9.04955
emos	-9.05041
ía	-9.05207
0.	-9.05208
▁importa	-9.05227
▁music	-9.05293
▁usually	-9.05363
▁vio	-9.05583
▁red	-9.05991
▁change	-9.0619
▁working	-9.0625
▁pretty	-9.06257
▁hot	-9.0675
▁estuvo	-9.06828
▁hijos	-9.07108
▁oficina	-9.07172
▁haya	-9.07461
▁música	-9.07633
▁fun	-9.07711
▁word	-9.07791
▁goes	-9.08051
▁pienso	-9.08096
▁película	-9.08207
▁da	-9.08368
▁fast	-9.08522
▁anymore	-9.08561
▁hubiera	-9.08561
▁llegó	-9.08577
▁quisiera	-9.0858
▁ate	-9.08775
▁ustedes	-9.08798
ar	-9.08955
▁compró	-9.09028
▁cabeza	-9.09029
▁china	-9.09032
▁gone	-9.0958
▁fin	-9.09693
▁homework	-9.0997
▁town	-9.09979
▁large	-9.10047
▁tal	-9.10148
▁estudiantes	-9.10342
▁punto	-9.10579
▁deja	-9.10614
▁needs	-9.10708
▁enjoy	-9.1092
▁rich	-9.10937
▁broke	-9.11009
sabes	-9.11101
▁christmas	-9.11398
▁tennis	-9.11398
▁esperar	-9.11463
▁picture	-9.11557
▁mistake	-9.11646
▁reunión	-9.11906
▁reloj	-9.12292
▁bicicleta	-9.12362
▁fueron	-9.12422
▁primera	-9.12456
▁seis	-9.12517
▁spend	-9.12532
▁cualquier	-9.12731
▁juntos	-9.1277
▁di	-9.13059
▁contra	-9.13192
▁near	-9.1333
▁único	-9.13335
▁eyes	-9.13342
▁esperando	-9.13348
ba	-9.13532
▁movie	-9.13543
▁ojos	-9.13714
▁baby	-9.13826
▁six	-9.13832
▁times	-9.14009
▁game	-9.14024
▁high	-9.14304
▁plane	-9.14429
▁quite	-9.14435
▁language	-9.1452
▁nin	-9.14592
▁afternoon	-9.14813
▁breakfast	-9.14813
▁run	-9.15015
00	-9.1504
▁edad	-9.15246
nos	-9.15254
▁ido	-9.15284
▁dream	-9.1543
▁forget	-9.15433
▁media	-9.15536
▁tenis	-9.15803
▁stupid	-9.16311
▁esposa	-9.16319
hay	-9.16351
▁fumar	-9.1733
▁quien	-9.17331
▁misma	-9.17553
▁song	-9.17618
▁finish	-9.17717
▁río	-9.17836
▁unidos	-9.17923
▁sueño	-9.18096
▁queda	-9.18114
▁creer	-9.18314
▁hair	-9.18374
▁class	-9.18602
▁viejo	-9.18609
▁war	-9.18713
▁buscando	-9.18867
▁somos	-9.19341
▁canción	-9.19526
▁estados	-9.19894
▁river	-9.19903
▁conducir	-9.19911
▁against	-9.1994
▁debo	-9.20015
▁pasa	-9.20168
▁advice	-9.20427
▁guerra	-9.20427
▁bring	-9.20427
▁summer	-9.20432
▁caja	-9.20711
▁cake	-9.2072
▁comes	-9.20779
▁caught	-9.20953
▁interesting	-9.20967
▁ganas	-9.20997
▁listen	-9.21039
▁chico	-9.21258
▁compré	-9.21483
▁pueda	-9.21795
▁ra	-9.2183
▁haga	-9.21892
▁escribir	-9.21931
▁bajo	-9.2197
▁present	-9.2212
▁verte	-9.22408
▁fell	-9.22572
▁close	-9.2277
ever	-9.2279
▁studying	-9.23246
▁palabra	-9.23427
▁began	-9.23628
▁smoking	-9.23639
▁face	-9.23802
▁verano	-9.23952
▁number	-9.23964
▁perder	-9.24028
▁fish	-9.24085
▁lived	-9.24126
▁through	-9.24171
▁salió	-9.24173
▁parecía	-9.24175
▁milk	-9.24179
▁along	-9.24183
▁número	-9.24517
▁kill	-9.24563
▁longer	-9.24774
▁oído	-9.25646
▁avión	-9.25819
▁weather	-9.2582
▁sol	-9.25873
▁respuesta	-9.26199
▁sabes	-9.26425
▁veo	-9.26489
▁calle	-9.2664
▁tienda	-9.26754
▁free	-9.26786
not	-9.26993
▁cree	-9.27047
▁full	-9.27328
▁llave	-9.27337
▁re	-9.27342
▁pueden	-9.2747
▁cuarto	-9.27495
▁lejos	-9.27496
▁dólares	-9.275
▁sería	-9.27508
▁b	-9.27598
í	-9.276
▁taxi	-9.27891
▁interesante	-9.27899
▁chica	-9.27904
▁perdido	-9.2806
▁leche	-9.28078
▁pensar	-9.28329
▁iba	-9.28365
▁bebé	-9.28454
▁dolor	-9.28486
▁autobús	-9.28628
▁later	-9.288
▁chance	-9.29051
▁short	-9.29135
▁médico	-9.29625
▁manera	-9.29628
▁navidad	-9.29774
▁older	-9.29831
▁watching	-9.29963
▁kept	-9.30352
▁america	-9.30491
▁mean	-9.30604
▁death	-9.30939
▁cierto	-9.30978
▁terminar	-9.3103
▁snow	-9.31152
▁juego	-9.31398
▁hour	-9.31413
ado	-9.3145
▁secret	-9.31523
▁age	-9.31602
da	-9.31804
▁usar	-9.31873
▁pelo	-9.31944
▁makes	-9.31995
▁living	-9.32107
▁quedó	-9.32192
▁box	-9.32502
▁capaz	-9.32763
▁bit	-9.32901
▁mío	-9.3291
▁street	-9.3319
▁dark	-9.33282
▁ropa	-9.33294
▁esté	-9.33514
▁sit	-9.33656
▁light	-9.33659
▁oír	-9.33665
▁tree	-9.33808
▁thinking	-9.33835
▁cut	-9.33887
▁parque	-9.33913
▁sat	-9.33989
▁llevar	-9.34375
▁ven	-9.34484
▁vos	-9.34527
▁encontré	-9.34529
▁clean	-9.34869
▁loves	-9.34877
▁cámara	-9.35005
▁vivo	-9.35021
▁student	-9.35034
▁killed	-9.35235
c	-9.35321
▁pie	-9.35447
ninguna	-9.35711
▁enfermo	-9.35711
▁sometimes	-9.35818
▁camera	-9.36259
▁regalo	-9.3627
▁spoke	-9.36324
▁became	-9.36331
▁vaya	-9.36468
▁par	-9.36479
▁seem	-9.36491
▁hands	-9.36532
▁encanta	-9.36849
▁hija	-9.36876
▁libre	-9.36878
▁daughter	-9.36885
▁surprised	-9.37017
▁die	-9.37232
▁trust	-9.37447
▁hurry	-9.37563
▁perdió	-9.37563
▁bicycle	-9.37563
▁york	-9.37571
▁preguntas	-9.37717
▁part	-9.37876
▁stand	-9.38044
▁tokyo	-9.38188
▁hungry	-9.38188
▁cuidado	-9.38194
▁born	-9.38195
▁dollars	-9.38322
▁end	-9.38349
▁questions	-9.38429
▁entender	-9.38752
▁computer	-9.38788
▁quit	-9.38809
▁forgot	-9.38816
▁muerte	-9.38818
▁stopped	-9.38823
▁luz	-9.38837
▁cara	-9.38976
▁manos	-9.39181
▁pude	-9.39451
▁white	-9.39461
▁miss	-9.39617
be	-9.39656
está	-9.39849
▁company	-9.40086
▁vacaciones	-9.40087
▁estas	-9.40096
▁listo	-9.40556
▁sos	-9.40626
▁realidad	-9.40731
▁wine	-9.40827
▁forma	-9.41038
taking	-9.412
▁tocar	-9.41236
▁store	-9.4135
▁spent	-9.41373
▁pequeño	-9.41382
▁beber	-9.415
▁careful	-9.41985
▁hambre	-9.42022
▁calor	-9.4203
▁consejo	-9.42035
▁mak	-9.42049
▁duro	-9.42132
▁primero	-9.42189
▁real	-9.42385
▁news	-9.4244
▁glad	-9.42634
▁birthday	-9.42676
▁cuanto	-9.42686
▁queremos	-9.42967
▁lie	-9.43185
▁posible	-9.43306
▁drunk	-9.43332
▁acá	-9.43334
▁pregunto	-9.43338
▁ojal	-9.43351
▁secreto	-9.43449
▁culpa	-9.43583
able	-9.43618
▁moment	-9.43833
▁tokio	-9.43996
▁banco	-9.43996
▁odio	-9.43997
▁hold	-9.44014
▁dead	-9.44022
▁vuelta	-9.44031
▁espera	-9.4411
ra	-9.44295
▁necesitas	-9.44365
▁falta	-9.44521
▁terrible	-9.4464
▁whe	-9.44784
▁10	-9.45013
▁tea	-9.45092
▁rest	-9.45349
▁volvió	-9.45377
▁largo	-9.45386
▁niña	-9.45389
▁viaje	-9.45395
▁hit	-9.45542
▁cena	-9.45623
▁cocina	-9.4563
▁e	-9.45874
▁cumpleaños	-9.46009
▁flores	-9.46031
▁déjame	-9.46037
▁extraño	-9.4607
▁entiendo	-9.46089
clock	-9.46201
▁saying	-9.46546
▁behind	-9.4669
▁equipo	-9.46695
▁hombres	-9.46699
▁siquiera	-9.4672
▁become	-9.46768
▁haci	-9.46872
▁llama	-9.46971
▁malo	-9.46998
▁trabaja	-9.47192
▁follow	-9.47253
▁cost	-9.47299
al	-9.47362
▁clothes	-9.4738
▁empezó	-9.47398
▁rico	-9.47456
▁van	-9.47459
▁hagas	-9.47662
▁flowers	-9.47838
▁suerte	-9.48065
▁tío	-9.48069
▁terminado	-9.4808
▁té	-9.48132
▁recuerdo	-9.48145
▁sing	-9.48162
▁entrar	-9.48388
▁ruido	-9.48707
▁business	-9.48756
▁cerveza	-9.48759
▁hiciste	-9.48759
▁novia	-9.48836
▁oportunidad	-9.49387
▁dur	-9.49939
▁crees	-9.50011
▁pagar	-9.50024
▁cuatro	-9.50162
▁japonés	-9.50164
▁canadian	-9.50282
an	-9.50344
▁cantar	-9.50431
▁possible	-9.50871
▁head	-9.50887
▁haré	-9.50912
▁justo	-9.50993
▁building	-9.5101
▁foto	-9.51012
▁piensa	-9.51355
▁beer	-9.51397
▁speaking	-9.51408
▁árbol	-9.5152
▁others	-9.5153
▁send	-9.5157
▁compañía	-9.51586
▁próximo	-9.51586
▁perros	-9.51587
▁expensive	-9.51587
▁jamás	-9.51595
▁estudiante	-9.51743
▁dogs	-9.51835
▁advise	-9.51864
▁helped	-9.51979
▁stayed	-9.52095
▁touch	-9.52108
▁trip	-9.52209
▁catch	-9.52304
ween	-9.52305
▁girlfriend	-9.52311
▁wrote	-9.52314
▁eaten	-9.52434
▁paper	-9.5246
▁lengua	-9.52462
▁prefer	-9.52559
▁allá	-9.52657
▁final	-9.52907
▁uncle	-9.5303
▁vista	-9.5303
▁nieve	-9.53035
▁pensando	-9.53044
▁works	-9.53075
▁aconsej	-9.53305
▁os	-9.53381
tom	-9.53432
▁cook	-9.53549
▁black	-9.53759
▁wearing	-9.53838
ste	-9.53848
▁four	-9.53914
▁reason	-9.53924
▁sunday	-9.53937
▁key	-9.53946
▁changed	-9.53998
▁team	-9.5402
▁esperaba	-9.54109
▁dress	-9.54306
▁golf	-9.54484
▁decidió	-9.54496
▁speaks	-9.5459
▁gets	-9.54593
▁asunto	-9.5468
▁tarea	-9.54681
▁outside	-9.5525
▁quieras	-9.55303
▁bank	-9.55404
▁palabras	-9.55512
▁otros	-9.55548
▁bet	-9.55571
▁blame	-9.55869
▁color	-9.55927
podrías	-9.55936
aron	-9.55967
▁order	-9.56067
▁travel	-9.5607
▁break	-9.56078
▁visitar	-9.56171
▁pain	-9.56423
▁conoce	-9.56638
amos	-9.56803
▁dame	-9.56834
▁cuánto	-9.56957
▁estaré	-9.56997
▁estará	-9.57303
▁anybody	-9.57491
▁única	-9.57491
▁cuándo	-9.57584
▁worked	-9.57683
▁cup	-9.57718
▁canadiense	-9.57723
▁extranjero	-9.57724
▁heart	-9.58073
▁strange	-9.58175
▁famous	-9.58257
▁lista	-9.5834
▁pan	-9.58379
▁mujeres	-9.58402
▁ice	-9.58438
▁eran	-9.58512
▁tall	-9.58591
▁whole	-9.58655
▁oí	-9.58794
▁acaba	-9.58942
▁asleep	-9.59024
▁edificio	-9.59024
▁women	-9.59024
▁running	-9.59024
▁examen	-9.59034
▁amor	-9.59121
▁necesitamos	-9.59167
▁puesto	-9.59271
▁needed	-9.59539
▁lose	-9.59719
▁herself	-9.59799
▁perdí	-9.59806
▁fuego	-9.59851
▁point	-9.60079
▁thinks	-9.60163
▁different	-9.60538
▁dentro	-9.6058
▁último	-9.6058
▁glasses	-9.60639
▁salud	-9.60648
▁noise	-9.60813
▁vestido	-9.60828
▁equivocado	-9.60839
▁pequeña	-9.60851
▁sound	-9.60873
▁strong	-9.61323
▁biblioteca	-9.61368
▁proud	-9.61368
▁taza	-9.61369
▁dangerous	-9.61369
▁diccionario	-9.61613
▁escuchar	-9.61646
▁carne	-9.61678
▁debemos	-9.61679
▁baseball	-9.62161
▁floor	-9.62162
▁decisión	-9.62177
▁montón	-9.62194
▁raining	-9.62377
▁restaurante	-9.62427
▁explain	-9.6284
▁aquel	-9.62918
▁llover	-9.62926
ron	-9.62937
▁dictionary	-9.62961
▁offer	-9.62962
▁sombrero	-9.62962
▁exactly	-9.62966
▁quickly	-9.62972
▁paid	-9.62979
▁tenido	-9.62987
▁trabajando	-9.62988
▁caminar	-9.63021
▁move	-9.63043
▁bag	-9.63273
▁popular	-9.63491
▁air	-9.63549
▁sale	-9.63595
▁apena	-9.63668
▁fútbol	-9.63768
▁jardín	-9.63768
▁library	-9.6377
▁poder	-9.63771
▁quieren	-9.6409
▁telephone	-9.64426
▁worry	-9.64486
▁conseguir	-9.64572
▁crazy	-9.64581
▁éxito	-9.64581
▁interested	-9.64611
▁least	-9.64645
▁empezar	-9.64791
▁gatos	-9.6486
▁primer	-9.65037
▁pass	-9.65236
▁alrededor	-9.6533
▁lluvia	-9.65401
▁club	-9.65403
▁hide	-9.65425
▁restaurant	-9.65435
▁agree	-9.6559
▁muerto	-9.65758
▁mala	-9.65792
▁cats	-9.65934
▁win	-9.6604
▁return	-9.66106
▁safe	-9.66183
▁cayó	-9.66229
▁encontró	-9.66235
▁exactamente	-9.66239
▁loved	-9.66326
▁errores	-9.66349
▁haría	-9.66613
▁waited	-9.66633
▁cenar	-9.66705
▁played	-9.668
▁treinta	-9.6706
▁concert	-9.67061
▁frente	-9.6707
▁sentido	-9.67078
▁weight	-9.67164
▁takes	-9.67458
▁words	-9.67709
▁siete	-9.67901
▁front	-9.67902
▁probabl	-9.67903
▁sitio	-9.67903
▁baño	-9.67905
▁pensaba	-9.6791
▁leyendo	-9.67916
▁llorar	-9.67917
▁men	-9.67919
▁concierto	-9.67935
▁entonces	-9.67935
▁thirty	-9.6796
▁decirle	-9.68108
▁blanco	-9.6828
▁favorito	-9.68282
▁tenga	-9.68317
▁sigue	-9.6844
▁mistakes	-9.68464
▁loco	-9.68515
▁health	-9.68714
▁swimming	-9.68749
▁guitarra	-9.68755
▁atención	-9.68777
▁llamar	-9.68991
▁mira	-9.69021
cuánta	-9.69113
▁camisa	-9.69134
▁abogado	-9.69146
▁inteligente	-9.6916
▁sal	-9.69328
▁result	-9.69362
▁broken	-9.69445
▁garden	-9.69483
▁poor	-9.69543
▁cry	-9.69551
▁guitar	-9.69595
▁béisbol	-9.69603
▁certain	-9.69603
▁television	-9.69603
▁seven	-9.6963
▁severa	-9.69702
▁problems	-9.69881
ited	-9.70008
eres	-9.70098
▁mad	-9.70251
▁glass	-9.704
▁poner	-9.70428
▁umbrella	-9.70465
▁miró	-9.70467
▁half	-9.70467
▁dijiste	-9.70475
▁lucky	-9.70483
▁pasando	-9.70513
▁ganar	-9.70586
▁walked	-9.70789
▁evening	-9.70801
▁opened	-9.7085
▁dormido	-9.70882
▁pens	-9.7092
▁peligro	-9.71323
▁estudiando	-9.71346
▁finally	-9.71386
cabo	-9.71413
▁deal	-9.71593
▁clases	-9.71594
▁caso	-9.71762
▁aire	-9.71874
▁almuerzo	-9.72212
▁dirección	-9.72212
▁paraguas	-9.72212
▁prefiero	-9.72212
▁road	-9.72212
▁somebody	-9.72212
▁cuesta	-9.72219
▁jugando	-9.72219
▁wear	-9.72233
▁pasada	-9.72238
▁side	-9.7224
▁vendrá	-9.72271
▁venga	-9.72288
▁seemed	-9.72398
▁estuve	-9.72453
▁choice	-9.72645
▁shirt	-9.72725
▁guess	-9.73026
▁nuestros	-9.73078
▁entró	-9.73097
▁animales	-9.73146
▁dime	-9.73208
▁expect	-9.73774
▁talked	-9.73834
▁accept	-9.73854
▁peor	-9.73918
rought	-9.7399
▁comió	-9.7399
▁husband	-9.73996
▁shut	-9.74085
▁haz	-9.74114
▁missed	-9.74198
▁mía	-9.74253
ada	-9.74399
ate	-9.74484
▁abuelo	-9.74485
▁movies	-9.74546
el	-9.74815
▁llamó	-9.7489
▁quizá	-9.7489
▁feeling	-9.7492
▁driver	-9.74966
▁sell	-9.75025
▁sad	-9.75047
▁estaría	-9.75106
▁learned	-9.75274
▁lawyer	-9.75395
▁apple	-9.75456
▁pedí	-9.7556
▁realize	-9.75648
▁clear	-9.75757
▁either	-9.75799
▁figure	-9.758
▁deberes	-9.75829
▁states	-9.75995
ción	-9.7667
▁situación	-9.76717
▁siendo	-9.7674
▁viven	-9.76873
▁smoke	-9.77068
▁patient	-9.77194
▁barco	-9.77241
▁estúpido	-9.77249
▁seguir	-9.77283
▁minute	-9.77319
▁sent	-9.77358
vas	-9.77554
▁universidad	-9.77565
▁lying	-9.77646
▁rato	-9.77678
▁feed	-9.77684
▁thanks	-9.77721
▁animals	-9.77737
▁forward	-9.77737
▁hat	-9.77989
▁fine	-9.78039
▁rules	-9.78362
▁dance	-9.78399
▁piensas	-9.78519
▁danger	-9.78576
▁attention	-9.78577
▁leaving	-9.78577
▁rompió	-9.78577
▁mamá	-9.78584
▁paris	-9.78634
▁crying	-9.7868
▁meat	-9.7872
▁arm	-9.78836
▁seeing	-9.78985
▁estabas	-9.79004
▁control	-9.7907
▁peso	-9.7916
▁wall	-9.79164
▁ok	-9.79207
▁playa	-9.79437
▁twice	-9.79521
▁situation	-9.79521
▁habría	-9.79523
▁completamente	-9.79525
▁digas	-9.79697
▁visited	-9.79805
▁boys	-9.79903
▁lago	-9.79951
▁arrive	-9.79963
▁mar	-9.8
▁wash	-9.80002
▁pick	-9.80365
turned	-9.80399
▁test	-9.80425
▁driving	-9.80473
▁pudiera	-9.80473
▁share	-9.80474
▁vacation	-9.80474
▁desk	-9.8048
▁probablemente	-9.80487
▁finalmente	-9.80508
▁invited	-9.80567
▁fishing	-9.80638
▁llev	-9.80831
▁promise	-9.80949
i	-9.80963
▁hermosa	-9.8109
u	-9.81122
▁case	-9.81211
▁normal	-9.81374
▁parís	-9.81435
▁winter	-9.81435
▁beach	-9.81452
▁solve	-9.8149
▁trata	-9.8159
▁irme	-9.81707
▁drinking	-9.81752
▁decision	-9.82
▁responder	-9.82145
▁cambiar	-9.82154
▁opinión	-9.82406
▁invierno	-9.82407
▁imposible	-9.82408
▁address	-9.82413
▁terminó	-9.82413
▁grandfather	-9.82427
▁llevaba	-9.82538
▁sentó	-9.82549
▁pen	-9.82561
▁lake	-9.82565
▁ayudarte	-9.82635
▁vale	-9.82715
▁known	-9.82758
▁peligroso	-9.83044
▁p	-9.83056
▁minuto	-9.83085
▁vaso	-9.83382
▁blue	-9.83386
▁cuchillo	-9.83386
▁suppose	-9.83386
▁traffic	-9.83386
▁ocurrió	-9.83395
▁completely	-9.834
▁papá	-9.834
▁duele	-9.83409
▁alive	-9.83435
▁sala	-9.83473
▁closed	-9.83662
rank	-9.83738
▁ello	-9.83827
▁kids	-9.83907
to	-9.84001
▁medio	-9.8401
▁second	-9.84046
▁pedir	-9.84071
▁mountain	-9.84077
▁seat	-9.84107
▁papel	-9.84309
▁boca	-9.84347
▁divertido	-9.84376
▁próxima	-9.84376
▁airport	-9.84377
▁sleeping	-9.84683
▁ticket	-9.85085
▁resolver	-9.85087
puede	-9.85229
▁causa	-9.85238
▁pase	-9.85288
aba	-9.85337
▁worried	-9.85377
▁atrás	-9.85377
▁pieza	-9.85378
▁knife	-9.85379
▁carro	-9.8547
▁learning	-9.85707
crees	-9.86034
▁weekend	-9.86071
▁montaña	-9.86105
▁ship	-9.86119
▁abroad	-9.86386
▁aeropuerto	-9.86386
▁kitchen	-9.86386
▁hubo	-9.8639
▁mayoría	-9.86419
▁pena	-9.86749
▁triste	-9.87112
▁guy	-9.87148
▁kiss	-9.87176
▁londres	-9.87407
▁writing	-9.87407
▁llegué	-9.87407
▁abrió	-9.87407
▁cine	-9.87407
▁london	-9.87411
▁intentando	-9.87416
▁desearía	-9.87418
▁estábamos	-9.87427
▁younger	-9.87449
▁lamento	-9.87464
▁singing	-9.87545
▁meses	-9.87615
▁mantener	-9.87654
▁casado	-9.87733
▁eggs	-9.87869
▁capital	-9.87974
▁hiciera	-9.88021
▁less	-9.881
▁excuse	-9.88109
▁simple	-9.88376
▁voz	-9.88437
▁shopping	-9.88438
▁comido	-9.88438
▁ambos	-9.8844
▁venido	-9.88461
▁vayas	-9.88523
▁per	-9.88573
▁promised	-9.88597
▁viajar	-9.88642
▁esos	-9.88942
▁ocupada	-9.89157
▁fight	-9.89321
ya	-9.8947
▁except	-9.89478
▁wake	-9.89479
▁abrigo	-9.89481
▁suele	-9.89502
▁hiding	-9.89527
▁traje	-9.89568
▁sense	-9.89629
▁recordar	-9.8974
▁tie	-9.89938
tú	-9.90123
▁alta	-9.90139
▁cocinar	-9.90147
▁partido	-9.90263
▁abrir	-9.90302
▁begin	-9.90309
▁ideas	-9.90506
▁empieza	-9.90532
▁coat	-9.90532
▁escritorio	-9.90532
▁intentó	-9.90541
▁carry	-9.90556
▁worse	-9.90566
▁sitting	-9.90572
▁passed	-9.90689
▁tenés	-9.90702
▁grandes	-9.90726
▁doubt	-9.90822
▁though	-9.90865
▁huevos	-9.91023
▁worth	-9.91133
▁morir	-9.91191
▁machine	-9.9132
▁manzana	-9.91377
▁dejes	-9.91424
▁impossible	-9.91596
▁medicine	-9.91596
▁soccer	-9.91596
▁siguió	-9.91599
▁respecto	-9.91652
▁also	-9.91696
▁manzanas	-9.91815
▁llaves	-9.91897
▁esas	-9.92194
▁contar	-9.92464
▁amable	-9.926
▁sun	-9.9262
▁serious	-9.92633
▁success	-9.92667
▁corriendo	-9.92672
▁desayuno	-9.92675
▁bailar	-9.92695
▁aquella	-9.92701
▁suelo	-9.92728
▁dile	-9.9277
▁diga	-9.93098
▁apples	-9.93118
▁pareces	-9.93241
querés	-9.93272
▁opinion	-9.93456
tiene	-9.93501
▁silla	-9.93542
▁piece	-9.93565
▁lleno	-9.93566
▁bird	-9.93568
▁written	-9.93758
▁caliente	-9.93758
▁hacía	-9.93766
▁saben	-9.93852
▁listening	-9.93952
▁consider	-9.9397
▁chicos	-9.94222
▁fotos	-9.94638
▁afuera	-9.94711
▁gun	-9.94761
▁clima	-9.94766
▁foreign	-9.94842
▁corazón	-9.94857
▁trató	-9.94857
▁jefe	-9.94859
▁estuviera	-9.9486
▁funciona	-9.94908
▁quedarme	-9.94915
unque	-9.95011
▁tendrá	-9.95035
para	-9.95161
▁liked	-9.95204
▁taken	-9.95333
▁gas	-9.95362
▁matar	-9.95435
ro	-9.95735
▁mensaje	-9.95748
▁rojo	-9.95773
▁teach	-9.95794
▁church	-9.95968
▁cielo	-9.95968
▁ninguno	-9.95968
▁detrás	-9.95968
▁hablo	-9.95971
▁felices	-9.95972
▁ocho	-9.95975
▁supongo	-9.96057
g	-9.96264
tion	-9.96567
alguna	-9.96608
▁message	-9.96899
▁derecho	-9.96917
▁happens	-9.96954
▁bebe	-9.97085
▁iglesia	-9.97091
▁propia	-9.97091
▁sky	-9.97091
▁viendo	-9.97096
▁mirando	-9.97114
▁noticias	-9.97132
▁serio	-9.97159
▁expected	-9.97244
▁comprado	-9.97285
▁american	-9.97455
▁salt	-9.97485
▁cause	-9.97502
▁dicen	-9.97545
▁waste	-9.97719
▁perfect	-9.97841
▁public	-9.97875
▁past	-9.97887
▁paciente	-9.9802
▁chair	-9.98055
▁brazo	-9.98074
▁precio	-9.98075
▁save	-9.98135
▁iré	-9.98169
▁smart	-9.98228
▁éste	-9.98228
▁olvidó	-9.98241
▁ball	-9.983
▁walking	-9.9856
▁girls	-9.9861
▁amo	-9.98746
▁languages	-9.98907
▁keys	-9.99098
▁torta	-9.9912
▁caro	-9.99173
▁chocolate	-9.99187
▁tierra	-9.99188
▁horse	-9.99232
▁foot	-9.99277
▁pretend	-9.99363
▁francia	-9.99377
▁diciendo	-9.99378
▁confiar	-9.99473
▁correcto	-9.99584
▁months	-9.99638
con	-9.99667
▁irse	-9.99842
▁querés	-9.99905
▁mil	-10.0011
▁hermanos	-10.0015
▁quedé	-10.0028
▁siguiente	-10.0034
▁animal	-10.0036
▁tras	-10.0044
▁join	-10.0053
▁across	-10.0054
▁empleo	-10.0054
▁osaka	-10.0054
▁thousand	-10.0054
▁bread	-10.0054
▁comiendo	-10.0054
▁boss	-10.0054
▁easily	-10.0054
▁escribió	-10.0055
▁poca	-10.0055
▁shop	-10.0055
▁leído	-10.0056
▁pescado	-10.0056
▁segura	-10.0057
▁refused	-10.0059
▁pared	-10.008
▁france	-10.0084
▁happening	-10.0087
▁correr	-10.0094
podría	-10.0125
cia	-10.0128
▁pictures	-10.0133
▁count	-10.014
▁quiera	-10.0142
▁llega	-10.0149
▁fault	-10.0156
▁negro	-10.0159
▁anciano	-10.0159
▁contento	-10.0159
▁periódico	-10.016
▁domingo	-10.0161
▁novio	-10.0173
▁comenzó	-10.0174
▁shot	-10.0175
▁normalmente	-10.0176
▁favorita	-10.0177
▁carefully	-10.018
▁ves	-10.0195
▁lend	-10.0199
▁warm	-10.0228
▁sounds	-10.0247
▁smile	-10.0263
▁law	-10.027
▁sentence	-10.0278
▁amiga	-10.0279
or	-10.028
ha	-10.029
▁necesario	-10.0291
▁choose	-10.0291
▁suena	-10.0291
▁pueblo	-10.0291
▁sacó	-10.0292
▁boyfriend	-10.0292
▁necesitaba	-10.0299
▁domingos	-10.0301
▁estés	-10.0308
▁remind	-10.0315
▁reglas	-10.0329
▁cream	-10.0337
us	-10.0342
▁cuál	-10.0358
▁nació	-10.0371
▁surprise	-10.0381
est	-10.039
▁abierta	-10.0398
▁voice	-10.0399
▁piso	-10.0399
▁bath	-10.0403
▁significa	-10.0406
▁future	-10.0411
▁almorzar	-10.0412
▁habló	-10.0412
▁quedarse	-10.0416
▁inside	-10.0422
▁quedar	-10.0469
▁quiet	-10.0471
▁vuelve	-10.0523
▁parar	-10.0532
▁enemy	-10.0533
▁tarta	-10.0533
▁claro	-10.0533
▁prisa	-10.0533
▁ayudó	-10.0534
▁vosotros	-10.0536
▁simplemente	-10.0537
▁novela	-10.0538
▁pon	-10.0541
▁dejado	-10.0548
▁usa	-10.0562
▁ride	-10.058
▁pas	-10.0592
▁verme	-10.0596
▁honest	-10.0606
▁yours	-10.0628
▁novel	-10.0638
▁pizza	-10.0648
▁hundred	-10.065
▁noticia	-10.0652
▁college	-10.0657
▁hicieron	-10.0657
▁campo	-10.0659
▁contó	-10.0664
vimos	-10.0664
▁cooking	-10.0673
th	-10.0707
less	-10.071
▁date	-10.0711
▁echar	-10.0728
acaso	-10.0732
iendo	-10.0742
ás	-10.0762
▁remain	-10.0765
▁difference	-10.077
▁bridge	-10.0776
▁chinese	-10.0782
▁encontrado	-10.0782
▁demás	-10.0782
▁suddenly	-10.0783
▁evitar	-10.0784
▁laughed	-10.079
▁fuimos	-10.0806
▁escrito	-10.0864
ncluso	-10.0876
▁sign	-10.088
▁fat	-10.0889
▁escape	-10.0894
▁llegue	-10.0899
▁puente	-10.09
▁borracho	-10.0903
▁president	-10.0904
▁pobre	-10.0905
▁caballo	-10.0906
▁heavy	-10.0908
▁couple	-10.0908
▁somewhere	-10.0908
▁marry	-10.0908
▁eye	-10.0909
▁actually	-10.0909
▁slowly	-10.091
▁fear	-10.091
▁américa	-10.0912
▁asiento	-10.0912
▁cita	-10.0912
▁gana	-10.0922
▁beat	-10.0925
▁standing	-10.0927
▁sentía	-10.0928
▁stolen	-10.0935
▁c	-10.0938
▁buenos	-10.0945
▁decirme	-10.0951
▁cartas	-10.0969
▁entiende	-10.0994
▁gustaba	-10.1017
in	-10.103
▁helado	-10.1031
▁rock	-10.1032
▁newspaper	-10.1035
▁eight	-10.1036
▁futuro	-10.1036
▁lloviendo	-10.1036
▁policeman	-10.1037
▁translate	-10.1037
▁mouth	-10.1039
▁pesar	-10.1039
▁llegado	-10.104
▁presidente	-10.1041
▁humor	-10.1042
▁failed	-10.1044
▁entered	-10.1046
▁none	-10.1048
▁pescar	-10.1049
▁ama	-10.1051
▁shower	-10.1053
▁varia	-10.1064
▁green	-10.1094
▁wor	-10.1123
▁regret	-10.1164
▁twenty	-10.1166
▁azúcar	-10.1166
▁empty	-10.1166
▁earth	-10.1166
▁necessary	-10.1167
▁propio	-10.1167
▁marido	-10.1167
▁blood	-10.1167
▁casó	-10.1168
▁idioma	-10.1168
▁habrá	-10.1169
▁escribe	-10.1174
▁limpiar	-10.1176
▁t	-10.1176
▁ayudarme	-10.1188
▁aware	-10.1205
▁report	-10.1207
▁toca	-10.121
▁escucha	-10.1211
▁estudia	-10.1214
▁correct	-10.1229
▁brothers	-10.1272
▁fix	-10.1286
▁prison	-10.1296
▁fall	-10.1297
▁dejé	-10.1298
▁experiencia	-10.1298
▁kyoto	-10.1298
▁público	-10.1298
▁orgulloso	-10.1299
▁daño	-10.1299
▁verdaderamente	-10.1299
▁check	-10.1299
▁prueba	-10.13
▁sugar	-10.13
▁price	-10.1301
co	-10.1306
bajo	-10.1309
▁llevo	-10.1309
▁larga	-10.131
▁paseo	-10.1314
▁volveré	-10.1348
▁plans	-10.136
▁semanas	-10.1375
▁sentí	-10.1413
▁experience	-10.1415
▁fly	-10.1425
▁luna	-10.1428
▁enfadado	-10.143
▁querría	-10.143
▁durmiendo	-10.1431
▁funny	-10.1431
▁acostumbrado	-10.1432
▁smell	-10.1436
▁correo	-10.1442
▁dientes	-10.1446
▁moved	-10.1456
▁ley	-10.1468
▁siente	-10.1533
▁hará	-10.1537
ought	-10.1561
▁german	-10.1561
▁nervous	-10.1566
▁storm	-10.1566
▁tormenta	-10.1567
▁button	-10.1569
▁enamorado	-10.157
▁pájaro	-10.1574
▁leaves	-10.1589
▁viste	-10.1595
▁guys	-10.1601
▁buenas	-10.1607
▁sino	-10.1613
▁haces	-10.1652
▁eats	-10.1654
▁india	-10.1662
▁compras	-10.1675
▁seas	-10.1677
▁enfermedad	-10.1697
▁deep	-10.1699
▁luego	-10.1703
▁wallet	-10.1703
▁dijeron	-10.1706
▁blind	-10.1706
▁famoso	-10.171
▁sentado	-10.1712
▁ponga	-10.1714
▁gift	-10.1715
▁perfecto	-10.1719
▁kissed	-10.172
▁dado	-10.1736
▁vario	-10.1808
▁decide	-10.1839
▁proyecto	-10.1842
▁veinte	-10.1842
▁negó	-10.1842
▁zoo	-10.1842
▁grew	-10.1842
▁llegará	-10.1843
▁bolsa	-10.1846
▁matemáticas	-10.1847
▁wonderful	-10.185
▁contacto	-10.1851
▁bottle	-10.1851
▁recuerda	-10.1852
▁diferente	-10.1853
▁joke	-10.1853
▁list	-10.1863
▁means	-10.1873
▁staying	-10.192
▁dad	-10.1924
▁prestar	-10.1936
▁clock	-10.1943
▁veía	-10.1945
▁azul	-10.1976
▁owe	-10.1978
▁corbata	-10.1983
▁enferma	-10.1983
▁stood	-10.1983
▁sintió	-10.1984
▁received	-10.1989
▁native	-10.1991
▁fact	-10.2005
▁bother	-10.2007
▁verlo	-10.2021
▁llena	-10.2026
▁dios	-10.2037
▁murder	-10.2112
▁borrow	-10.2114
▁attend	-10.2114
▁especial	-10.2116
▁discuss	-10.2116
▁arma	-10.2116
▁planes	-10.2117
▁valor	-10.2119
▁jackson	-10.2126
▁taught	-10.2126
▁agradable	-10.2132
▁bonita	-10.2138
▁preocupado	-10.214
▁paso	-10.2147
▁king	-10.2148
▁herido	-10.2149
▁igual	-10.2178
▁decirte	-10.2197
▁mejores	-10.2217
▁vimos	-10.2218
ting	-10.2231
▁europe	-10.2258
▁charge	-10.2267
▁neither	-10.2271
▁beginning	-10.2271
▁oferta	-10.2271
▁prometió	-10.2271
▁quise	-10.2272
▁worst	-10.2272
▁diferencia	-10.2274
▁grave	-10.2278
▁sight	-10.2279
▁vivía	-10.2282
▁botella	-10.2288
▁smiled	-10.2289
▁birds	-10.2297
▁depende	-10.2303
▁calm	-10.2317
▁pone	-10.232
urante	-10.2327
▁yes	-10.2328
▁temo	-10.2374
▁ayude	-10.2386
▁cuidar	-10.2388
▁conocí	-10.2403
▁común	-10.2415
▁levantó	-10.2418
▁nueve	-10.2418
▁tuviera	-10.2418
▁abuela	-10.2418
▁spring	-10.2418
▁information	-10.2418
▁información	-10.2418
▁decidido	-10.2418
▁aceptar	-10.2418
▁common	-10.2418
▁inmediatamente	-10.2418
▁totalmente	-10.2419
▁soup	-10.242
▁tratando	-10.242
▁creía	-10.242
ieron	-10.2428
▁fruit	-10.243
▁film	-10.243
▁watched	-10.248
▁parado	-10.2495
▁village	-10.2567
▁discurso	-10.2567
▁encima	-10.2567
▁europa	-10.2567
▁llueve	-10.2567
▁máquina	-10.2567
▁tampoco	-10.2567
▁planning	-10.2567
▁sopa	-10.257
▁podrá	-10.2574
▁trees	-10.2588
▁bill	-10.2589
▁alegr	-10.2603
▁haberlo	-10.2613
ce	-10.2661
▁yen	-10.2667
▁top	-10.2706
▁succeed	-10.2706
▁speech	-10.2711
▁shall	-10.2719
▁assume	-10.2719
▁roto	-10.2719
▁anywhere	-10.2719
▁enojado	-10.2719
▁built	-10.2719
▁guapa	-10.2719
▁sorprendió	-10.2719
▁moon	-10.272
▁enseñó	-10.2721
▁cierra	-10.2722
▁hago	-10.2725
▁darle	-10.2738
▁line	-10.2745
▁junto	-10.2745
▁volverá	-10.2759
▁dan	-10.2774
▁deje	-10.2778
▁feelings	-10.2784
▁hang	-10.2812
▁grow	-10.2822
▁comí	-10.2843
▁admit	-10.2845
▁sepa	-10.2859
▁crowd	-10.2862
▁bar	-10.2871
▁exam	-10.2872
▁primavera	-10.2872
▁silencio	-10.2872
▁paz	-10.2873
▁soportar	-10.2873
▁cheese	-10.2873
▁apartment	-10.2873
▁single	-10.2879
▁rey	-10.2882
▁despierto	-10.289
▁picnic	-10.289
▁carrera	-10.2893
▁rang	-10.2894
▁cambio	-10.2895
▁enemigo	-10.2898
▁tuyo	-10.2902
▁olvidé	-10.2905
▁plays	-10.2906
▁fit	-10.291
▁resto	-10.2913
▁lavar	-10.2915
▁god	-10.2925
▁weeks	-10.2928
▁puedas	-10.2937
▁bear	-10.2967
▁abajo	-10.2969
alguien	-10.298
▁deserve	-10.3013
▁tratar	-10.3018
▁usual	-10.3022
▁alemán	-10.3029
▁conocido	-10.3029
▁fuji	-10.3029
▁repente	-10.3029
▁slept	-10.3029
▁sorpresa	-10.3029
▁studied	-10.3029
▁mintiendo	-10.3029
▁adelante	-10.3029
▁guilty	-10.3029
▁ganó	-10.3029
▁teeth	-10.3031
▁respect	-10.3031
▁type	-10.3039
▁sentimientos	-10.304
▁quedarte	-10.3041
▁web	-10.3055
▁ésta	-10.3059
▁odia	-10.3062
p	-10.3079
▁andar	-10.3094
▁hacen	-10.31
án	-10.3111
▁fill	-10.3141
▁forgive	-10.3147
▁leg	-10.3172
▁apologize	-10.3172
▁welcome	-10.3173
▁estáis	-10.3181
▁menor	-10.3182
▁bosque	-10.3187
▁history	-10.3187
▁project	-10.3187
▁yellow	-10.3187
▁botón	-10.3187
▁lentes	-10.319
▁locked	-10.3202
▁nine	-10.3202
▁saturday	-10.321
▁sorprendido	-10.3216
▁deseo	-10.3218
▁pelota	-10.3222
▁painting	-10.3225
▁cualquiera	-10.3226
▁verde	-10.3243
▁likely	-10.3269
▁tengas	-10.3271
▁convince	-10.3334
▁coger	-10.3336
▁funeral	-10.3349
▁vuelto	-10.3349
▁resfriado	-10.3349
▁seguridad	-10.3349
▁mitad	-10.3349
▁grandmother	-10.3349
hrew	-10.3349
▁tonto	-10.335
▁wedding	-10.335
▁throw	-10.3352
▁mom	-10.3373
▁alegra	-10.3374
▁pintura	-10.3379
▁segundo	-10.338
▁quitó	-10.3384
▁duda	-10.3401
▁olvides	-10.3407
▁sonó	-10.3408
▁player	-10.3428
eso	-10.3457
▁crime	-10.3474
▁cars	-10.3489
▁pocos	-10.3502
▁pájaros	-10.3504
▁jóvenes	-10.3513
▁medicina	-10.3513
▁vuestra	-10.3513
▁bike	-10.3513
▁fence	-10.3513
▁earlier	-10.3513
▁immediately	-10.3513
ver	-10.3513
b	-10.3513
▁premio	-10.3513
▁intención	-10.3514
▁held	-10.3514
▁prestado	-10.3515
▁tomado	-10.3523
▁tele	-10.3528
▁rule	-10.3534
▁esperanza	-10.3546
▁star	-10.3546
▁finger	-10.355
▁ojo	-10.3554
▁idiota	-10.3555
ré	-10.3584
▁drinks	-10.3591
▁sabemos	-10.3597
cogió	-10.3611
▁cards	-10.362
▁hacerte	-10.3625
▁breath	-10.365
▁ech	-10.3676
▁conocía	-10.3678
▁despacio	-10.3679
▁satisfied	-10.368
▁olvidado	-10.3681
▁boat	-10.3681
▁escuchando	-10.3681
▁ladrón	-10.3681
▁taller	-10.3682
▁position	-10.3683
▁culpable	-10.3684
▁intentar	-10.3687
▁painted	-10.3692
idad	-10.3692
▁returned	-10.3706
▁estudio	-10.3715
▁grupo	-10.3715
▁vieja	-10.3716
▁baja	-10.3741
▁asking	-10.377
▁alarm	-10.3777
▁rid	-10.3781
▁negocios	-10.3791
▁películas	-10.3808
▁pertenece	-10.3819
▁computador	-10.3829
▁canadá	-10.3849
▁kioto	-10.3849
▁prisión	-10.3849
▁woke	-10.3849
▁ahead	-10.3849
▁oyó	-10.3849
▁classroom	-10.3849
▁cruel	-10.3849
▁memoria	-10.3849
▁rápidamente	-10.385
▁hermoso	-10.385
▁extra	-10.3851
▁digo	-10.3851
▁harder	-10.386
béis	-10.3861
▁allowed	-10.3862
▁tears	-10.3863
▁árboles	-10.3864
▁picked	-10.3871
▁agreed	-10.388
▁museo	-10.3882
▁museum	-10.3882
▁listened	-10.3889
▁vuestro	-10.3891
▁otras	-10.3899
▁fired	-10.3912
era	-10.3945
▁alcohol	-10.3951
▁queso	-10.3969
▁interesa	-10.3973
▁special	-10.4001
▁personal	-10.4005
1	-10.4009
▁ordenador	-10.4015
▁alemania	-10.4021
▁ashamed	-10.4021
▁furniture	-10.4021
▁izquierda	-10.4021
▁multitud	-10.4021
▁paciencia	-10.4021
▁government	-10.4021
▁diario	-10.4022
▁cansada	-10.4022
▁juega	-10.4024
▁veré	-10.4025
▁germany	-10.4025
▁faster	-10.4026
▁paint	-10.4026
▁covered	-10.403
▁laugh	-10.4042
▁dressed	-10.4053
▁preferiría	-10.4056
▁allow	-10.4057
▁espalda	-10.4064
▁tema	-10.4073
▁miles	-10.4078
▁enviar	-10.4082
les	-10.409
▁hablan	-10.4096
▁wears	-10.4103
f	-10.4107
▁oro	-10.4124
▁enter	-10.4126
▁ellas	-10.4136
▁peace	-10.4174
▁cerrar	-10.4189
▁sientes	-10.4191
▁escuchó	-10.4197
▁tráfico	-10.4197
▁university	-10.4197
▁gafas	-10.4197
▁bajó	-10.4197
▁gustó	-10.4197
▁video	-10.4197
▁quiso	-10.4197
▁headache	-10.4197
▁raro	-10.4199
▁oscuro	-10.4199
▁interesado	-10.4201
▁tía	-10.4203
▁probable	-10.4204
▁casarse	-10.4208
▁noticed	-10.4212
▁washing	-10.4214
▁vayamos	-10.4215
▁aunt	-10.4218
▁decid	-10.422
▁honesto	-10.4223
▁correcta	-10.423
▁principio	-10.4238
▁lied	-10.424
▁canada	-10.4248
▁liar	-10.426
▁platos	-10.4279
▁nuevos	-10.4284
▁forever	-10.4298
▁traer	-10.4321
▁rains	-10.4321
▁podés	-10.4324
▁merece	-10.4325
▁judge	-10.4349
▁fond	-10.4365
ia	-10.4368
▁support	-10.4375
▁absent	-10.4375
▁courage	-10.4375
▁spanish	-10.4375
▁fresh	-10.4375
▁aprendí	-10.4375
▁robado	-10.4376
▁prize	-10.4376
▁subject	-10.4376
▁caminando	-10.4376
▁mostró	-10.4377
▁sonrió	-10.4377
▁solución	-10.4377
▁bedroom	-10.4379
▁avoid	-10.4381
▁complaining	-10.4381
▁golpeó	-10.4384
▁scared	-10.4385
▁buscar	-10.4392
▁theater	-10.4394
▁abre	-10.4402
▁missing	-10.4404
ciones	-10.4415
▁pair	-10.4418
▁nervioso	-10.4419
▁roja	-10.4426
▁suit	-10.4491
▁100	-10.4505
▁corta	-10.4515
▁stole	-10.4518
▁sang	-10.4528
▁notice	-10.4546
▁windows	-10.4547
▁pastel	-10.4551
▁luck	-10.4554
▁arroz	-10.4557
▁body	-10.4557
▁boring	-10.4557
▁course	-10.4557
▁delicious	-10.4557
▁ejercicio	-10.4557
▁friday	-10.4557
▁introduce	-10.4557
▁japoneses	-10.4557
▁sofá	-10.4557
▁sucedió	-10.4557
▁viernes	-10.4557
▁vuelo	-10.4557
▁rice	-10.4557
▁gobierno	-10.4557
▁brush	-10.4557
▁horrible	-10.4557
▁unfortunately	-10.4558
▁cambiado	-10.4559
▁hielo	-10.4559
▁disappointed	-10.4562
▁arrested	-10.4565
▁preguntaba	-10.4567
▁vegetables	-10.4578
bido	-10.4586
▁levanta	-10.4587
▁island	-10.4591
▁amaba	-10.4594
▁paró	-10.4598
▁map	-10.4601
▁ended	-10.4602
▁chicas	-10.4607
▁preparado	-10.4607
▁ring	-10.461
▁chino	-10.461
▁trampa	-10.461
▁entera	-10.4612
▁wood	-10.4612
▁soldiers	-10.4621
▁soldados	-10.4621
▁rent	-10.4625
mong	-10.463
▁profesora	-10.4644
rá	-10.465
▁sacar	-10.4659
todavía	-10.4694
▁bare	-10.4736
▁cáncer	-10.4742
▁encuentro	-10.4742
▁hicimos	-10.4742
▁innocent	-10.4742
▁license	-10.4742
▁permiso	-10.4742
▁purpose	-10.4742
▁straight	-10.4742
▁viento	-10.4742
▁guste	-10.4743
▁consiguió	-10.4743
▁llorando	-10.4743
▁chicago	-10.4743
▁desayunar	-10.4743
▁corrió	-10.4744
▁middle	-10.4744
▁centro	-10.4744
▁invite	-10.4746
▁cancer	-10.4751
▁ex	-10.4755
▁explained	-10.4771
▁lee	-10.4779
▁raise	-10.478
▁corto	-10.4792
▁bolígrafo	-10.4797
▁pierna	-10.4801
▁llamada	-10.4801
▁escaleras	-10.482
▁sports	-10.4825
▁answered	-10.4825
▁conocen	-10.484
▁ducha	-10.4842
▁español	-10.487
▁familiar	-10.4889
▁partir	-10.4912
▁parecen	-10.4915
▁post	-10.4917
▁aburrido	-10.4931
▁hobby	-10.4931
▁sonrisa	-10.4931
▁truck	-10.4931
▁understood	-10.4931
▁dropped	-10.4931
▁jacket	-10.4931
▁profundamente	-10.4932
▁bored	-10.4934
▁actor	-10.4935
▁race	-10.4935
▁yenes	-10.4939
▁reached	-10.494
▁nuestras	-10.496
▁darme	-10.496
▁af	-10.4961
▁wind	-10.4963
▁rara	-10.4985
▁discutir	-10.4987
▁cerrada	-10.4988
▁fruta	-10.4992
▁flower	-10.4994
ca	-10.5007
▁tra	-10.5015
▁cd	-10.5016
▁arreglar	-10.5038
▁permitir	-10.5052
▁conocer	-10.5061
▁corre	-10.5086
▁legs	-10.5089
▁appreciate	-10.5108
▁attack	-10.5111
▁isla	-10.5113
▁drop	-10.5113
▁natural	-10.5114
▁heat	-10.5123
▁explanation	-10.5123
▁frecuencia	-10.5123
▁injured	-10.5123
▁inocente	-10.5123
▁instead	-10.5123
▁opción	-10.5123
▁stuck	-10.5123
▁tarjeta	-10.5123
▁recognize	-10.5123
▁viviendo	-10.5123
▁stick	-10.5123
▁conductor	-10.5123
▁sweater	-10.5124
▁accused	-10.5124
▁power	-10.5124
▁linda	-10.5125
▁dishes	-10.5125
▁manejar	-10.513
▁madera	-10.5135
▁convinced	-10.5141
▁extreme	-10.5143
▁saved	-10.515
▁tuya	-10.5151
▁explicar	-10.5176
▁dedo	-10.5177
▁satisfecho	-10.5185
▁singer	-10.5187
▁verdadero	-10.5187
▁promesa	-10.5189
▁negocio	-10.5191
▁f	-10.5202
▁contact	-10.5217
ford	-10.5267
▁precios	-10.5271
▁agrada	-10.5272
▁fail	-10.5307
▁cool	-10.5318
▁account	-10.5319
▁awake	-10.5319
▁cash	-10.5319
▁chaqueta	-10.5319
▁consciente	-10.5319
▁cuerpo	-10.5319
▁intelligent	-10.5319
▁japonesa	-10.5319
▁lápiz	-10.5319
▁midnight	-10.5319
▁segunda	-10.5319
▁llame	-10.5319
▁cortó	-10.5319
▁space	-10.5319
▁respondió	-10.5319
▁absolutely	-10.532
▁seriously	-10.5327
▁mapa	-10.5331
▁tenéis	-10.5336
▁sangre	-10.5336
▁pies	-10.5345
▁países	-10.5349
▁enseñar	-10.5364
▁crimen	-10.5366
▁comenzar	-10.5379
▁orden	-10.5381
▁exercise	-10.5382
▁cantante	-10.5385
▁frase	-10.5385
▁incendio	-10.5385
▁nativo	-10.5386
▁encuentra	-10.5387
▁limpia	-10.5392
▁mentira	-10.5394
▁romper	-10.5401
▁speaker	-10.5403
▁belongs	-10.5412
▁irte	-10.5445
ful	-10.5448
▁mirar	-10.547
esto	-10.5474
▁believed	-10.5481
▁decidir	-10.5509
▁general	-10.5514
▁hung	-10.5517
▁england	-10.5519
▁escuché	-10.5519
▁harvard	-10.5519
▁medianoche	-10.5519
▁behavior	-10.5519
▁duty	-10.5519
▁escribiendo	-10.5519
▁dirty	-10.5519
▁explicación	-10.552
▁recently	-10.552
▁bigger	-10.5521
▁shy	-10.5522
▁huele	-10.5522
▁entire	-10.5526
▁sooner	-10.5532
▁elegir	-10.5534
▁low	-10.5538
▁fighting	-10.5539
▁ordered	-10.5552
▁darte	-10.5564
▁sold	-10.5574
▁cargo	-10.5588
▁rica	-10.5589
▁group	-10.5589
▁pencil	-10.5591
▁broma	-10.5592
▁entrada	-10.5592
▁flor	-10.5596
▁lock	-10.5597
▁keeps	-10.5609
son	-10.5612
▁hables	-10.5633
robó	-10.5642
▁agarr	-10.5647
▁necesitan	-10.5666
podemos	-10.5675
▁averiguar	-10.5692
▁querías	-10.5706
▁cruz	-10.5713
▁idiomas	-10.5721
▁hid	-10.5721
▁gold	-10.5722
▁accord	-10.5723
▁espacio	-10.5723
▁fiebre	-10.5723
▁toilet	-10.5723
▁murieron	-10.5723
▁nací	-10.5723
▁descanso	-10.5724
▁dispuesto	-10.5725
▁salvo	-10.5725
▁hazlo	-10.5729
▁card	-10.573
▁healthy	-10.5731
▁human	-10.5747
▁daré	-10.5752
él	-10.5756
ted	-10.577
▁convencer	-10.5773
▁employees	-10.5779
▁cuerda	-10.5792
▁risk	-10.5797
▁boda	-10.5797
▁cookies	-10.5799
▁san	-10.5803
▁bella	-10.5804
▁resultado	-10.5805
▁hey	-10.5813
▁casada	-10.5827
▁compare	-10.585
▁dices	-10.5851
▁anda	-10.5883
▁protect	-10.5884
▁bell	-10.5888
▁art	-10.5888
▁apareció	-10.5895
▁relax	-10.5909
▁sisters	-10.5925
▁prices	-10.5926
▁fair	-10.5927
▁escapar	-10.5931
▁dancing	-10.5932
▁inglaterra	-10.5932
▁themselves	-10.5932
▁mood	-10.5932
▁pasaporte	-10.5932
▁passport	-10.5932
▁billetera	-10.5932
▁copy	-10.5933
▁size	-10.5935
▁aprendiendo	-10.5937
▁pedirle	-10.5939
▁pregunté	-10.5939
▁ocultar	-10.594
▁bote	-10.5943
▁harm	-10.5959
▁accepted	-10.596
▁duerme	-10.5962
k	-10.5967
ría	-10.5969
▁empleados	-10.5995
ió	-10.6007
▁línea	-10.601
▁sábado	-10.6013
▁muchacho	-10.6013
▁página	-10.6013
▁handed	-10.6014
▁modo	-10.6016
▁intenta	-10.6033
▁dreams	-10.6052
▁irá	-10.6062
▁encantan	-10.6066
▁talks	-10.6068
jo	-10.6072
id	-10.608
adamente	-10.6089
▁trae	-10.609
.000	-10.6094
▁italia	-10.6102
▁tanta	-10.6117
▁ventanas	-10.6121
▁hermanas	-10.6131
▁knock	-10.6136
aste	-10.6141
giving	-10.6144
▁lonely	-10.6145
▁cambió	-10.6145
▁casualidad	-10.6145
▁derecha	-10.6145
▁bromeando	-10.6145
▁fresco	-10.6145
▁suicide	-10.6145
▁monte	-10.6145
▁fever	-10.6146
▁italy	-10.6147
▁mató	-10.615
▁motor	-10.615
▁solas	-10.6151
▁laughing	-10.6156
▁preocupes	-10.6157
▁fuiste	-10.6163
▁expecting	-10.6167
▁canciones	-10.6176
▁vuelva	-10.6189
▁pintar	-10.6191
▁recibir	-10.6192
▁feels	-10.6195
▁idiot	-10.6213
▁rained	-10.6225
▁gusto	-10.6225
▁política	-10.6228
▁bonito	-10.6228
▁vivid	-10.623
▁deporte	-10.6236
▁importar	-10.6241
▁luces	-10.6242
ella	-10.6262
▁piernas	-10.6293
go	-10.633
▁treat	-10.6348
▁mente	-10.6354
▁sentir	-10.6358
▁cien	-10.6361
▁comienza	-10.6362
▁cárcel	-10.6362
▁genial	-10.6362
▁seldom	-10.6362
▁absoluta	-10.6362
▁asesinato	-10.6362
▁propuesta	-10.6362
▁perdón	-10.6362
▁math	-10.6363
▁robaron	-10.6364
▁involved	-10.6364
▁cumplir	-10.6365
▁oil	-10.6365
▁explicó	-10.6365
▁acabó	-10.6366
▁prove	-10.6377
▁arte	-10.6384
▁pasamos	-10.6391
▁pasará	-10.6407
▁begins	-10.6411
▁volar	-10.6416
▁casar	-10.6438
▁leí	-10.644
▁chicken	-10.6445
▁flight	-10.6447
▁magazine	-10.6452
▁maleta	-10.6452
▁suyo	-10.6465
▁lack	-10.648
▁hablado	-10.6503
ación	-10.6532
▁uso	-10.6545
▁das	-10.6565
na	-10.657
▁eras	-10.6574
▁ante	-10.6576
▁cheap	-10.6583
▁jealous	-10.6584
▁pérdida	-10.6584
▁roof	-10.6584
▁sencilla	-10.6584
▁thief	-10.6584
▁suspect	-10.6584
▁comportamiento	-10.6584
▁dudo	-10.6584
▁cometido	-10.6584
▁destino	-10.6584
▁continue	-10.6585
▁vine	-10.6585
amente	-10.6586
▁cried	-10.6586
▁butter	-10.6587
▁importaría	-10.6587
▁fría	-10.6587
▁recibió	-10.659
▁techo	-10.659
▁trabajó	-10.6592
▁land	-10.6596
▁llamaré	-10.6599
▁fácilmente	-10.6599
▁besó	-10.6603
▁raised	-10.6603
▁muebles	-10.6603
▁dedos	-10.6606
▁fed	-10.6607
▁podé	-10.6609
▁considered	-10.661
▁followed	-10.6624
▁vote	-10.6657
▁fool	-10.6657
▁view	-10.667
▁trozo	-10.6679
▁pocket	-10.6679
▁revista	-10.6681
▁preguntar	-10.6689
▁calling	-10.6692
▁cortar	-10.6708
▁hablas	-10.6716
▁meant	-10.6724
conoces	-10.6726
▁admitt	-10.6763
▁jokes	-10.6794
▁conoces	-10.6795
▁útil	-10.6805
▁ciego	-10.6811
▁countries	-10.6811
▁eventually	-10.6811
▁football	-10.6811
▁hokkaido	-10.6811
▁internet	-10.6811
▁ourselves	-10.6811
▁propósito	-10.6811
▁quince	-10.6811
▁solution	-10.6811
▁famosa	-10.6811
▁camión	-10.6811
▁facilidad	-10.6811
▁mediodía	-10.6811
▁oscuridad	-10.6811
▁memory	-10.6812
▁forgotten	-10.6812
▁excelente	-10.6812
▁lady	-10.6813
▁quédate	-10.6816
▁climbed	-10.6822
▁cerró	-10.6823
▁lágrimas	-10.6825
▁entero	-10.6827
▁galletas	-10.6828
▁hagamos	-10.6839
▁extrem	-10.6859
áis	-10.6861
ies	-10.6868
▁taste	-10.69
▁blanca	-10.6908
▁supiera	-10.6911
▁piedra	-10.6911
▁dulce	-10.6913
▁neighbor	-10.6913
los	-10.6914
▁stranger	-10.6923
▁rumor	-10.6925
▁sueños	-10.6928
▁hable	-10.6932
▁parada	-10.6933
usted	-10.6934
▁games	-10.6954
▁diet	-10.7012
▁enseña	-10.7022
▁iremos	-10.7024
▁honor	-10.7029
▁stuff	-10.703
▁canta	-10.703
▁appear	-10.7032
▁lay	-10.7032
▁televisor	-10.7036
▁rude	-10.7044
▁barato	-10.7044
▁demasiada	-10.7044
▁dumb	-10.7044
▁inmediato	-10.7044
▁stairs	-10.7044
▁feet	-10.7044
▁teatro	-10.7044
▁joking	-10.7044
▁escondiendo	-10.7044
▁unlikely	-10.7044
▁corner	-10.7044
▁denied	-10.7045
▁pegó	-10.7045
▁salido	-10.7045
▁éstos	-10.7046
▁useful	-10.7046
▁menu	-10.7047
▁delante	-10.705
▁managed	-10.7052
▁acabado	-10.7053
▁llamado	-10.7054
▁rope	-10.7054
▁continued	-10.7061
▁tendré	-10.7062
▁subió	-10.7067
▁dieta	-10.7071
▁doble	-10.7071
▁compraste	-10.7072
▁washed	-10.7074
▁contestar	-10.7076
▁cometer	-10.7082
▁regresar	-10.7092
▁extraña	-10.7105
▁sois	-10.7108
▁willing	-10.7126
▁exist	-10.7129
▁quedaré	-10.7132
▁invitados	-10.7142
▁fábrica	-10.7144
▁habit	-10.7147
▁sweet	-10.7148
▁bolsillo	-10.715
▁claim	-10.7152
tu	-10.7156
▁songs	-10.7167
▁gra	-10.7182
▁ma	-10.7207
▁losing	-10.7213
eron	-10.7213
ido	-10.723
▁lenguas	-10.7231
▁preparar	-10.7235
▁dejara	-10.7249
▁trap	-10.7271
▁correos	-10.7275
▁tight	-10.7278
▁visa	-10.7279
▁comienzo	-10.7282
▁disparó	-10.7282
▁fifteen	-10.7282
▁jazz	-10.7282
▁obra	-10.7282
▁recommend	-10.7282
▁temperatura	-10.7282
▁juice	-10.7282
▁million	-10.7282
▁above	-10.7282
▁sabido	-10.7282
▁peces	-10.7282
▁goodbye	-10.7282
▁comfortable	-10.7282
▁recibí	-10.7282
▁pity	-10.7283
▁south	-10.7283
▁educación	-10.7283
▁basura	-10.7283
▁sushi	-10.7284
▁felicidad	-10.7285
▁happiness	-10.7285
▁invitó	-10.7286
▁confused	-10.7287
▁describe	-10.7288
▁forced	-10.7292
▁asistir	-10.7294
▁últimamente	-10.7298
▁prepared	-10.7302
quiere	-10.7308
▁escaped	-10.7311
▁querían	-10.7318
▁helping	-10.7333
▁doce	-10.7338
w	-10.7339
▁míos	-10.7351
▁add	-10.7359
▁ocupados	-10.7374
vivió	-10.7382
▁season	-10.7396
▁kid	-10.7397
cted	-10.7425
▁ayudara	-10.7434
ban	-10.7435
▁debía	-10.7454
ness	-10.7481
▁llamas	-10.7487
quiera	-10.7502
▁principal	-10.7519
▁similar	-10.7519
bbed	-10.7522
▁cruzar	-10.7525
▁accustom	-10.7526
▁adentro	-10.7526
▁appointment	-10.7526
▁discusión	-10.7526
▁hablé	-10.7526
▁llueva	-10.7526
▁request	-10.7526
▁supermarket	-10.7526
▁supermercado	-10.7526
▁argue	-10.7526
▁tongue	-10.7526
▁factory	-10.7526
▁pez	-10.7526
▁blew	-10.7526
▁anyway	-10.7527
▁arriba	-10.7528
▁drugs	-10.7531
▁bomb	-10.7531
▁gate	-10.7532
▁fixed	-10.7549
▁armas	-10.7549
▁vender	-10.7554
ese	-10.7555
▁beso	-10.7555
▁americans	-10.7563
▁aquellos	-10.7593
▁espere	-10.7595
▁mountains	-10.7601
▁preocupa	-10.7624
▁calls	-10.7627
▁oranges	-10.7632
▁traj	-10.7634
▁harto	-10.7637
▁muñeca	-10.7639
▁letters	-10.764
▁conduce	-10.7641
▁earthquake	-10.7642
gged	-10.7643
▁stone	-10.7643
▁vecino	-10.7646
▁teníamos	-10.7647
▁tastes	-10.7665
▁lleve	-10.7672
▁hacemos	-10.7674
▁condition	-10.7682
▁programa	-10.7696
▁fingers	-10.7722
▁pinta	-10.7728
▁descubri	-10.7733
▁fingi	-10.7735
▁pelea	-10.7741
ped	-10.7752
▁tenían	-10.7759
▁intend	-10.7764
▁allergi	-10.7772
▁paga	-10.7772
▁jugador	-10.7775
▁attempt	-10.7776
▁maestro	-10.7776
▁temperature	-10.7776
▁particular	-10.7776
▁esquina	-10.7776
▁gratis	-10.7776
▁levanté	-10.7776
▁teoría	-10.7776
▁bathroom	-10.7776
▁distancia	-10.7776
▁gordo	-10.7776
▁illness	-10.7776
▁encontramos	-10.7776
▁intenté	-10.7777
▁llámame	-10.7777
▁excited	-10.7777
▁diré	-10.7778
▁planea	-10.7779
▁levantarse	-10.778
▁increíble	-10.778
▁burned	-10.7785
▁brave	-10.7786
▁distance	-10.7789
▁llegamos	-10.779
▁hablante	-10.7792
▁u	-10.7793
▁g	-10.7798
las	-10.7809
hap	-10.7811
▁lights	-10.7813
▁act	-10.7816
▁step	-10.7817
▁contado	-10.7818
▁cola	-10.7823
▁hojas	-10.7851
rse	-10.7868
▁acaso	-10.7875
▁alcanzar	-10.7881
▁mentiroso	-10.7893
▁caballero	-10.7895
▁fondo	-10.7908
▁partes	-10.7915
▁cuida	-10.7925
▁meaning	-10.7932
tuvieron	-10.7962
va	-10.7968
▁hi	-10.798
▁copia	-10.7989
man	-10.8013
▁obey	-10.802
▁distinguir	-10.802
▁escribí	-10.8022
▁mañanas	-10.8025
seando	-10.8026
▁silent	-10.8028
▁area	-10.8029
▁enorme	-10.803
▁mo	-10.803
▁absoluto	-10.8032
▁ajedrez	-10.8032
▁avergonzado	-10.8032
▁bebida	-10.8032
▁cuello	-10.8032
▁excellent	-10.8032
▁llamé	-10.8032
▁moving	-10.8032
▁nosotras	-10.8032
▁naked	-10.8032
▁gentleman	-10.8032
▁bolso	-10.8032
▁naive	-10.8032
▁theory	-10.8033
▁email	-10.8033
▁ése	-10.8033
▁chess	-10.8033
▁recibido	-10.8034
▁preparando	-10.8034
▁discovered	-10.8035
▁pretende	-10.8036
▁llegaste	-10.8041
▁jumped	-10.8041
▁apuesto	-10.8041
▁loud	-10.8049
▁limpio	-10.8053
▁climate	-10.8054
▁mail	-10.8055
▁apagar	-10.8061
▁saberlo	-10.8061
▁pleased	-10.8069
▁vemos	-10.8075
▁descansar	-10.8083
▁detalles	-10.8085
pareció	-10.81
h	-10.8116
▁desea	-10.8129
▁culpar	-10.8137
ándose	-10.815
▁pistola	-10.8157
▁costumbre	-10.8158
▁mirada	-10.8159
▁cuidadoso	-10.8161
▁fuerza	-10.8163
▁suitcase	-10.8163
▁hole	-10.8163
▁fotografía	-10.8164
▁metro	-10.8168
▁molesta	-10.8187
▁farm	-10.82
▁andando	-10.8201
▁ganado	-10.8205
time	-10.8221
▁meal	-10.8222
▁despertar	-10.8227
▁oh	-10.8235
▁imagin	-10.824
ga	-10.8243
prendió	-10.826
▁guard	-10.8261
▁cross	-10.8266
▁climb	-10.8273
▁reach	-10.8283
▁pull	-10.8288
▁slow	-10.829
▁patience	-10.8296
▁proposal	-10.8296
▁resemble	-10.8296
▁studies	-10.8296
▁examination	-10.8296
▁handsome	-10.8296
▁lazy	-10.8296
▁sospechoso	-10.8296
▁clever	-10.8296
▁menú	-10.8296
▁pedido	-10.8296
▁salary	-10.8296
▁awful	-10.8296
▁cubierta	-10.8296
▁someday	-10.8297
▁anillo	-10.8297
enza	-10.8298
▁esposo	-10.8299
▁cute	-10.8299
▁mt	-10.83
▁preguntarle	-10.8301
▁stealing	-10.8302
▁dieron	-10.8303
▁bajar	-10.8303
▁prevented	-10.8303
▁skiing	-10.8305
▁suggested	-10.8305
▁rome	-10.8306
▁record	-10.8316
▁llegaron	-10.8316
▁teaching	-10.8318
▁sleepy	-10.8325
▁montar	-10.833
▁band	-10.833
▁dejaré	-10.8335
▁urgente	-10.8337
▁drogas	-10.8343
▁pieces	-10.8345
▁mayores	-10.8346
▁trusted	-10.8348
▁friendly	-10.8349
▁ski	-10.8357
▁vol	-10.8362
▁casados	-10.8374
viste	-10.8377
arse	-10.8383
miento	-10.8392
▁hearing	-10.8397
están	-10.8412
▁naranjas	-10.8417
▁banda	-10.8422
▁ear	-10.8424
▁terremoto	-10.8431
▁vacía	-10.8433
▁atrapado	-10.8433
▁diría	-10.8434
▁cousin	-10.8434
▁skirt	-10.8435
▁vecinos	-10.8435
▁holiday	-10.8435
▁bomba	-10.8439
▁runs	-10.8452
▁apart	-10.8459
▁golpe	-10.8462
▁dura	-10.8464
▁arrest	-10.8476
ir	-10.8478
▁sonar	-10.8514
nte	-10.8523
▁necesitar	-10.853
▁smells	-10.8556
▁hogar	-10.8558
▁posibilidad	-10.8559
▁valiente	-10.8563
▁carretera	-10.8566
▁durmió	-10.8566
▁empresa	-10.8566
▁nariz	-10.8566
▁población	-10.8566
▁responsible	-10.8566
▁twelve	-10.8566
▁permission	-10.8566
▁refrigerator	-10.8566
▁sueldo	-10.8566
▁impidió	-10.8566
▁jail	-10.8566
▁pareja	-10.8566
▁orgullosa	-10.8566
▁bottom	-10.8566
▁respeto	-10.8566
▁vistazo	-10.8566
▁profundo	-10.8566
▁equivocada	-10.8566
▁confianza	-10.8566
▁cartera	-10.8567
▁grass	-10.8568
▁upset	-10.8568
▁envió	-10.8568
▁due	-10.857
▁abandoned	-10.8572
▁kick	-10.8575
▁texto	-10.8577
▁clearly	-10.8579
▁imagine	-10.8583
▁attended	-10.8589
▁difficulty	-10.8592
▁sh	-10.8592
▁socks	-10.8593
▁verduras	-10.8593
▁reserva	-10.8594
▁estuviste	-10.8602
▁solved	-10.8608
▁papas	-10.8613
▁duró	-10.8621
▁coge	-10.8623
▁profesores	-10.8628
▁adopt	-10.8634
▁vete	-10.8644
▁noon	-10.8651
▁verg	-10.8654
ity	-10.8655
▁matters	-10.8656
filled	-10.8657
▁estrellas	-10.8691
▁cuadro	-10.8704
▁artículo	-10.8706
▁dormitorio	-10.8706
▁objetivo	-10.8709
▁page	-10.8712
▁belong	-10.8714
▁plato	-10.8714
▁huevo	-10.8714
remos	-10.8715
▁computadora	-10.8725
▁cabo	-10.8725
▁turno	-10.873
▁debí	-10.8758
▁costs	-10.8782
▁urgent	-10.88
▁dormí	-10.8809
▁dry	-10.8834
▁reír	-10.8836
▁match	-10.8838
▁slight	-10.8839
▁amount	-10.8844
▁disculpe	-10.8844
▁emergency	-10.8844
▁estómago	-10.8844
▁responsable	-10.8844
▁sistema	-10.8844
▁tímido	-10.8844
▁amistad	-10.8844
▁opportunity	-10.8844
▁esquiar	-10.8844
▁ipad	-10.8844
▁prohibido	-10.8844
▁dying	-10.8844
▁agreement	-10.8844
▁preferido	-10.8845
▁neck	-10.8846
▁potatoes	-10.8846
▁agradecido	-10.8846
▁trago	-10.8846
▁completo	-10.8846
▁saludable	-10.8849
▁listos	-10.8849
▁popula	-10.8852
▁ciento	-10.8853
▁cantando	-10.8859
▁bang	-10.8859
▁teaches	-10.886
▁quedado	-10.8861
ry	-10.8863
▁sonido	-10.8865
▁deaf	-10.8867
▁calma	-10.8867
▁regalos	-10.887
▁kinds	-10.8871
▁pond	-10.8871
▁esperamos	-10.8871
▁dale	-10.8876
▁levantar	-10.8876
▁probar	-10.8879
este	-10.8911
▁depends	-10.8918
▁tickets	-10.8925
▁rare	-10.8939
▁ears	-10.8975
▁vengas	-10.8975
▁viejos	-10.8984
▁lasted	-10.8987
▁visita	-10.8995
▁estrella	-10.8999
▁naranja	-10.8999
▁egg	-10.9
▁rose	-10.9002
▁luce	-10.9003
▁poema	-10.9009
▁bite	-10.902
▁hated	-10.9025
▁spends	-10.9028
▁artist	-10.9029
▁noches	-10.9055
bió	-10.9059
ook	-10.9066
iste	-10.9096
▁creí	-10.9107
▁permite	-10.9112
▁bright	-10.9127
▁airplane	-10.9129
▁cincuenta	-10.9129
▁energy	-10.9129
▁improbable	-10.9129
▁lloró	-10.9129
▁neighborhood	-10.9129
▁plenty	-10.9129
▁relación	-10.9129
▁stories	-10.9129
▁system	-10.9129
▁drove	-10.9129
▁inútil	-10.9129
▁musician	-10.9129
▁cabello	-10.9129
▁remedio	-10.9129
▁hubiese	-10.9129
▁nurse	-10.9129
▁ground	-10.9129
▁winning	-10.9129
▁convencido	-10.913
▁convenció	-10.913
▁ejemplo	-10.913
▁definite	-10.9139
▁passengers	-10.9139
▁querer	-10.914
▁crossed	-10.9143
▁hill	-10.9145
▁flying	-10.915
▁admiti	-10.9153
▁weak	-10.9154
▁bebió	-10.9154
▁leyó	-10.9159
▁classes	-10.9166
▁siga	-10.9169
▁express	-10.9175
▁llen	-10.9178
▁acordar	-10.918
▁tomé	-10.9191
▁requiere	-10.9195
▁prepare	-10.9209
▁caer	-10.9222
▁miembros	-10.9223
▁alarma	-10.9228
▁autos	-10.9248
▁hablaba	-10.9248
▁seré	-10.9256
▁rog	-10.9262
▁nor	-10.9277
▁poem	-10.9279
▁ingenuo	-10.9282
▁motivo	-10.9284
▁uses	-10.9285
▁bienvenido	-10.9288
▁scientist	-10.929
▁buying	-10.9292
▁esfuerzo	-10.9292
▁photo	-10.9292
▁neighbors	-10.9292
▁sport	-10.9294
▁detail	-10.9306
▁tomando	-10.9307
▁abra	-10.9327
▁mover	-10.9334
▁woods	-10.9335
▁hagan	-10.9345
▁stars	-10.9358
▁divide	-10.9358
▁proteger	-10.9388
▁pre	-10.9394
▁hechos	-10.9399
▁diferentes	-10.9401
▁complete	-10.9405
▁salí	-10.9415
▁necesidad	-10.9416
▁compra	-10.9417
▁wise	-10.9419
▁sharp	-10.9421
▁education	-10.9422
▁rehus	-10.9423
safortunadamente	-10.9423
▁confío	-10.9423
▁conversation	-10.9423
▁elevator	-10.9423
▁españa	-10.9423
▁falda	-10.9423
▁mantequilla	-10.9423
▁pantalones	-10.9423
▁pool	-10.9423
▁puntual	-10.9423
▁smiling	-10.9423
▁market	-10.9423
▁puzzle	-10.9423
▁sofa	-10.9423
▁subway	-10.9423
▁esperó	-10.9423
▁example	-10.9423
▁fifty	-10.9424
▁easier	-10.9424
▁spain	-10.9424
▁matrimonio	-10.9424
▁cantidad	-10.9424
▁thirsty	-10.9424
▁bench	-10.9425
▁louder	-10.9425
▁eleven	-10.9425
▁asustado	-10.9425
▁manager	-10.9426
▁huge	-10.9426
▁pagó	-10.9426
▁confía	-10.9427
▁stronger	-10.9428
▁llovió	-10.9429
reció	-10.9432
▁camina	-10.9433
▁article	-10.9439
▁ignored	-10.9441
▁attacked	-10.9442
▁novelas	-10.9444
▁llevas	-10.9447
▁conocemos	-10.9449
▁millas	-10.945
▁drug	-10.945
tendremos	-10.9461
▁visité	-10.9462
▁invitar	-10.9464
▁saltó	-10.9467
▁complain	-10.947
▁entra	-10.9476
▁within	-10.9477
▁forest	-10.9485
▁doll	-10.949
▁jugo	-10.9512
▁tarda	-10.9521
▁escritor	-10.9529
▁coma	-10.9558
▁asegurar	-10.9564
aré	-10.9573
▁results	-10.9577
▁informe	-10.9583
▁pasatiempo	-10.9584
▁cab	-10.9585
▁intention	-10.959
▁malas	-10.959
▁ésa	-10.9591
▁cierta	-10.9593
▁estúpida	-10.9594
▁estadounidense	-10.9596
▁orange	-10.9596
▁acepta	-10.9611
▁venta	-10.9617
▁dará	-10.9638
▁roma	-10.9657
▁suya	-10.9667
tenés	-10.9678
realmente	-10.9678
▁modern	-10.9704
▁press	-10.9711
▁persuade	-10.9712
▁suffer	-10.9717
▁ignore	-10.9717
io	-10.9719
▁sandwich	-10.972
tengo	-10.9722
virtió	-10.9725
▁round	-10.9726
▁curious	-10.9726
▁energía	-10.9726
▁huyó	-10.9726
▁ocean	-10.9726
▁rechazó	-10.9726
▁violence	-10.9726
▁violencia	-10.9726
▁área	-10.9726
▁conoció	-10.9726
▁equipaje	-10.9726
▁kidding	-10.9726
▁pollo	-10.9726
▁center	-10.9726
▁castillo	-10.9727
▁libertad	-10.9727
▁traducir	-10.9727
▁committed	-10.9727
▁ambas	-10.9727
▁héroe	-10.9727
▁granja	-10.9728
▁puse	-10.9728
▁tallest	-10.9728
▁castle	-10.9729
▁perfectamente	-10.9729
▁empezado	-10.9729
▁caballos	-10.9732
▁third	-10.9732
▁querido	-10.9732
▁mathematics	-10.9733
▁generally	-10.9733
▁robar	-10.9733
▁escuchado	-10.9733
▁significado	-10.9736
▁smaller	-10.9736
▁veamos	-10.9737
▁survived	-10.9737
▁habido	-10.9737
▁perfectly	-10.9738
▁hello	-10.974
▁beside	-10.9741
▁tratado	-10.9742
▁escriba	-10.9742
▁guests	-10.9749
▁artista	-10.9756
▁fuma	-10.9756
▁require	-10.9758
▁horses	-10.9765
▁using	-10.9766
▁starting	-10.98
▁hablamos	-10.9804
▁montañas	-10.9812
▁disfruta	-10.9821
▁respuestas	-10.9824
▁members	-10.9824
▁compar	-10.9829
ero	-10.983
▁loca	-10.9843
▁imaginar	-10.9846
▁contract	-10.9847
▁viva	-10.9851
▁estadounidenses	-10.9859
▁hurts	-10.9864
▁riesgo	-10.9891
▁sta	-10.9898
▁conferencia	-10.9899
▁abierto	-10.9902
▁afortunado	-10.9903
▁servicio	-10.9904
▁hombro	-10.9904
▁escalera	-10.9909
▁invitado	-10.991
▁resultados	-10.9921
▁ayudarle	-10.9924
▁pelear	-10.9941
▁extranjeros	-10.9942
▁sundays	-10.9963
▁quedara	-10.9981
▁plant	-10.9982
▁draw	-10.9984
▁mention	-11.0029
▁main	-11.003
▁h	-11.0034
▁pequeños	-11.0037
▁ocurrir	-11.0037
▁aceptó	-11.0039
▁brown	-11.0039
▁conversación	-11.0039
▁garage	-11.0039
▁illegal	-11.0039
▁lincoln	-11.0039
▁maravilloso	-11.0039
▁october	-11.0039
▁octubre	-11.0039
▁paquete	-11.0039
▁pudimos	-11.0039
▁website	-11.0039
▁esperé	-11.0039
▁colina	-11.0039
▁washington	-11.0039
▁weird	-11.0039
▁trece	-11.0039
▁curso	-11.0039
▁tough	-11.0039
▁houses	-11.0039
▁pregúntale	-11.004
▁credit	-11.004
▁elección	-11.004
▁vinieron	-11.004
▁gracioso	-11.004
▁poniendo	-11.004
▁saliendo	-11.0041
▁gritó	-11.0041
▁tráeme	-11.0041
▁scolded	-11.0041
▁supuesto	-11.0042
▁regaló	-11.0042
▁betrayed	-11.0042
▁shelf	-11.0042
▁trabajadores	-11.0043
▁tendría	-11.0044
▁abandonó	-11.0046
▁seguido	-11.0046
▁ascensor	-11.0046
▁levantarme	-11.0046
▁original	-11.0047
▁esperemos	-11.0047
▁ayudarnos	-11.0048
▁complained	-11.0052
▁verdadera	-11.0055
▁nuevamente	-11.0063
▁mess	-11.007
▁quedamos	-11.0081
▁workers	-11.0084
ón	-11.0137
▁quitar	-11.0139
émonos	-11.0148
▁teachers	-11.0152
▁comen	-11.0184
▁deber	-11.0189
mi	-11.0192
▁gira	-11.0193
▁pensado	-11.0203
z	-11.021
▁termina	-11.0219
▁emergencia	-11.0219
▁músico	-11.0219
▁harías	-11.022
▁billete	-11.0226
▁cuánta	-11.0226
▁tend	-11.0237
▁answers	-11.025
red	-11.0253
ic	-11.026
▁hero	-11.0265
▁cercano	-11.0265
01	-11.0269
▁shoulder	-11.0284
▁sepas	-11.0308
▁herir	-11.0309
nse	-11.0319
▁díga	-11.0324
éis	-11.0332
▁supone	-11.0335
▁push	-11.0338
▁mentir	-11.0338
▁suggest	-11.0339
▁refuse	-11.0347
▁grab	-11.0347
▁vende	-11.0348
▁adora	-11.035
▁fortuna	-11.0352
▁quick	-11.0357
▁licencia	-11.0359
vés	-11.0361
▁brasil	-11.0361
▁advantage	-11.0362
▁agujero	-11.0362
▁anciana	-11.0362
▁calcetines	-11.0362
▁evil	-11.0362
▁marriage	-11.0362
▁mundial	-11.0362
▁suéter	-11.0362
▁captain	-11.0362
▁couch	-11.0362
▁enfermera	-11.0362
▁conversar	-11.0362
▁podido	-11.0362
▁traté	-11.0362
▁regresó	-11.0362
▁breve	-11.0362
▁podamos	-11.0362
▁everywhere	-11.0362
▁departamento	-11.0362
▁toalla	-11.0362
▁lentamente	-11.0362
▁saliera	-11.0362
▁author	-11.0362
▁embarrassed	-11.0363
▁bald	-11.0363
▁preocupada	-11.0364
▁pale	-11.0364
▁nearest	-11.0365
▁sort	-11.0365
▁esconder	-11.0366
▁gotten	-11.0367
▁graduated	-11.0367
▁ability	-11.0369
▁board	-11.0369
▁progress	-11.0372
▁repaired	-11.0373
▁iguales	-11.0376
▁pulled	-11.0377
▁encontraste	-11.0377
▁russian	-11.0383
▁director	-11.0384
▁fe	-11.0389
▁jug	-11.0391
▁apologized	-11.0392
▁writer	-11.0401
ish	-11.0404
▁skin	-11.0409
▁sore	-11.0418
▁badly	-11.0419
▁iría	-11.0419
ri	-11.042
▁venía	-11.0423
▁ghosts	-11.0429
▁norte	-11.0437
▁sur	-11.0439
▁promet	-11.0442
▁plu	-11.0445
▁accidents	-11.0446
▁handle	-11.0455
dor	-11.0473
▁disculpas	-11.0481
▁verle	-11.0506
il	-11.0513
▁salga	-11.0518
▁holidays	-11.052
sabe	-11.0527
mp	-11.0529
▁piensan	-11.0543
▁schedule	-11.0546
▁intento	-11.0554
▁boleto	-11.0559
▁deportes	-11.056
▁vendría	-11.056
▁disease	-11.056
▁viniera	-11.0561
▁olvidar	-11.0566
▁co	-11.0583
▁estarás	-11.0613
▁changes	-11.0635
though	-11.0646
▁ap	-11.0651
▁pesca	-11.0653
estáis	-11.0656
▁cre	-11.0664
▁experiment	-11.0666
piensas	-11.0667
▁repeat	-11.0682
▁atrap	-11.0684
▁ilegal	-11.0688
▁débil	-11.0688
▁hop	-11.0691
▁electric	-11.0694
▁apartamento	-11.0695
▁beauty	-11.0695
▁capitán	-11.0695
▁curiosidad	-11.0695
▁enseguida	-11.0695
▁estupendo	-11.0695
▁exchange	-11.0695
▁otoño	-11.0695
▁plata	-11.0695
▁possibility	-11.0695
▁retraso	-11.0695
▁toward	-11.0695
▁zoológico	-11.0695
▁dislike	-11.0695
▁creyó	-11.0695
▁value	-11.0695
▁childhood	-11.0695
▁millones	-11.0695
▁interés	-11.0695
▁aproximadamente	-11.0695
▁armario	-11.0695
▁foolish	-11.0695
▁consigo	-11.0695
▁wild	-11.0696
▁master	-11.0696
▁acusado	-11.0696
▁ocultando	-11.0696
▁supper	-11.0696
▁hunting	-11.0696
▁puesta	-11.0696
▁claramente	-11.0696
▁friendship	-11.0697
▁bebiendo	-11.0697
▁local	-11.0697
▁celoso	-11.0698
▁detesto	-11.0698
▁salida	-11.0698
▁subir	-11.0699
▁cual	-11.0699
▁estuvi	-11.0699
▁contrato	-11.07
▁useless	-11.07
▁dé	-11.0702
▁vivimos	-11.0703
▁army	-11.0707
▁warned	-11.0708
▁apagó	-11.0709
▁dijera	-11.0711
▁cantó	-11.0715
▁pasajeros	-11.0715
podés	-11.0716
▁dirá	-11.0716
▁esperado	-11.0716
▁falling	-11.0719
▁amigas	-11.0723
▁borrowed	-11.0724
▁quedaron	-11.0725
▁vernos	-11.0726
▁nubes	-11.0728
▁acabar	-11.0734
▁italian	-11.0734
▁traveling	-11.0738
▁escalar	-11.0744
▁irnos	-11.0753
▁fantasmas	-11.0756
▁enfadar	-11.077
▁toques	-11.078
▁odian	-11.078
▁besar	-11.0791
▁abandonar	-11.0794
costó	-11.08
▁cuid	-11.0802
▁quedes	-11.0802
▁paying	-11.0802
▁nose	-11.0809
▁gasta	-11.0823
▁marcha	-11.0838
▁echa	-11.0845
▁actuar	-11.0853
tally	-11.0883
▁nuevas	-11.09
▁despedido	-11.09
▁llevan	-11.0901
▁burn	-11.0903
▁cambia	-11.0918
▁promesas	-11.0923
▁na	-11.0929
▁form	-11.0932
▁warn	-11.0933
▁letra	-11.0942
▁program	-11.0948
▁citizen	-11.0949
ita	-11.0959
▁hecha	-11.0962
▁hacerse	-11.0972
▁enemigos	-11.0982
pongo	-11.0992
▁decía	-11.1
▁repair	-11.1018
▁consejos	-11.1033
▁engine	-11.1034
▁polite	-11.1038
▁11	-11.1039
▁adiós	-11.104
▁brazil	-11.104
▁cuestión	-11.104
▁desperté	-11.104
▁genius	-11.104
▁junio	-11.104
▁llamo	-11.104
▁mexico	-11.104
▁mirror	-11.104
▁unhappy	-11.104
▁grateful	-11.104
▁soltero	-11.104
▁towel	-11.104
▁available	-11.104
▁private	-11.104
▁robbed	-11.104
▁sencillo	-11.104
▁collar	-11.104
▁amazing	-11.104
▁definitivamente	-11.104
▁espejo	-11.104
▁trapped	-11.104
▁trato	-11.1041
▁ataque	-11.1041
▁colectivo	-11.1041
▁birth	-11.1042
▁despierta	-11.1042
▁pesado	-11.1042
▁volviendo	-11.1043
▁tocando	-11.1044
▁pagado	-11.1044
▁ciencia	-11.1045
▁greatest	-11.1045
▁tail	-11.1046
▁comúnmente	-11.1047
▁agotado	-11.1048
▁apaga	-11.1049
▁piel	-11.1049
▁recoger	-11.1054
▁computers	-11.1055
▁novels	-11.1056
▁echo	-11.1056
▁appeared	-11.1058
▁aprendido	-11.1059
▁deserted	-11.106
▁practice	-11.1062
▁larger	-11.1066
▁succeeded	-11.1068
un	-11.1068
▁queréis	-11.1068
▁salvar	-11.1073
▁comprender	-11.1075
▁bello	-11.1077
▁abrí	-11.1078
▁breathe	-11.1079
▁clouds	-11.1079
▁gritar	-11.108
▁sano	-11.108
▁cae	-11.108
▁stamps	-11.1112
▁names	-11.1116
▁usando	-11.1116
▁nadando	-11.1118
▁detuvo	-11.1127
▁seguros	-11.1141
▁alimentar	-11.1142
▁solos	-11.116
pusieron	-11.1176
▁details	-11.1196
▁reparar	-11.1196
▁iron	-11.1212
▁primo	-11.1223
▁interest	-11.1239
▁accidentes	-11.1242
▁burl	-11.1249
▁expert	-11.1249
▁relationship	-11.1255
▁enfadada	-11.1255
▁tranquilo	-11.1256
▁muchacha	-11.1256
▁vuelvas	-11.1257
▁rosa	-11.1257
▁lindo	-11.1261
▁pro	-11.1261
▁cigarette	-11.1265
▁cookie	-11.1267
▁canadienses	-11.1287
zó	-11.1292
▁disculpa	-11.1296
▁mu	-11.1303
▁autor	-11.1305
becoming	-11.1307
▁robo	-11.1309
▁quedan	-11.1318
▁presta	-11.132
▁gives	-11.1345
▁goal	-11.1348
¿	-11.1349
▁marca	-11.1357
▁cap	-11.1357
ni	-11.1358
▁trabajaba	-11.1361
▁jump	-11.1375
▁señor	-11.1375
▁olvide	-11.1376
▁dis	-11.1379
▁escondi	-11.138
▁prepar	-11.1384
▁shock	-11.1384
▁lies	-11.1385
▁search	-11.1387
▁build	-11.1387
▁dificultad	-11.139
▁sudden	-11.1393
tió	-11.1394
▁thin	-11.1396
▁stomach	-11.1397
▁acercó	-11.1397
▁alcalde	-11.1397
▁arguing	-11.1397
▁condiciones	-11.1397
▁crédito	-11.1397
▁escenario	-11.1397
▁failure	-11.1397
▁fortune	-11.1397
▁impresión	-11.1397
▁lecture	-11.1397
▁ocurrido	-11.1397
▁océano	-11.1397
▁razonable	-11.1397
▁ridículo	-11.1397
▁silence	-11.1397
▁pleasant	-11.1397
▁bucket	-11.1397
▁violín	-11.1397
▁facebook	-11.1397
▁buried	-11.1397
▁esperanto	-11.1397
▁tiró	-11.1397
▁belleza	-11.1397
▁changing	-11.1397
▁sugirió	-11.1397
▁suicidó	-11.1397
▁moda	-11.1398
▁guapo	-11.1398
▁aprendiste	-11.1398
▁disappeared	-11.1399
▁despise	-11.1399
▁vosotras	-11.14
▁pintó	-11.14
▁nuts	-11.1402
▁sentarme	-11.1402
▁intentarlo	-11.1402
▁cometió	-11.1405
▁invented	-11.1405
▁viniste	-11.1407
eme	-11.1407
▁ausente	-11.1409
▁divorced	-11.141
▁lower	-11.1417
▁ponerse	-11.142
▁compre	-11.142
▁disfrut	-11.1423
▁impuestos	-11.1423
▁sospecha	-11.1428
▁adonde	-11.1434
cha	-11.1438
▁depressed	-11.1453
▁snowing	-11.1456
▁descubrir	-11.1458
▁cooked	-11.1466
▁verla	-11.1468
▁starts	-11.1471
▁sand	-11.1481
▁visiting	-11.1483
▁quedaba	-11.1489
▁buses	-11.1504
▁miel	-11.1509
▁mando	-11.1514
▁gast	-11.1521
▁arms	-11.1535
▁quejas	-11.1535
▁mismos	-11.1538
,000	-11.155
▁photos	-11.1559
▁ayudará	-11.1574
▁viaja	-11.1587
▁predict	-11.1597
▁dejo	-11.1606
▁material	-11.1622
▁hábito	-11.1633
▁antiguo	-11.1633
▁altura	-11.1634
▁saving	-11.1635
▁soldier	-11.1637
▁soldado	-11.1639
▁admitir	-11.1654
▁tareas	-11.1673
▁ta	-11.1679
debería	-11.1722
▁metal	-11.1724
ers	-11.1729
▁chose	-11.1729
▁guardar	-11.1739
▁civil	-11.174
▁s	-11.1744
ías	-11.1746
▁dentist	-11.1751
pa	-11.1754
▁disturb	-11.1754
▁steal	-11.1758
▁lift	-11.1759
▁baile	-11.176
▁automóvil	-11.176
▁suspicious	-11.1763
▁votar	-11.1767
▁alfombra	-11.1767
▁aprecio	-11.1767
▁basketball	-11.1767
▁cierre	-11.1767
▁cinturón	-11.1767
▁delicioso	-11.1767
▁despertó	-11.1767
▁efectivo	-11.1767
▁lástima	-11.1767
▁negra	-11.1767
▁polvo	-11.1767
▁professor	-11.1767
▁provide	-11.1767
▁complicated	-11.1767
▁picasso	-11.1767
▁méxico	-11.1767
▁velocidad	-11.1767
▁sensible	-11.1767
▁battle	-11.1767
▁mintió	-11.1767
▁batalla	-11.1767
▁invitation	-11.1767
▁invitación	-11.1767
▁entendido	-11.1768
▁atrasado	-11.1768
▁peel	-11.1768
▁exhausted	-11.1768
▁decepcionado	-11.1768
▁molesto	-11.1768
▁gerente	-11.1768
▁tocó	-11.1768
▁rota	-11.1769
▁baffled	-11.1769
▁salvó	-11.1769
▁salario	-11.1769
▁sonreír	-11.1769
▁conseguí	-11.177
▁science	-11.177
▁election	-11.177
▁vieron	-11.177
▁cercana	-11.1772
▁fallen	-11.1773
mo	-11.1774
▁vienen	-11.1775
▁ruined	-11.1776
▁intentado	-11.1777
▁visitado	-11.1779
▁jam	-11.178
▁pushed	-11.1781
▁acting	-11.1782
▁diste	-11.1786
▁treated	-11.1788
ábamos	-11.1799
▁base	-11.1811
▁devolver	-11.1813
▁venden	-11.1815
▁carrie	-11.182
▁signed	-11.1821
▁meter	-11.1831
▁text	-11.1836
ried	-11.1859
▁estuvieron	-11.1864
▁productos	-11.1872
▁chat	-11.1873
vo	-11.1879
▁compañeros	-11.188
▁continuar	-11.1893
▁ibas	-11.1894
▁casas	-11.1911
▁plantas	-11.1911
▁presentes	-11.1912
▁pe	-11.1918
▁vienes	-11.1919
▁daba	-11.1921
▁arena	-11.1931
▁march	-11.1953
▁argument	-11.196
ión	-11.1973
▁dulces	-11.1982
esta	-11.1993
▁ayudé	-11.1998
▁force	-11.1998
▁volví	-11.2004
▁termine	-11.2011
▁criminal	-11.2012
▁hopes	-11.2013
▁aspecto	-11.2015
▁m	-11.2017
ion	-11.202
▁extranjera	-11.202
▁effort	-11.202
▁chiste	-11.202
▁detener	-11.2021
▁herida	-11.2028
▁fines	-11.2035
▁adapt	-11.2049
▁actu	-11.206
▁contest	-11.2077
law	-11.2104
estoy	-11.211
▁niñas	-11.2119
▁sabían	-11.2125
▁renunciar	-11.2134
▁improve	-11.2137
▁crash	-11.2139
▁gain	-11.214
▁greet	-11.2141
▁social	-11.2143
▁largas	-11.2144
ces	-11.2149
▁defend	-11.2151
▁apoyo	-11.2152
▁audience	-11.2152
▁caluroso	-11.2152
▁economy	-11.2152
▁economía	-11.2152
▁genio	-11.2152
▁insane	-11.2152
▁itself	-11.2152
▁laptop	-11.2152
▁mochila	-11.2152
▁opina	-11.2152
▁razones	-11.2152
▁ruso	-11.2152
▁strict	-11.2152
▁thirteen	-11.2152
▁yokohama	-11.2152
▁íbamos	-11.2152
▁colgó	-11.2152
▁empecé	-11.2152
▁ugly	-11.2152
▁acusó	-11.2152
▁cima	-11.2152
▁solicitud	-11.2152
▁coward	-11.2152
▁hawaii	-11.2152
▁excusa	-11.2152
ical	-11.2152
▁rieron	-11.2152
▁importancia	-11.2153
▁ayúdame	-11.2153
▁kilómetros	-11.2153
▁recientemente	-11.2153
▁entré	-11.2153
▁nation	-11.2153
▁frightened	-11.2154
▁north	-11.2154
▁kindness	-11.2155
▁anger	-11.2155
▁impressed	-11.2156
▁obviously	-11.2156
▁concentrate	-11.2156
▁shake	-11.2157
▁capaces	-11.2157
▁cheated	-11.2158
▁sentada	-11.216
▁considerado	-11.2162
▁hablemos	-11.2163
▁deeply	-11.2164
▁emocionado	-11.2164
▁capable	-11.2165
▁haremos	-11.2166
▁bebo	-11.2166
▁dentista	-11.2169
▁imagen	-11.217
▁encendió	-11.217
▁spite	-11.2171
teniendo	-11.2174
▁cansados	-11.2175
▁ordenó	-11.2179
▁llegaría	-11.2182
▁lean	-11.2185
▁drives	-11.2186
▁expresar	-11.2188
▁trate	-11.219
▁musical	-11.2194
▁esperaré	-11.2197
▁dejaría	-11.2199
▁alumnos	-11.2212
▁cleaning	-11.2214
▁viaj	-11.2227
▁wondering	-11.2242
▁quedando	-11.2248
▁acuerdas	-11.2248
▁usado	-11.2254
ma	-11.2257
▁maravillosa	-11.2294
▁po	-11.2304
▁comparti	-11.2314
▁com	-11.2316
▁leader	-11.2322
▁esfuerzos	-11.2327
imos	-11.2329
▁pill	-11.2343
▁pi	-11.2349
▁saca	-11.2358
▁mantiene	-11.2366
▁muertos	-11.2377
chi	-11.2378
▁vacío	-11.241
▁apariencia	-11.2414
▁impaciente	-11.2414
▁field	-11.2416
▁cerdo	-11.2417
▁hambriento	-11.2418
▁talento	-11.2419
▁miembro	-11.2421
▁pidie	-11.2421
▁regla	-11.2422
▁rode	-11.243
▁seguí	-11.2431
▁lesson	-11.2433
▁alguno	-11.2438
▁orders	-11.2441
tienen	-11.246
▁nombres	-11.2468
▁saltar	-11.2469
▁understands	-11.248
ponía	-11.2501
quieren	-11.2502
▁charla	-11.2505
ment	-11.252
▁trabajado	-11.2528
▁talent	-11.2529
▁walks	-11.2535
▁advance	-11.2536
▁cover	-11.2543
▁receive	-11.2545
▁sándwich	-11.2545
▁nevar	-11.2551
▁scene	-11.2552
▁accompan	-11.2552
▁bienvenida	-11.2552
▁compromiso	-11.2552
▁current	-11.2552
▁desierto	-11.2552
▁enemies	-11.2552
▁grosero	-11.2552
▁piscina	-11.2552
▁ridiculous	-11.2552
▁rush	-11.2552
▁tránsito	-11.2552
▁bound	-11.2552
▁conduciendo	-11.2552
▁desapareció	-11.2552
▁june	-11.2552
▁pepper	-11.2552
▁switch	-11.2552
▁escucho	-11.2552
▁juez	-11.2552
▁formulario	-11.2552
▁gorda	-11.2552
▁campana	-11.2552
▁fecha	-11.2552
▁violin	-11.2552
▁vendré	-11.2552
▁diary	-11.2552
▁candy	-11.2553
▁villa	-11.2553
▁celular	-11.2553
▁móvil	-11.2553
▁apply	-11.2553
▁exciting	-11.2554
▁aumento	-11.2554
▁arrestado	-11.2554
▁seguida	-11.2554
▁coser	-11.2554
▁fracaso	-11.2554
▁outfit	-11.2555
▁elected	-11.2555
▁annoying	-11.2555
▁formas	-11.2556
▁punished	-11.2557
▁levantado	-11.2558
▁confundido	-11.2559
▁contain	-11.2559
▁vago	-11.256
▁hire	-11.256
▁usualmente	-11.2561
▁inclinó	-11.2563
▁lleg	-11.2563
▁gained	-11.2565
▁escena	-11.2567
▁vain	-11.2567
▁hall	-11.2567
▁obedecer	-11.2569
▁firme	-11.257
▁supo	-11.2572
▁convertir	-11.2573
▁persuaded	-11.2573
▁ringing	-11.2573
▁trataba	-11.2574
▁kissing	-11.259
▁diera	-11.2593
▁aparte	-11.2595
he	-11.2596
éramos	-11.2599
▁brazos	-11.2608
▁voted	-11.2611
adas	-11.2615
▁produce	-11.262
▁miré	-11.2626
▁sleeps	-11.2632
▁inform	-11.264
▁despedir	-11.2646
▁empez	-11.2647
▁guarda	-11.2649
▁teme	-11.2673
▁empeza	-11.2677
▁seguía	-11.2679
ive	-11.2682
▁compartir	-11.2685
▁cancel	-11.2709
▁vend	-11.2727
▁poems	-11.2734
▁olvida	-11.2736
▁j	-11.2742
▁plants	-11.2742
gu	-11.2745
▁fotografías	-11.2756
▁tomará	-11.276
▁mejorar	-11.2762
▁vase	-11.2766
ied	-11.278
▁wins	-11.2784
pe	-11.2798
it	-11.2812
▁document	-11.2825
▁pañuelo	-11.2826
▁medida	-11.283
▁cheek	-11.2833
▁francesa	-11.2834
▁member	-11.2838
▁asuntos	-11.2863
▁trabaj	-11.2866
ation	-11.2877
▁equal	-11.2889
▁mistaken	-11.2891
▁inter	-11.29
▁costa	-11.2918
looking	-11.292
za	-11.2932
▁sirve	-11.2933
▁tied	-11.2935
▁model	-11.2944
▁altos	-11.2947
▁señal	-11.2947
▁interrupt	-11.2952
▁divorce	-11.2953
▁survive	-11.2954
▁prevent	-11.2956
▁gather	-11.296
▁carga	-11.2961
▁obvious	-11.2965
▁actress	-11.2968
▁anxious	-11.2968
▁baloncesto	-11.2968
▁cuarenta	-11.2968
▁garganta	-11.2968
▁grapes	-11.2968
▁kilometers	-11.2968
▁tamaño	-11.2968
▁throat	-11.2968
▁turkey	-11.2968
▁mercado	-11.2968
▁notebook	-11.2968
▁okay	-11.2968
▁reuniones	-11.2969
▁calvo	-11.2969
▁enojada	-11.2969
▁adoro	-11.2969
▁noisy	-11.2969
▁acostumbrada	-11.2969
▁fought	-11.2969
▁cubierto	-11.297
▁seriamente	-11.297
▁comprendo	-11.297
▁salieron	-11.297
▁vengo	-11.297
▁quejando	-11.297
▁forgetful	-11.2971
▁volando	-11.2971
▁harta	-11.2972
▁cuyo	-11.2972
▁déjalo	-11.2972
▁peleando	-11.2972
▁escondido	-11.2974
▁spilled	-11.2975
▁alice	-11.2977
▁successful	-11.2978
ante	-11.2979
▁cocinando	-11.298
▁regular	-11.2982
▁juzgar	-11.2983
▁staring	-11.2993
▁casarte	-11.2994
▁growing	-11.2995
▁closer	-11.2997
ista	-11.2997
▁llamaste	-11.2999
▁notas	-11.3002
▁murdered	-11.3005
▁llevaré	-11.3011
▁comprarlo	-11.3026
▁ayudaría	-11.3027
▁miraba	-11.3028
▁llamaba	-11.3028
ty	-11.3033
▁planeta	-11.3034
▁quieto	-11.3039
▁perfecta	-11.3048
▁lava	-11.306
▁dust	-11.307
▁presentar	-11.3071
▁trenes	-11.3072
▁knowing	-11.3079
ito	-11.308
▁queja	-11.3086
▁cerrados	-11.3091
▁helps	-11.3099
▁empleado	-11.3101
dicó	-11.3105
▁promises	-11.3118
▁comas	-11.3156
▁tap	-11.3162
▁poemas	-11.3167
probó	-11.3182
▁inteligentes	-11.3191
▁remembered	-11.3202
▁strangers	-11.321
▁acostumbrar	-11.322
arme	-11.3223
▁w	-11.3234
▁firm	-11.3246
▁sp	-11.3251
▁sales	-11.3261
▁desnudo	-11.3261
▁alternativa	-11.3263
▁opera	-11.3265
▁leo	-11.3266
▁firmar	-11.3266
▁ciudadano	-11.3271
▁científico	-11.3271
▁compañero	-11.3272
▁hoja	-11.3273
▁corte	-11.3274
▁regard	-11.3275
▁experto	-11.3275
biste	-11.3277
▁creen	-11.328
▁action	-11.3301
ran	-11.3319
dos	-11.3322
▁asegúr	-11.3332
▁suceder	-11.3334
ous	-11.3346
▁incident	-11.3348
ones	-11.3353
▁apunt	-11.3355
capaz	-11.3355
▁muere	-11.337
▁pressure	-11.3386
▁crecí	-11.339
▁bowl	-11.3393
▁witness	-11.3396
▁venid	-11.3397
▁asia	-11.3397
▁física	-11.34
▁copa	-11.3403
▁mantén	-11.3403
▁achieve	-11.3403
▁basket	-11.3403
▁cajón	-11.3403
▁dessert	-11.3403
▁efecto	-11.3403
▁enciende	-11.3403
▁envelope	-11.3403
▁evidence	-11.3403
▁helicopter	-11.3403
▁inocencia	-11.3403
▁nature	-11.3403
▁obviamente	-11.3403
▁percent	-11.3403
▁puppy	-11.3403
▁strength	-11.3403
▁crisis	-11.3403
▁obtuvo	-11.3403
▁thick	-11.3403
▁bullet	-11.3403
▁emocionante	-11.3403
▁hierro	-11.3403
▁average	-11.3403
▁instituto	-11.3403
▁fijamente	-11.3403
▁occurred	-11.3403
▁screen	-11.3403
▁nevando	-11.3403
▁perdiendo	-11.3403
▁ratón	-11.3403
▁naturaleza	-11.3403
▁complicado	-11.3403
▁habitual	-11.3404
▁electrónico	-11.3404
▁conference	-11.3404
▁nap	-11.3404
▁adelantado	-11.3404
▁elecciones	-11.3404
▁olor	-11.3405
▁siéntate	-11.3405
▁raw	-11.3405
▁patio	-11.3405
▁major	-11.3405
▁reply	-11.3405
▁adorable	-11.3406
▁pesada	-11.3406
▁deshacer	-11.3406
▁cuente	-11.3407
▁command	-11.3407
▁costará	-11.3407
▁newspapers	-11.3407
▁muchísimo	-11.3408
▁órdenes	-11.3409
▁generalmente	-11.3409
▁torre	-11.341
▁pants	-11.341
▁construyó	-11.341
▁removed	-11.3411
▁importantes	-11.3412
▁jeans	-11.3412
▁causó	-11.3413
▁recuerdas	-11.3413
▁wounded	-11.3414
▁mantente	-11.3415
▁concerned	-11.3416
▁hola	-11.3418
llón	-11.342
▁azules	-11.3424
▁visitors	-11.343
▁alma	-11.3437
▁encontraron	-11.3438
▁experimento	-11.3438
▁postre	-11.3439
▁bebido	-11.3447
▁parecer	-11.3448
▁utilizar	-11.345
▁león	-11.3451
▁sed	-11.3453
▁legal	-11.3467
▁oírte	-11.3471
▁danced	-11.3475
▁touched	-11.3479
▁cleaned	-11.3494
das	-11.3503
▁suma	-11.3505
▁watches	-11.3506
▁twins	-11.3507
▁insult	-11.3511
yo	-11.3513
▁ciudades	-11.3519
▁lately	-11.3525
▁earns	-11.3531
▁indica	-11.3561
▁primos	-11.3568
tuve	-11.3577
▁creas	-11.3589
▁iban	-11.3589
▁controlar	-11.3617
▁cousins	-11.362
▁dirigi	-11.362
▁mías	-11.3654
▁contratar	-11.3688
▁arregl	-11.3689
▁bromas	-11.3692
▁concern	-11.3703
▁shoot	-11.3704
▁closet	-11.3707
▁service	-11.3715
▁fila	-11.3719
▁testigo	-11.372
▁alimenta	-11.372
▁lion	-11.372
▁pierde	-11.372
▁antigua	-11.3721
▁direction	-11.3723
▁juguete	-11.3725
▁rojas	-11.3728
▁cerrado	-11.3729
▁shoe	-11.3729
▁placer	-11.3729
▁amar	-11.3732
▁pasto	-11.3745
▁pasan	-11.3745
▁planet	-11.3751
▁oblig	-11.376
▁dudas	-11.3764
sumo	-11.3779
▁pása	-11.378
▁earn	-11.3782
so	-11.3782
▁terror	-11.3797
▁ricos	-11.3803
ventó	-11.3804
▁existe	-11.3819
▁facts	-11.3819
ue	-11.3826
▁directo	-11.383
▁desert	-11.3836
necesitas	-11.3837
▁supe	-11.3838
▁manage	-11.3843
▁disappoint	-11.3846
▁cell	-11.3848
▁nivel	-11.385
▁salad	-11.3853
▁attract	-11.3857
hace	-11.3858
▁brit	-11.3858
▁acceso	-11.3858
▁actriz	-11.3858
▁adjust	-11.3858
▁ansioso	-11.3858
▁apellido	-11.3858
▁conocimos	-11.3858
▁contrario	-11.3858
▁ejército	-11.3858
▁embargo	-11.3858
▁false	-11.3858
▁gloves	-11.3858
▁ladder	-11.3858
▁levanto	-11.3858
▁líder	-11.3858
▁method	-11.3858
▁nonsense	-11.3858
▁politics	-11.3858
▁reputation	-11.3858
▁shakespeare	-11.3858
▁whale	-11.3858
▁whistle	-11.3858
▁soporto	-11.3858
▁deposit	-11.3858
▁guantes	-11.3858
▁explosion	-11.3858
▁adecuado	-11.3858
▁refrigerador	-11.3858
▁privado	-11.3858
▁stake	-11.3858
▁priest	-11.3858
▁comimos	-11.3858
▁poker	-11.3858
▁electricity	-11.3858
▁lightning	-11.3858
▁terminé	-11.3858
▁sunny	-11.3858
▁suave	-11.3858
▁preferida	-11.3858
▁export	-11.3858
▁obsequio	-11.3859
▁impression	-11.3859
▁construir	-11.3859
▁nara	-11.3859
▁cuidadosamente	-11.3859
▁tiende	-11.3859
▁brillante	-11.3859
▁averg	-11.3859
▁preocuparse	-11.386
▁prohibited	-11.386
▁escapó	-11.386
▁drawer	-11.386
▁mandó	-11.3861
▁cage	-11.3861
▁posición	-11.3861
▁creció	-11.3862
▁lea	-11.3862
▁perdone	-11.3863
▁mostraré	-11.3863
▁barking	-11.3863
▁destroyed	-11.3864
▁self	-11.3865
▁elige	-11.3865
▁granted	-11.3865
▁dificultades	-11.3866
▁delayed	-11.3867
▁pica	-11.3868
po	-11.3868
▁llegues	-11.3868
▁attractive	-11.3868
▁llamando	-11.3871
▁talented	-11.3872
▁moral	-11.3872
▁uvas	-11.3874
▁crossing	-11.3875
▁modelo	-11.3889
▁options	-11.3892
▁llamarme	-11.3892
▁peanuts	-11.3898
▁hacerle	-11.3899
▁pasaron	-11.39
▁llevará	-11.3902
▁encontrarás	-11.3904
▁orejas	-11.3904
▁charged	-11.3906
▁degrees	-11.391
▁martes	-11.3917
▁ayudado	-11.3919
▁estaremos	-11.3927
pero	-11.3932
▁deny	-11.3938
▁llevara	-11.3947
▁snowed	-11.3956
▁coins	-11.3967
▁however	-11.397
▁humanos	-11.3983
▁documentos	-11.3987
yon	-11.3993
▁total	-11.4005
▁pasara	-11.401
▁seats	-11.4026
▁cigarettes	-11.4029
▁perdonar	-11.4032
ja	-11.404
▁presents	-11.4064
▁vano	-11.4068
▁closes	-11.4089
▁participar	-11.4109
▁producto	-11.4115
▁trabajan	-11.4127
▁resolvi	-11.413
▁pr	-11.4131
▁upon	-11.4139
tener	-11.4147
habla	-11.4152
▁loan	-11.416
▁aprende	-11.4166
▁estén	-11.417
▁actual	-11.4183
▁handkerchief	-11.4191
▁file	-11.4194
▁asesinado	-11.4194
▁cosecha	-11.4196
▁regrese	-11.4196
▁plate	-11.4199
▁lento	-11.4199
▁debt	-11.4201
▁amarilla	-11.4202
▁juga	-11.4202
▁employee	-11.4204
▁prisoner	-11.4205
▁documento	-11.4212
▁aquello	-11.4219
▁sentar	-11.4219
▁reasons	-11.422
▁limpi	-11.4223
▁seca	-11.4223
▁historias	-11.424
▁atrapar	-11.4255
▁sings	-11.427
▁maneja	-11.4273
▁import	-11.4275
▁ocurre	-11.4277
▁flu	-11.4279
▁jobs	-11.428
▁ahorrar	-11.428
▁planta	-11.4282
▁jugaba	-11.4295
▁vea	-11.4297
▁poet	-11.4301
▁coches	-11.4309
▁harás	-11.4315
▁double	-11.4316
▁acostar	-11.4318
▁admire	-11.4323
▁spread	-11.4323
▁flat	-11.4329
▁oficial	-11.4331
▁disfraz	-11.4333
▁access	-11.4334
▁agradezco	-11.4334
▁aliento	-11.4334
▁ambulance	-11.4334
▁ambulancia	-11.4334
▁atentamente	-11.4334
▁concurso	-11.4334
▁diamond	-11.4334
▁enfadó	-11.4334
▁ensalada	-11.4334
▁falso	-11.4334
▁families	-11.4334
▁impatient	-11.4334
▁inevitable	-11.4334
▁mordió	-11.4334
▁método	-11.4334
▁opciones	-11.4334
▁petróleo	-11.4334
▁pregnant	-11.4334
▁register	-11.4334
▁responsabilidad	-11.4334
▁rifle	-11.4334
▁tuesday	-11.4334
▁uñas	-11.4334
▁vecindario	-11.4334
▁voluntad	-11.4334
▁vuelvo	-11.4334
▁asesino	-11.4334
▁estudió	-11.4334
▁tesoro	-11.4334
▁práctica	-11.4334
▁task	-11.4334
▁hidden	-11.4334
▁temper	-11.4334
▁tower	-11.4334
▁bigge	-11.4334
▁ease	-11.4334
▁perdimos	-11.4334
▁muriendo	-11.4334
▁obtener	-11.4334
▁involucrado	-11.4334
▁pídele	-11.4334
▁calidad	-11.4334
▁objeto	-11.4334
▁begun	-11.4334
▁pago	-11.4334
▁lavadora	-11.4334
▁frecuentemente	-11.4334
▁discussion	-11.4334
▁electricidad	-11.4334
▁apparently	-11.4335
▁enamorada	-11.4335
▁perdieron	-11.4335
▁valla	-11.4335
▁burst	-11.4335
▁almohada	-11.4335
▁punta	-11.4335
▁condujo	-11.4335
▁properly	-11.4335
▁continúa	-11.4335
▁muéstrame	-11.4336
▁embarazada	-11.4336
▁estalló	-11.4336
▁muerta	-11.4336
▁bordo	-11.4336
▁fluently	-11.4337
▁botas	-11.4337
▁apretó	-11.4339
▁sentarse	-11.4339
▁comiste	-11.434
▁murderer	-11.434
▁issue	-11.4341
▁personalmente	-11.4341
ug	-11.4342
▁olvidaré	-11.4342
▁echado	-11.4342
▁nowhere	-11.4343
▁baked	-11.4343
▁confessed	-11.4343
claró	-11.4345
▁served	-11.4346
▁cero	-11.4346
▁preparing	-11.4347
▁honesty	-11.4347
▁siesta	-11.4349
▁enseñarme	-11.435
▁canceled	-11.435
▁quietly	-11.4351
▁classmates	-11.4357
▁adopted	-11.436
▁planted	-11.4363
▁incidente	-11.4365
▁fan	-11.4366
▁vendi	-11.4368
▁forty	-11.4381
▁sabés	-11.4382
▁scare	-11.4388
▁repar	-11.4393
▁grados	-11.4403
▁causes	-11.4409
▁bala	-11.4416
▁llegara	-11.4422
▁r	-11.4425
▁meters	-11.4427
▁dreaming	-11.4429
▁juegos	-11.4434
▁doubts	-11.4441
▁monedas	-11.4441
▁comentarios	-11.4448
▁wishes	-11.445
▁weapons	-11.4455
▁alérgic	-11.4459
▁presentó	-11.4463
▁super	-11.4471
▁mires	-11.4476
▁aula	-11.4485
cu	-11.451
▁deer	-11.4512
▁ga	-11.4536
ten	-11.4551
▁roses	-11.4561
▁cares	-11.4561
▁resulta	-11.4561
▁reporte	-11.4568
▁quede	-11.4572
▁bat	-11.4574
▁busqué	-11.4575
▁alcanz	-11.4576
▁metros	-11.4581
▁entregar	-11.4586
▁funcionar	-11.4596
▁pasear	-11.4608
▁cargar	-11.4624
▁amenaza	-11.4638
▁páginas	-11.4639
ncia	-11.4653
ci	-11.4665
lu	-11.4666
▁ocupa	-11.4673
illa	-11.468
vis	-11.468
▁presente	-11.4681
▁sorprende	-11.4689
ated	-11.469
▁adult	-11.4691
▁detective	-11.4691
▁dueño	-11.4694
▁photograph	-11.4694
▁disponible	-11.4697
▁gallina	-11.4697
▁parecido	-11.4697
▁medicamento	-11.4698
▁sordo	-11.4698
▁mejilla	-11.4699
▁deuda	-11.4699
▁cabra	-11.4699
▁dama	-11.4701
▁político	-11.4701
rme	-11.4709
▁callado	-11.4717
▁humano	-11.4723
▁resist	-11.4735
▁depend	-11.4737
▁africa	-11.474
▁vives	-11.4741
▁aim	-11.4741
▁canadians	-11.4748
gue	-11.4748
▁soñ	-11.477
▁americano	-11.4774
ti	-11.4777
year	-11.4789
▁shame	-11.479
▁sentados	-11.4806
▁demanda	-11.4814
▁mostrar	-11.4815
▁comp	-11.4815
▁fashion	-11.4818
▁frame	-11.4821
▁flood	-11.4821
▁speed	-11.4824
▁spell	-11.4824
▁nuclear	-11.4826
ísimo	-11.483
▁fox	-11.4831
▁lujo	-11.4831
▁materna	-11.4832
▁propios	-11.4833
▁capacidad	-11.4833
▁pour	-11.4833
▁obvio	-11.4834
▁burglar	-11.4834
▁court	-11.4834
▁absence	-11.4834
▁además	-11.4834
▁amabilidad	-11.4834
▁april	-11.4834
▁arriving	-11.4834
▁baggage	-11.4834
▁california	-11.4834
▁ceiling	-11.4834
▁committee	-11.4834
▁césped	-11.4834
▁dieciocho	-11.4834
▁embajada	-11.4834
▁embassy	-11.4834
▁engaged	-11.4834
▁evidencia	-11.4834
▁explosión	-11.4834
▁francisco	-11.4834
▁greek	-11.4834
▁harsh	-11.4834
▁hawái	-11.4834
▁heavily	-11.4834
▁infancia	-11.4834
▁insurance	-11.4834
▁malentendido	-11.4834
▁nowadays	-11.4834
▁ocasión	-11.4834
▁outstanding	-11.4834
▁pimienta	-11.4834
▁pleasure	-11.4834
▁political	-11.4834
▁reputación	-11.4834
▁rostro	-11.4834
▁secundaria	-11.4834
▁sensitive	-11.4834
▁sociedad	-11.4834
▁society	-11.4834
▁sunglasses	-11.4834
▁terrific	-11.4834
▁typhoon	-11.4834
▁motorcycle	-11.4834
▁stage	-11.4834
▁jaula	-11.4834
▁jogging	-11.4834
▁presión	-11.4834
▁package	-11.4834
▁importance	-11.4834
▁lucía	-11.4834
▁impresionado	-11.4834
▁sabia	-11.4834
▁blackboard	-11.4834
▁boots	-11.4834
▁cities	-11.4834
▁mentido	-11.4834
▁investigación	-11.4834
▁muero	-11.4834
▁juan	-11.4834
▁stove	-11.4834
▁imagination	-11.4834
▁carpet	-11.4835
▁imaginación	-11.4835
▁melodía	-11.4835
▁babbling	-11.4835
▁autoridad	-11.4835
▁bailando	-11.4835
▁exhausto	-11.4835
▁decidieron	-11.4835
▁frankly	-11.4836
▁picante	-11.4836
▁tinta	-11.4836
▁quality	-11.4836
▁elegido	-11.4836
▁bitter	-11.4837
▁interesada	-11.4837
▁professional	-11.4837
▁entregó	-11.4837
▁respirar	-11.4837
▁obligado	-11.4837
▁restless	-11.4837
▁valuable	-11.4838
▁tejado	-11.4838
▁humo	-11.4838
▁cuéntame	-11.4838
▁matado	-11.4838
▁taxes	-11.4839
▁smarter	-11.484
▁abril	-11.484
▁caminaba	-11.484
▁ignoró	-11.4841
▁sewing	-11.4841
▁sour	-11.4841
▁lección	-11.4841
▁treasure	-11.4842
▁sweating	-11.4843
▁reasonable	-11.4844
▁shouted	-11.4845
▁shorter	-11.4846
▁pobres	-11.4846
▁esquí	-11.4846
▁empezamos	-11.4847
▁separated	-11.4847
▁personally	-11.4848
▁insisted	-11.4848
▁places	-11.4851
▁hired	-11.4853
▁oldest	-11.4854
▁traduj	-11.4854
▁entraron	-11.4856
▁height	-11.4858
▁intended	-11.4859
estabas	-11.486
▁casarme	-11.486
▁podré	-11.4861
▁korean	-11.4862
▁magic	-11.4864
▁solucionar	-11.4867
ur	-11.4868
▁rented	-11.4868
▁busca	-11.4869
▁nerviosa	-11.487
▁volumen	-11.4872
▁closely	-11.4875
▁pasaba	-11.4876
▁contarte	-11.4878
▁colores	-11.488
▁mandar	-11.4882
▁meta	-11.4883
▁mancha	-11.4883
▁fiar	-11.4885
▁imagined	-11.4887
▁periódicos	-11.4887
▁solar	-11.4887
▁grades	-11.4892
▁che	-11.4904
▁turistas	-11.4906
▁bananas	-11.4913
▁derechos	-11.4914
▁reunir	-11.492
▁tales	-11.4921
ller	-11.4922
▁cazar	-11.4923
▁dejarlo	-11.4923
ear	-11.4927
▁encargar	-11.493
▁alimentos	-11.4935
▁vacas	-11.4936
▁talla	-11.4937
▁conté	-11.4939
▁normas	-11.4941
▁ink	-11.4948
▁amas	-11.4956
▁veas	-11.4995
side	-11.5003
▁efforts	-11.5009
▁particip	-11.5014
▁rosas	-11.5023
elo	-11.5029
ria	-11.5045
▁extrañar	-11.505
▁aside	-11.5051
age	-11.5067
ida	-11.5108
▁consult	-11.5109
▁debate	-11.5109
▁claims	-11.512
darnos	-11.5124
▁prest	-11.5126
one	-11.5132
▁l	-11.5151
▁luchar	-11.5154
▁sábados	-11.5155
▁calles	-11.5169
▁unusual	-11.5171
▁pop	-11.5179
▁knee	-11.5187
▁tune	-11.5187
▁prefiere	-11.5189
▁ruin	-11.5194
j	-11.5197
▁demand	-11.5199
▁behave	-11.5205
ud	-11.5205
▁wound	-11.5208
▁ríe	-11.5215
▁amarillo	-11.5218
▁suggestion	-11.5218
▁hu	-11.5219
▁appearance	-11.522
▁zorro	-11.5221
▁flag	-11.5222
▁recogi	-11.5222
▁pida	-11.5225
▁piloto	-11.5226
cient	-11.5227
▁tourist	-11.5228
▁weapon	-11.5228
▁acuerda	-11.5229
▁pide	-11.523
▁vuestros	-11.5232
▁trains	-11.5236
sh	-11.5242
▁squeeze	-11.5242
▁papers	-11.5248
▁manda	-11.5251
▁necesite	-11.5255
▁players	-11.5257
▁éstas	-11.5267
▁budge	-11.5269
▁scar	-11.5269
endo	-11.5284
▁fork	-11.5288
▁cómodo	-11.5293
▁protest	-11.5294
▁faith	-11.5298
▁corrí	-11.5303
▁llegas	-11.5307
▁extraños	-11.5312
▁fuese	-11.5313
recuerdas	-11.5315
▁oppose	-11.5317
eza	-11.532
▁volume	-11.5321
▁miente	-11.5321
▁tipos	-11.5327
▁decent	-11.5329
▁applie	-11.5334
▁cough	-11.5337
▁oso	-11.5343
▁approve	-11.5345
▁ca	-11.5348
▁sweat	-11.5349
▁blow	-11.535
▁pruebas	-11.5352
▁profesional	-11.5353
▁pack	-11.5353
▁angel	-11.5353
▁unexpected	-11.5355
▁lastimar	-11.5355
▁servir	-11.5356
▁occasion	-11.536
▁adicto	-11.536
▁apoyó	-11.536
▁claus	-11.536
▁comité	-11.536
▁conceited	-11.536
▁confesó	-11.536
▁contraseña	-11.536
▁cuaderno	-11.536
▁encender	-11.536
▁engañó	-11.536
▁entrance	-11.536
▁espectáculo	-11.536
▁estudié	-11.536
▁festival	-11.536
▁hoax	-11.536
▁instructions	-11.536
▁izquierdo	-11.536
▁juicio	-11.536
▁ketchup	-11.536
▁knowledge	-11.536
▁maestra	-11.536
▁martillo	-11.536
▁ocurra	-11.536
▁paliza	-11.536
▁password	-11.536
▁pizarra	-11.536
▁retrasó	-11.536
▁rough	-11.536
▁sombra	-11.536
▁target	-11.536
▁temporada	-11.536
▁unfair	-11.536
▁universe	-11.536
▁universo	-11.536
▁upstairs	-11.536
▁vestida	-11.536
▁época	-11.536
▁ausencia	-11.536
▁deliciosa	-11.536
▁drew	-11.536
▁pagué	-11.536
▁policy	-11.536
▁descubierto	-11.536
▁sheep	-11.536
▁almorzando	-11.536
▁coraje	-11.536
▁egoísta	-11.536
▁mystery	-11.536
▁soft	-11.536
▁competition	-11.536
▁coincidence	-11.536
▁replace	-11.536
▁selfish	-11.536
▁swear	-11.5361
▁habitaciones	-11.5361
▁scenery	-11.5361
▁rio	-11.5361
▁educado	-11.5361
▁cigarro	-11.5361
▁presence	-11.5361
▁permitido	-11.5361
▁scratch	-11.5361
▁enséñame	-11.5361
▁advirtió	-11.5361
▁comparto	-11.5361
▁honestidad	-11.5362
▁distinguish	-11.5362
▁hundió	-11.5362
▁arrepiento	-11.5362
▁row	-11.5362
▁salgo	-11.5362
▁stock	-11.5362
▁caminó	-11.5362
▁muro	-11.5362
▁fortunately	-11.5363
▁square	-11.5363
▁actualmente	-11.5363
▁cheaper	-11.5363
▁sonriendo	-11.5364
▁object	-11.5364
▁soul	-11.5364
▁instrucciones	-11.5364
▁progreso	-11.5365
▁metido	-11.5365
▁barba	-11.5365
▁arrojó	-11.5366
▁partió	-11.5366
▁suitable	-11.5366
▁saqué	-11.5367
▁dating	-11.5367
▁product	-11.5368
▁collecting	-11.5368
▁treaty	-11.5369
▁oeste	-11.537
▁mostrarte	-11.537
▁bowed	-11.537
▁rescued	-11.5371
▁fairly	-11.5371
▁miraron	-11.5372
▁addict	-11.5374
▁despertador	-11.5375
▁disparar	-11.5376
▁framed	-11.5376
▁shocked	-11.5379
▁marchó	-11.538
▁income	-11.5387
▁reina	-11.5387
▁sigo	-11.5388
▁disfrutar	-11.5389
▁manners	-11.5393
▁joy	-11.5393
▁serás	-11.5395
▁quarter	-11.5396
▁quejó	-11.5396
▁quemó	-11.5398
▁herramientas	-11.54
▁pagaré	-11.5402
ros	-11.5409
▁existen	-11.5411
▁pesa	-11.5415
▁alcanza	-11.5415
▁chosen	-11.5418
▁sellos	-11.542
▁posee	-11.5426
▁rely	-11.5429
▁leerlo	-11.5441
▁gemelos	-11.5443
▁acción	-11.5444
cated	-11.5447
▁preciosa	-11.5449
▁cows	-11.5451
sal	-11.5455
▁serpientes	-11.5465
▁snakes	-11.5465
▁comía	-11.5467
ance	-11.5471
▁fate	-11.5485
▁parking	-11.5485
▁terms	-11.5486
▁lit	-11.5487
▁mat	-11.549
▁regalar	-11.55
▁permanecer	-11.5509
▁americanos	-11.552
▁sonando	-11.5521
▁científicos	-11.5523
▁cu	-11.5526
pidieron	-11.5531
▁lados	-11.5547
▁cor	-11.5549
▁tantos	-11.5549
tar	-11.5563
▁lucha	-11.557
▁canal	-11.5578
▁gustado	-11.5613
▁invent	-11.5644
▁fueras	-11.5664
áramos	-11.568
▁recibi	-11.5705
▁entradas	-11.5715
▁tru	-11.5731
▁piense	-11.5741
▁coin	-11.5753
arte	-11.5754
▁pilot	-11.5763
cantaría	-11.5763
▁furioso	-11.5769
▁bribe	-11.577
▁fi	-11.5771
▁dim	-11.5772
▁helicóptero	-11.5773
▁religion	-11.5773
▁cobarde	-11.5776
▁pluma	-11.5776
▁bandera	-11.5777
▁cuento	-11.5779
▁guardia	-11.5779
▁custom	-11.578
▁curtain	-11.5782
▁rodilla	-11.5782
▁cigarrillo	-11.5783
▁comentario	-11.5784
▁oscura	-11.5785
▁volvería	-11.5786
▁desayuna	-11.5788
▁twin	-11.5793
▁design	-11.5799
▁sucio	-11.5802
ig	-11.5805
▁term	-11.581
▁revis	-11.5813
▁aterriz	-11.5823
▁botellas	-11.5856
▁arruin	-11.5858
▁agradeci	-11.5859
▁rate	-11.5861
ina	-11.5862
ellos	-11.5862
mail	-11.5866
▁busc	-11.5866
▁cocin	-11.5869
▁estacion	-11.587
▁odiaba	-11.5875
▁bottles	-11.5878
▁resultar	-11.5882
▁pray	-11.589
▁apunta	-11.5895
▁lent	-11.5899
▁increase	-11.59
▁malos	-11.5902
▁poison	-11.5903
▁triunfar	-11.591
▁hug	-11.5912
▁brand	-11.5912
▁gentil	-11.5912
ico	-11.5915
leaned	-11.5915
▁central	-11.5916
▁automobile	-11.5916
▁biblia	-11.5916
▁cottage	-11.5916
▁despedida	-11.5916
▁diecisiete	-11.5916
▁funcionó	-11.5916
▁garbage	-11.5916
▁gasolina	-11.5916
▁hockey	-11.5916
▁inconsciente	-11.5916
▁innocence	-11.5916
▁mouse	-11.5916
▁oigo	-11.5916
▁oxygen	-11.5916
▁oxígeno	-11.5916
▁promotion	-11.5916
▁química	-11.5916
▁regreso	-11.5916
▁resort	-11.5916
▁rusia	-11.5916
▁stubborn	-11.5916
▁tabaco	-11.5916
▁tifón	-11.5916
▁unreliable	-11.5916
▁suceda	-11.5916
▁apology	-11.5916
▁limít	-11.5916
▁seventeen	-11.5916
▁parcial	-11.5916
▁flour	-11.5916
▁fridge	-11.5916
▁fuertes	-11.5916
▁pillow	-11.5916
▁cálido	-11.5916
▁deprimido	-11.5916
▁merecía	-11.5916
▁trunk	-11.5916
▁mutuamente	-11.5916
▁reducir	-11.5916
▁kobe	-11.5916
▁discutiendo	-11.5916
▁brief	-11.5916
▁hugged	-11.5916
▁periodista	-11.5916
▁silver	-11.5916
▁tinto	-11.5916
▁batería	-11.5916
▁estantería	-11.5916
▁robando	-11.5917
▁wide	-11.5917
▁repentinamente	-11.5917
▁observando	-11.5917
▁juguemos	-11.5917
▁dormida	-11.5917
▁safety	-11.5917
▁sugiero	-11.5917
▁spade	-11.5917
▁drowning	-11.5917
▁level	-11.5918
▁revés	-11.5918
▁hammer	-11.5918
▁bible	-11.5918
▁bleeding	-11.5918
▁partida	-11.5918
▁gane	-11.5919
▁caído	-11.5919
▁soap	-11.5919
▁threatened	-11.5919
▁saque	-11.592
▁abandonado	-11.592
▁áfrica	-11.592
▁optimista	-11.5921
▁released	-11.5921
▁pretendía	-11.5921
▁pavo	-11.5921
▁pido	-11.5922
▁disguised	-11.5922
▁afortunadamente	-11.5924
▁edi	-11.5924
▁santa	-11.5926
▁arrogante	-11.5926
▁salgamos	-11.5927
▁decile	-11.5927
▁siguieron	-11.5928
▁everest	-11.593
▁jugadores	-11.5931
▁approved	-11.5932
▁estacionar	-11.5933
▁suffering	-11.5934
dical	-11.5935
▁naturales	-11.5936
construido	-11.5936
▁logro	-11.5938
▁computadores	-11.5938
▁senté	-11.5949
▁decente	-11.595
▁sabor	-11.595
▁kilos	-11.595
▁moderna	-11.5951
▁cómoda	-11.5953
▁poeta	-11.5955
▁aparcar	-11.5956
▁ayudando	-11.5957
▁feo	-11.5958
▁evento	-11.5959
▁informed	-11.5962
▁yendo	-11.5966
▁respond	-11.5969
▁trabajamos	-11.5972
▁labios	-11.5972
che	-11.5972
▁celebrate	-11.5978
▁supplies	-11.5981
▁incorrecta	-11.5985
▁decirlo	-11.5996
iz	-11.6
fi	-11.6
▁memorize	-11.6001
▁considerar	-11.6006
▁heater	-11.6009
▁discuti	-11.601
▁pasarme	-11.6011
ng	-11.6013
▁ignorar	-11.6015
▁comprarse	-11.6016
cer	-11.6017
tiendo	-11.6019
▁conejos	-11.6027
▁clientes	-11.6044
▁painful	-11.6047
▁juegan	-11.6047
▁sabías	-11.6056
▁tourists	-11.6058
▁necesites	-11.6058
dando	-11.606
▁grown	-11.6064
▁chances	-11.6065
aciones	-11.6066
▁decepcionar	-11.6068
ín	-11.6075
▁mata	-11.6078
▁divorci	-11.6081
▁dependen	-11.6094
▁extranjeras	-11.6112
▁chistes	-11.6113
▁superar	-11.6124
esa	-11.6125
tado	-11.6166
▁abuse	-11.6215
aking	-11.6218
ard	-11.6221
▁consume	-11.6226
▁cultura	-11.6231
nzó	-11.6253
▁hoped	-11.6257
old	-11.6264
▁muchachos	-11.6275
▁aprobar	-11.628
▁stepp	-11.6284
▁owner	-11.629
▁lu	-11.6296
▁encuentras	-11.6299
▁mentiras	-11.6302
▁acabas	-11.6304
▁permit	-11.6334
▁scream	-11.6335
▁colors	-11.6346
▁damage	-11.6349
▁misterio	-11.6357
▁culture	-11.6357
▁divertida	-11.6357
▁sugerencia	-11.6357
▁clara	-11.6362
▁wheel	-11.6363
▁sujeto	-11.6364
▁belt	-11.6366
qui	-11.6368
▁viera	-11.637
▁familias	-11.6372
▁moneda	-11.6372
▁cliente	-11.6373
▁dollar	-11.6383
▁italiano	-11.639
▁fuente	-11.6393
oso	-11.6403
▁gu	-11.6406
▁resign	-11.641
▁roll	-11.6413
▁suicidar	-11.643
zco	-11.6441
sumí	-11.6448
▁puñ	-11.6453
queréis	-11.6455
▁entendí	-11.6462
▁mono	-11.6462
▁russia	-11.6465
um	-11.6466
five	-11.6467
▁gifts	-11.6473
je	-11.6478
ch	-11.6479
▁state	-11.6481
▁separate	-11.6485
▁delay	-11.6493
▁habilidad	-11.6497
▁thorough	-11.6499
▁wealth	-11.6501
▁shout	-11.6501
▁prince	-11.6502
▁tela	-11.6504
▁affect	-11.6504
▁aburrida	-11.6504
▁actitud	-11.6504
▁anteojos	-11.6504
▁attitude	-11.6504
▁autumn	-11.6504
▁auténtico	-11.6504
▁cedió	-11.6504
▁challenge	-11.6504
▁conjunto	-11.6504
▁desastre	-11.6504
▁desierta	-11.6504
▁downstairs	-11.6504
▁eighteen	-11.6504
▁financial	-11.6504
▁halloween	-11.6504
▁hunch	-11.6504
▁journalist	-11.6504
▁junk	-11.6504
▁lastimó	-11.6504
▁lápices	-11.6504
▁promedio	-11.6504
▁pálido	-11.6504
▁repugnante	-11.6504
▁scissors	-11.6504
▁screw	-11.6504
▁simpático	-11.6504
▁traicionó	-11.6504
▁trigger	-11.6504
▁recién	-11.6504
▁sensación	-11.6504
▁estilo	-11.6504
▁flashlight	-11.6504
▁honey	-11.6504
▁opposite	-11.6504
▁quíta	-11.6504
▁zona	-11.6504
▁desaparecido	-11.6504
▁falleció	-11.6504
▁superior	-11.6504
▁slam	-11.6504
▁stomachache	-11.6504
▁atento	-11.6504
▁department	-11.6504
▁empiece	-11.6504
▁reduce	-11.6504
▁dozen	-11.6504
▁pozo	-11.6504
▁lavó	-11.6504
▁purse	-11.6504
▁pipe	-11.6504
▁nearby	-11.6504
▁antig	-11.6504
▁further	-11.6504
▁authority	-11.6504
▁eyesight	-11.6505
▁tóma	-11.6505
▁soltera	-11.6505
▁remarkable	-11.6505
▁operation	-11.6505
▁harina	-11.6505
▁admiro	-11.6505
▁estanque	-11.6505
▁dibujo	-11.6505
▁acondicionado	-11.6506
▁confidence	-11.6506
▁rejected	-11.6506
▁soñando	-11.6506
▁informado	-11.6507
▁happier	-11.6507
▁construcción	-11.6507
▁quejarse	-11.6507
▁atravesó	-11.6507
▁appetite	-11.6507
▁desgracia	-11.6507
▁planned	-11.6508
▁incómodo	-11.6508
▁respira	-11.6509
▁lotería	-11.6509
▁continuó	-11.6509
▁ciertamente	-11.6509
▁actúa	-11.651
▁boiling	-11.6511
▁condición	-11.6512
▁explicarlo	-11.6512
▁defense	-11.6512
▁secó	-11.6512
▁invitaron	-11.6512
▁swam	-11.6513
▁lottery	-11.6513
▁muestra	-11.6514
▁balde	-11.6514
▁painter	-11.6517
▁sandwiches	-11.6517
▁asientos	-11.652
▁burning	-11.6521
▁mataron	-11.6521
▁enseñaré	-11.6521
▁sobrevivir	-11.6522
▁riendo	-11.6523
▁dominar	-11.6523
▁cave	-11.6523
▁busco	-11.6524
▁pasaste	-11.6524
▁responde	-11.6527
▁cochera	-11.6529
▁comparado	-11.653
▁preguntarte	-11.653
▁resistir	-11.6532
▁participate	-11.6534
▁gastos	-11.6536
▁tonta	-11.6537
▁lloverá	-11.6538
▁apetece	-11.6538
cogí	-11.654
▁insistió	-11.654
▁trabajas	-11.6545
▁avoided	-11.6546
▁adivina	-11.6548
▁ponerme	-11.6548
▁crowded	-11.6553
▁officer	-11.6556
▁checked	-11.6561
▁rainy	-11.6564
▁comete	-11.6564
▁barber	-11.6572
▁utiliza	-11.6574
▁worrying	-11.6576
▁imp	-11.6581
▁breaking	-11.6582
▁nodded	-11.6583
▁pasaría	-11.6586
▁completa	-11.659
▁assure	-11.6593
▁guns	-11.66
▁daría	-11.6603
▁saludó	-11.6612
voted	-11.6614
▁foreigners	-11.6615
▁aman	-11.663
▁adultos	-11.6632
eh	-11.6638
ados	-11.6638
▁tires	-11.664
eligió	-11.664
▁products	-11.6653
▁encontrarte	-11.6653
▁amarillas	-11.6671
▁osos	-11.6674
▁lamp	-11.6681
▁sienten	-11.6683
pueden	-11.6698
▁lovely	-11.6703
ará	-11.6705
tenemos	-11.671
ke	-11.6722
ized	-11.6731
▁prepara	-11.6737
▁salgas	-11.6747
pi	-11.6766
▁listens	-11.6778
▁colecciona	-11.6781
▁lead	-11.6782
▁cabe	-11.6788
▁pages	-11.6795
▁bi	-11.68
▁encantador	-11.6816
▁meals	-11.6818
▁molestar	-11.6823
▁ocupar	-11.6824
▁understanding	-11.6824
ismo	-11.6841
▁alegre	-11.6844
▁bolsillos	-11.6845
▁pockets	-11.6861
▁revistas	-11.6861
▁west	-11.6862
▁encantado	-11.6864
▁magazines	-11.687
▁consigue	-11.6871
▁cura	-11.688
▁advis	-11.6882
▁considera	-11.6895
▁dare	-11.6896
▁norma	-11.6899
▁vayan	-11.6902
▁pencils	-11.6903
▁ba	-11.6905
▁cups	-11.694
podé	-11.6951
▁realizar	-11.696
▁tire	-11.6961
▁asustar	-11.6975
▁reservation	-11.6984
▁confuso	-11.6988
▁pesadilla	-11.6991
vamos	-11.6992
▁brain	-11.6993
▁cortina	-11.6996
vi	-11.6996
▁cheque	-11.6997
▁ghost	-11.6998
▁stamp	-11.6998
▁detalle	-11.6999
▁adulto	-11.7007
▁doctors	-11.7008
▁violent	-11.701
▁traiga	-11.7013
tando	-11.7017
tir	-11.7021
▁estudias	-11.7021
eras	-11.7023
▁mission	-11.7024
▁detenido	-11.7028
▁bebí	-11.703
bo	-11.7032
▁permaneci	-11.704
su	-11.7051
cierto	-11.7054
vy	-11.7056
▁ayudes	-11.7059
han	-11.7079
sabés	-11.708
▁owes	-11.708
tendré	-11.708
tenéis	-11.7081
▁compara	-11.7081
ustedes	-11.7099
▁collect	-11.7106
▁origin	-11.7115
▁faint	-11.7117
▁confess	-11.7117
▁evit	-11.7117
▁borde	-11.7117
▁quarrel	-11.7118
▁fog	-11.712
▁tenedor	-11.7121
▁comercial	-11.7122
▁ours	-11.7122
▁ángel	-11.7122
▁convenient	-11.7124
▁rápida	-11.7126
▁spli	-11.7127
▁profunda	-11.7128
▁spot	-11.7129
▁tranquila	-11.7129
▁conscious	-11.7129
tacó	-11.7129
▁aceite	-11.7129
▁acepto	-11.7129
▁album	-11.7129
▁apetito	-11.7129
▁application	-11.7129
▁cafetería	-11.7129
▁ciega	-11.7129
▁circumstances	-11.7129
▁clásica	-11.7129
▁complex	-11.7129
▁conocieron	-11.7129
▁conseguido	-11.7129
▁decírselo	-11.7129
▁desmayó	-11.7129
▁determine	-11.7129
▁disculpó	-11.7129
▁duermo	-11.7129
▁eléctrica	-11.7129
▁gatillo	-11.7129
▁grifo	-11.7129
▁horario	-11.7129
▁húmedo	-11.7129
▁independiente	-11.7129
▁international	-11.7129
▁intérprete	-11.7129
▁january	-11.7129
▁ladrones	-11.7129
▁ligero	-11.7129
▁linterna	-11.7129
▁luggage	-11.7129
▁mobile	-11.7129
▁mínimo	-11.7129
▁narita	-11.7129
▁narrow	-11.7129
▁patinar	-11.7129
▁physics	-11.7129
▁príncipe	-11.7129
▁pánico	-11.7129
▁religión	-11.7129
▁research	-11.7129
▁responsibility	-11.7129
▁rising	-11.7129
▁rompecabezas	-11.7129
▁siguiendo	-11.7129
▁statue	-11.7129
▁vencido	-11.7129
▁virus	-11.7129
▁vídeo	-11.7129
▁veloz	-11.7129
▁corriente	-11.7129
▁excepcional	-11.7129
▁necesaria	-11.7129
▁infantil	-11.7129
▁romantic	-11.7129
▁amusing	-11.7129
▁apague	-11.7129
▁disaster	-11.7129
▁typical	-11.7129
▁assistant	-11.7129
▁vegetales	-11.7129
▁acciones	-11.7129
▁estatua	-11.7129
▁coincidencia	-11.7129
▁desperate	-11.7129
▁pink	-11.7129
▁láv	-11.7129
▁cocinero	-11.7129
▁sirvió	-11.7129
▁almorzamos	-11.7129
▁pintor	-11.7129
▁aparentemente	-11.7129
▁palace	-11.7129
▁frog	-11.7129
▁datos	-11.7129
▁amazed	-11.7129
▁communicate	-11.713
▁ebrio	-11.713
▁sink	-11.713
▁desocupado	-11.713
▁crema	-11.713
▁secretary	-11.713
▁lenguaje	-11.713
▁poquito	-11.713
▁comenzado	-11.713
▁pasaje	-11.713
▁treatment	-11.713
▁directamente	-11.713
▁salimos	-11.713
▁tratamiento	-11.713
▁delgado	-11.7131
▁exitoso	-11.7131
▁strike	-11.7131
▁hatred	-11.7131
▁bush	-11.7131
▁salón	-11.7131
▁impedir	-11.7131
▁cloudy	-11.7131
▁guía	-11.7131
▁drowned	-11.7132
▁librería	-11.7132
▁flow	-11.7132
▁revel	-11.7132
▁visible	-11.7132
▁punctual	-11.7133
▁encouraged	-11.7134
▁subiendo	-11.7134
▁sorprendería	-11.7134
▁incorrecto	-11.7134
▁alegría	-11.7134
▁astuto	-11.7134
▁cheered	-11.7134
▁perderás	-11.7135
▁path	-11.7135
▁sentamos	-11.7135
▁enseñando	-11.7135
▁warmer	-11.7136
▁gastado	-11.7137
▁barrio	-11.7137
▁cheating	-11.7137
▁mostrarme	-11.7137
▁proof	-11.7137
▁ganando	-11.7137
▁divorcio	-11.7139
▁practical	-11.7139
▁mudó	-11.714
▁loudly	-11.714
▁deceived	-11.7141
▁retired	-11.7141
▁fainted	-11.7142
▁recursos	-11.7142
▁unknown	-11.7142
▁mire	-11.7142
▁float	-11.7143
▁cogido	-11.7144
▁comamos	-11.7145
▁border	-11.7145
▁reconocí	-11.7145
▁logró	-11.7145
▁sincera	-11.7145
▁fea	-11.7146
▁misión	-11.7147
▁crashed	-11.715
▁mezcla	-11.715
▁climbing	-11.7152
▁pa	-11.7153
▁yard	-11.7154
▁improved	-11.7154
▁career	-11.7156
▁preguntando	-11.7157
▁cultiva	-11.7158
▁respetar	-11.7159
▁conocerte	-11.716
ho	-11.7162
▁sudando	-11.7162
▁hundreds	-11.7164
▁enojar	-11.7164
▁logr	-11.7165
▁latest	-11.717
▁papeles	-11.7173
▁hijas	-11.7183
▁tiro	-11.7185
▁ke	-11.7185
▁estate	-11.719
▁uniforme	-11.719
▁daughters	-11.719
▁cumple	-11.7192
▁consecuencias	-11.7194
▁aquél	-11.7196
▁trabajador	-11.7196
▁ideal	-11.7207
▁creemos	-11.7208
▁compraron	-11.7211
aban	-11.7212
▁beard	-11.722
▁mirá	-11.722
▁comb	-11.7221
▁tigers	-11.7229
out	-11.7229
▁lobos	-11.7247
ame	-11.7263
▁dejas	-11.7266
▁blamed	-11.7271
▁seated	-11.7277
▁enero	-11.7278
▁cigarrillos	-11.7281
▁pienses	-11.7282
▁knees	-11.7291
manded	-11.7292
▁oye	-11.7295
▁políticos	-11.7299
▁juguetes	-11.7316
▁documents	-11.7334
pr	-11.7343
▁lawn	-11.7347
misunderstanding	-11.7355
▁lamenta	-11.7362
▁juntar	-11.7366
▁letras	-11.7378
king	-11.738
▁pis	-11.7384
▁showing	-11.739
▁seria	-11.7393
▁vasos	-11.7393
▁pasas	-11.7395
▁aguantar	-11.7401
▁asegur	-11.7404
▁abandon	-11.7421
▁caus	-11.743
gó	-11.7437
x	-11.7465
▁stones	-11.7475
▁baila	-11.7478
ló	-11.7486
▁tapa	-11.7492
▁ref	-11.75
▁locos	-11.7503
▁dejá	-11.7506
▁llaman	-11.7508
▁maletas	-11.7519
▁lanza	-11.7525
▁derram	-11.7526
▁cds	-11.7579
▁cho	-11.758
▁llamadas	-11.7592
▁anterior	-11.7606
▁fle	-11.7615
▁encuentre	-11.7615
▁asusta	-11.7636
▁universitario	-11.7649
▁ventaja	-11.7649
▁fresca	-11.765
▁mosquito	-11.7653
▁falsa	-11.7653
▁sonríe	-11.7653
▁prima	-11.7653
▁source	-11.7654
▁odd	-11.7655
▁conocimiento	-11.7656
▁ciervo	-11.7656
▁corté	-11.7657
▁conozca	-11.7661
▁sabrá	-11.7661
▁liber	-11.7661
▁pedazo	-11.7662
▁politician	-11.7662
▁prisionero	-11.7662
▁voluntario	-11.7662
▁segundos	-11.7662
▁rabbit	-11.7663
▁sienta	-11.7663
▁serpiente	-11.7664
▁snake	-11.7664
▁conejo	-11.7664
ula	-11.7669
▁alimento	-11.7673
▁bears	-11.7689
▁tuyos	-11.7689
▁interior	-11.7691
▁quema	-11.77
▁vaca	-11.7709
▁fu	-11.7716
▁horror	-11.772
edades	-11.7728
▁cen	-11.7728
▁qui	-11.7729
▁firma	-11.773
▁quita	-11.773
▁preocupados	-11.7735
▁mas	-11.7735
▁serve	-11.7739
▁loose	-11.7741
▁temer	-11.7742
hi	-11.7744
shirt	-11.7747
thirty	-11.7747
ahora	-11.7747
▁caza	-11.7749
handed	-11.7753
▁disgust	-11.7755
vale	-11.7755
▁pusi	-11.7756
▁ladra	-11.7758
▁astronaut	-11.7758
▁vueltas	-11.7764
▁mark	-11.7765
▁reunió	-11.7765
▁despertado	-11.7776
▁hesitate	-11.778
▁engañar	-11.7782
▁aprecia	-11.7789
▁escolar	-11.779
▁skate	-11.7791
▁falls	-11.7791
▁insist	-11.7792
▁trigo	-11.7792
▁demostrar	-11.7793
▁negar	-11.7793
scribió	-11.7795
▁secretos	-11.7795
▁veneno	-11.7795
▁dish	-11.7795
▁aprobado	-11.7796
▁asintió	-11.7796
▁cambié	-11.7796
▁delegate	-11.7796
▁escrita	-11.7796
▁exámenes	-11.7796
▁forehead	-11.7796
▁glance	-11.7796
▁handwriting	-11.7796
▁independent	-11.7796
▁lectura	-11.7796
▁médica	-11.7796
▁ordinary	-11.7796
▁pajamas	-11.7796
▁pijama	-11.7796
▁popcorn	-11.7796
▁purchase	-11.7796
▁recomendó	-11.7796
▁riqueza	-11.7796
▁stool	-11.7796
▁surprising	-11.7796
▁thumb	-11.7796
▁timbre	-11.7796
▁toothpaste	-11.7796
▁translation	-11.7796
▁universal	-11.7796
▁volleyball	-11.7796
▁withdraw	-11.7796
▁wolves	-11.7796
▁álbum	-11.7796
▁haircut	-11.7796
▁silk	-11.7796
▁sírva	-11.7796
▁atractiva	-11.7796
▁audiencia	-11.7796
▁culpo	-11.7796
▁fierce	-11.7796
▁pésimo	-11.7796
▁sesenta	-11.7796
▁heladera	-11.7796
▁palacio	-11.7796
▁sake	-11.7796
▁aguanto	-11.7796
▁bici	-11.7796
▁punishment	-11.7796
▁underestimate	-11.7796
▁stew	-11.7796
▁resuelto	-11.7796
▁alquiler	-11.7796
▁magia	-11.7796
▁breed	-11.7796
▁volvamos	-11.7796
▁renunció	-11.7796
▁wings	-11.7796
▁escaso	-11.7796
▁bookstore	-11.7796
▁otherwise	-11.7796
▁casco	-11.7796
▁tentación	-11.7796
▁comieron	-11.7797
▁silly	-11.7797
▁powerful	-11.7797
▁internacional	-11.7797
▁investigando	-11.7797
▁esperábamos	-11.7797
▁wheat	-11.7797
▁national	-11.7797
▁practicing	-11.7797
▁published	-11.7797
▁nevó	-11.7797
▁reconoció	-11.7797
▁prometido	-11.7797
▁harvest	-11.7798
▁coal	-11.7798
▁micro	-11.7798
▁thrilled	-11.7798
▁mencionó	-11.7798
▁oven	-11.7799
▁charlar	-11.7799
▁sucedido	-11.7799
▁preocuparme	-11.7799
▁decidiste	-11.78
▁beans	-11.78
▁cumplió	-11.78
▁scary	-11.78
▁difficulties	-11.78
▁sinceramente	-11.7801
▁invité	-11.7801
▁track	-11.7801
▁recuperó	-11.7801
▁active	-11.7801
▁preparada	-11.7802
▁bajando	-11.7802
▁llegada	-11.7802
▁enamoró	-11.7804
▁camping	-11.7804
▁grito	-11.7804
▁buscaba	-11.7805
▁distract	-11.7805
▁tercera	-11.7805
▁bow	-11.7805
▁cumplido	-11.7805
▁disco	-11.7806
▁conducta	-11.7807
▁punch	-11.7808
▁agudo	-11.7808
▁crush	-11.7809
▁tijeras	-11.781
▁screamed	-11.781
▁infeliz	-11.7812
▁saludos	-11.7813
▁bola	-11.7814
▁higher	-11.7814
▁damaged	-11.7815
up	-11.7816
▁insulted	-11.7818
▁resources	-11.7819
▁admired	-11.7819
▁ahorros	-11.782
▁contestó	-11.7821
▁minor	-11.7821
▁llevé	-11.7822
▁dancer	-11.7823
v	-11.7824
▁llamaron	-11.7825
▁remains	-11.7826
▁normally	-11.7827
▁palo	-11.7827
todos	-11.7828
▁rió	-11.7828
▁salvajes	-11.7828
▁cambiará	-11.7828
▁insectos	-11.7829
▁alérgica	-11.7829
▁leyes	-11.7831
▁astronauta	-11.7833
▁señora	-11.7834
▁relaxed	-11.7837
▁complaints	-11.7837
▁nerves	-11.7838
▁ayudarla	-11.7838
▁entiendes	-11.784
▁wipe	-11.7843
▁instante	-11.7845
▁intentes	-11.7849
▁avisar	-11.7855
▁lips	-11.7856
▁sucede	-11.7857
▁deserved	-11.7868
▁ancianos	-11.7871
▁balance	-11.7872
▁viví	-11.7884
▁momentos	-11.7885
▁trescient	-11.7893
▁tigres	-11.7893
▁cast	-11.7898
▁veras	-11.7899
▁influencia	-11.79
▁ayudaré	-11.7903
▁veros	-11.791
▁velas	-11.7914
▁terminará	-11.7914
▁content	-11.7916
▁streets	-11.7916
▁rojos	-11.7917
▁humana	-11.792
▁alquilar	-11.7921
▁nails	-11.7924
▁beg	-11.7927
aje	-11.7929
▁sientas	-11.7931
▁rabbits	-11.7931
▁reads	-11.7937
▁cortinas	-11.794
▁secrets	-11.7951
▁abus	-11.7953
▁esperara	-11.7978
▁adults	-11.7978
rían	-11.7981
▁cancelar	-11.7996
▁difíciles	-11.8001
▁regards	-11.8006
▁atropell	-11.8006
▁llora	-11.8021
▁sangra	-11.8028
▁gustaban	-11.8035
led	-11.8038
▁stops	-11.8046
▁números	-11.8051
▁digan	-11.8053
▁adoptar	-11.8061
▁limpias	-11.8069
pped	-11.8074
▁smokes	-11.8078
▁llegaré	-11.8086
ible	-11.809
▁escrib	-11.81
▁estúpidas	-11.81
▁vengan	-11.8113
▁fuerzas	-11.8148
▁suitcases	-11.8148
tuviste	-11.8191
▁piedras	-11.8195
▁trozos	-11.8205
▁odiar	-11.8228
▁junt	-11.8229
▁hablarle	-11.8231
ob	-11.8244
▁cometa	-11.8246
▁sopl	-11.8255
▁seda	-11.8266
▁perdona	-11.8268
ería	-11.827
ica	-11.8276
▁frutas	-11.8281
▁toque	-11.8294
ware	-11.8299
▁sew	-11.8314
rte	-11.8314
▁acostumbr	-11.8324
ished	-11.8329
ily	-11.8337
▁aliment	-11.8345
rías	-11.835
▁milagro	-11.8363
▁barata	-11.8367
▁character	-11.8372
▁principiante	-11.8374
▁cambie	-11.8375
▁elefante	-11.8376
▁comment	-11.8376
▁peligrosa	-11.8377
▁farmer	-11.8378
▁candle	-11.8378
▁competent	-11.8378
▁verdes	-11.8378
▁fantasma	-11.8379
▁droga	-11.838
▁deseos	-11.8381
▁rompe	-11.8382
actuando	-11.8383
▁foreigner	-11.8386
▁memoriz	-11.8396
▁sometime	-11.8399
▁papa	-11.84
▁goat	-11.8401
▁tumba	-11.8412
▁consist	-11.8414
▁lobo	-11.8416
cho	-11.843
▁interpret	-11.8431
▁crece	-11.8432
ármelo	-11.8436
▁comprende	-11.8436
▁gang	-11.844
▁individual	-11.8445
▁escala	-11.8445
imed	-11.8449
▁heridos	-11.8452
aría	-11.8454
▁ka	-11.8457
creés	-11.8458
▁comidas	-11.8459
dejaste	-11.8459
fuiste	-11.8461
ucho	-11.8462
▁rise	-11.8469
▁juegue	-11.8469
▁korea	-11.847
vertirse	-11.8471
▁aspirin	-11.848
ándome	-11.8485
vienes	-11.8487
▁disagree	-11.8491
▁influence	-11.8493
▁dr	-11.8495
▁postpone	-11.8495
▁crack	-11.8496
▁pronounce	-11.8498
▁conduct	-11.85
▁tax	-11.8501
▁exterior	-11.8503
▁corea	-11.8504
▁daños	-11.8504
▁furious	-11.8505
▁absolute	-11.8506
▁robber	-11.8506
▁prime	-11.8507
▁materia	-11.8508
▁moto	-11.8509
▁east	-11.8509
▁commit	-11.851
▁orphan	-11.851
▁forecast	-11.851
▁acento	-11.851
▁alphabet	-11.851
▁arrival	-11.851
▁arrow	-11.851
▁campaign	-11.851
▁circle	-11.851
▁conceal	-11.851
▁círculo	-11.851
▁description	-11.851
▁discount	-11.851
▁environment	-11.851
▁essential	-11.851
▁explique	-11.851
▁fbi	-11.851
▁garaje	-11.851
▁honeymoon	-11.851
▁increasing	-11.851
▁injusto	-11.851
▁jabón	-11.851
▁julio	-11.851
▁llores	-11.851
▁luxury	-11.851
▁necklace	-11.851
▁niebla	-11.851
▁ochenta	-11.851
▁portugal	-11.851
▁pudieron	-11.851
▁racket	-11.851
▁roosevelt	-11.851
▁rotten	-11.851
▁semejante	-11.851
▁soborno	-11.851
▁switzerland	-11.851
▁technology	-11.851
▁tecnología	-11.851
▁telefónica	-11.851
▁unconscious	-11.851
▁victim	-11.851
▁whisky	-11.851
▁wolf	-11.851
▁yourselves	-11.851
▁árabe	-11.851
▁hilton	-11.851
▁predecir	-11.851
▁below	-11.851
▁gym	-11.851
▁inesperado	-11.851
▁plain	-11.851
▁suicidio	-11.851
▁briefcase	-11.851
▁optimistic	-11.851
▁ésos	-11.851
▁charity	-11.851
▁delegados	-11.851
▁escoba	-11.851
▁suiza	-11.851
▁composition	-11.851
▁campaña	-11.851
▁millionaire	-11.851
▁recurrir	-11.851
▁presencia	-11.851
▁perdiste	-11.851
▁toyota	-11.851
▁jury	-11.851
▁nacimiento	-11.851
▁dizzy	-11.851
▁volviera	-11.851
▁princesa	-11.851
▁cuero	-11.851
▁confíe	-11.851
▁desagradable	-11.851
▁figura	-11.851
▁sorprendente	-11.851
▁broom	-11.851
▁fuga	-11.8511
▁mojado	-11.8511
▁tidy	-11.8511
▁digging	-11.8511
▁operación	-11.8511
▁pusiste	-11.8511
▁rechazado	-11.8511
▁convertido	-11.8511
▁grasa	-11.8511
▁medalla	-11.8511
▁interpreter	-11.8511
▁unlocked	-11.8511
▁reino	-11.8512
▁empeorando	-11.8512
▁automovilístico	-11.8512
▁gripe	-11.8512
▁empezaste	-11.8512
▁princess	-11.8512
▁unlucky	-11.8512
▁july	-11.8513
▁fake	-11.8513
▁spicy	-11.8513
▁chew	-11.8513
▁enviado	-11.8514
▁parties	-11.8514
▁permitió	-11.8514
▁pusiera	-11.8514
▁desayunado	-11.8514
▁cambiando	-11.8514
▁preocuparte	-11.8515
▁caí	-11.8515
▁funcionará	-11.8515
▁nieva	-11.8516
▁struck	-11.8516
▁style	-11.8516
▁inquieto	-11.8516
▁golden	-11.8517
▁recomendar	-11.8517
▁talentoso	-11.8517
▁probarlo	-11.8518
▁hunger	-11.8518
▁convencerlo	-11.8519
▁suelto	-11.8519
cy	-11.852
▁sentaron	-11.852
▁arreglarlo	-11.852
▁coreano	-11.852
▁disgusting	-11.852
▁banca	-11.8521
▁online	-11.8522
▁nado	-11.8522
▁oración	-11.8522
▁llegando	-11.8523
▁insects	-11.8525
▁sobrevivió	-11.8526
▁cortado	-11.8526
▁hilo	-11.8527
▁mentí	-11.8528
▁medal	-11.8528
▁searching	-11.853
▁earned	-11.853
▁pure	-11.8531
▁tango	-11.8537
▁tocaba	-11.8538
▁caridad	-11.8539
▁aspirina	-11.854
▁confident	-11.8544
▁firmó	-11.8546
▁enfermedades	-11.8546
▁durará	-11.8548
▁recordó	-11.8549
▁probado	-11.8549
▁examine	-11.855
▁vacant	-11.8551
▁breathing	-11.8553
▁cha	-11.8553
▁decisiones	-11.8561
▁bomberos	-11.8566
▁entering	-11.8566
▁appreciated	-11.8569
▁loosen	-11.8571
▁populares	-11.8573
▁visitarme	-11.8575
▁crops	-11.8575
▁stands	-11.8575
▁permíta	-11.8583
▁encontrarlo	-11.8588
▁basa	-11.859
▁entendería	-11.8591
▁parts	-11.8592
▁negros	-11.8592
▁operate	-11.8592
▁pierdas	-11.8595
▁customers	-11.8595
▁ingresos	-11.8595
▁toys	-11.8599
▁comemos	-11.8601
▁adolescentes	-11.8605
▁cuentas	-11.8611
▁casaron	-11.8613
▁vivos	-11.8614
▁aseguro	-11.8615
▁vais	-11.8617
▁latin	-11.862
▁chairs	-11.8622
▁eche	-11.863
▁budget	-11.8637
▁encontrarme	-11.8638
si	-11.864
▁judg	-11.8642
▁canilla	-11.8647
▁lid	-11.8653
▁despegar	-11.8661
▁sillas	-11.8662
▁juntas	-11.8667
▁precioso	-11.8667
▁anota	-11.8669
▁sucia	-11.867
lew	-11.867
▁monos	-11.8693
▁pides	-11.8696
▁dejarte	-11.8697
▁tip	-11.8709
iera	-11.871
▁prefieres	-11.871
▁prisoners	-11.8717
▁pares	-11.8718
▁sorprender	-11.8722
▁interesantes	-11.8728
▁ciudadanos	-11.8737
▁shine	-11.874
zo	-11.8755
op	-11.8758
▁nación	-11.8761
▁decisions	-11.8771
▁savings	-11.8777
▁hermosas	-11.878
▁jugará	-11.8787
▁aun	-11.8802
▁faces	-11.8805
▁revisar	-11.8815
▁durar	-11.8824
▁suicida	-11.8831
▁usan	-11.8833
▁seek	-11.8835
▁cakes	-11.8881
▁k	-11.8893
ea	-11.8899
▁metas	-11.8908
▁mild	-11.8915
▁sube	-11.8916
▁alerta	-11.8922
▁golpear	-11.8923
▁pare	-11.8924
▁contactar	-11.8951
ezca	-11.8954
men	-11.8963
metió	-11.8963
▁baña	-11.8966
▁stare	-11.8973
▁jo	-11.8976
▁grano	-11.8991
▁risks	-11.8992
tara	-11.8995
ez	-11.9006
▁gustar	-11.9006
▁pequeñas	-11.9012
▁invit	-11.9014
▁amanecer	-11.9037
▁gastar	-11.9041
▁trampas	-11.9055
▁flirt	-11.906
ier	-11.9071
sistieron	-11.9073
ine	-11.9079
▁foods	-11.9081
▁li	-11.9086
▁economic	-11.91
▁viejas	-11.9106
▁boil	-11.9118
minded	-11.9119
▁miracle	-11.9133
▁encontraré	-11.9133
▁sabio	-11.9133
▁invention	-11.9133
▁crudo	-11.9135
▁constant	-11.9136
▁conociera	-11.9137
▁nightmare	-11.9137
▁sorprendidos	-11.9138
cio	-11.9138
▁hierba	-11.9139
▁tontería	-11.9139
▁pig	-11.9141
▁block	-11.9141
▁sincero	-11.9144
▁elephant	-11.9145
▁rueda	-11.9145
▁rayo	-11.9146
▁nail	-11.9146
▁cow	-11.9148
▁rana	-11.9157
▁exams	-11.916
▁cable	-11.9164
ze	-11.9185
▁ayudarlo	-11.9194
▁cop	-11.9199
▁chill	-11.9199
▁bonitas	-11.9211
pé	-11.9222
▁leña	-11.9228
oíste	-11.9229
phone	-11.923
house	-11.9231
▁resume	-11.9233
volvió	-11.9235
tomás	-11.9236
sabías	-11.9238
▁viajes	-11.9239
▁tomaste	-11.9241
▁famosos	-11.9243
ura	-11.9251
▁exact	-11.9254
▁cheat	-11.9258
▁cloth	-11.9263
▁respeta	-11.9264
▁rescue	-11.9264
▁bake	-11.9264
▁mexican	-11.9265
▁reward	-11.9266
▁fren	-11.9266
▁cuantos	-11.9266
▁pianist	-11.9267
▁spill	-11.9272
▁divertir	-11.9272
▁dólar	-11.9273
▁orgullosos	-11.9274
▁cuchara	-11.9275
▁fluent	-11.9275
▁cálida	-11.9276
▁conociste	-11.9277
▁comfort	-11.9278
▁declara	-11.9279
▁acquaint	-11.9279
▁settle	-11.9279
▁flash	-11.9279
▁flame	-11.9279
▁aguja	-11.9279
▁alibi	-11.9279
▁awesome	-11.9279
▁carbón	-11.9279
▁castigo	-11.9279
▁chemistry	-11.9279
▁chimenea	-11.9279
▁chocó	-11.9279
▁combustible	-11.9279
▁comencemos	-11.9279
▁conmovió	-11.9279
▁eager	-11.9279
▁económica	-11.9279
▁egypt	-11.9279
▁envíe	-11.9279
▁estufa	-11.9279
▁fantastic	-11.9279
▁faucet	-11.9279
▁filipino	-11.9279
▁frigorífico	-11.9279
▁generous	-11.9279
▁homicidio	-11.9279
▁huelga	-11.9279
▁inténtalo	-11.9279
▁justicia	-11.9279
▁lyrics	-11.9279
▁lámpara	-11.9279
▁miércoles	-11.9279
▁motocicleta	-11.9279
▁overslept	-11.9279
▁pedimos	-11.9279
▁portátil	-11.9279
▁poverty	-11.9279
▁préstamo	-11.9279
▁puerto	-11.9279
▁pública	-11.9279
▁reliable	-11.9279
▁romántico	-11.9279
▁semáforo	-11.9279
▁shampoo	-11.9279
▁surrounded	-11.9279
▁sweep	-11.9279
▁taburete	-11.9279
▁terribly	-11.9279
▁unhealthy	-11.9279
▁veterinario	-11.9279
▁wednesday	-11.9279
▁coach	-11.9279
▁enemiga	-11.9279
▁engañe	-11.9279
▁estricta	-11.9279
▁excepción	-11.9279
▁hirviendo	-11.9279
▁jurado	-11.9279
▁smith	-11.9279
▁fifth	-11.9279
▁militar	-11.9279
▁literatura	-11.9279
▁competencia	-11.9279
▁multa	-11.9279
▁property	-11.9279
▁region	-11.9279
▁asistente	-11.9279
▁divirtiendo	-11.9279
▁temptation	-11.9279
▁inundación	-11.9279
▁cellphone	-11.9279
▁fascinante	-11.9279
▁freedom	-11.9279
▁exigi	-11.9279
▁asombroso	-11.9279
▁skinny	-11.9279
▁slipped	-11.9279
▁collection	-11.9279
▁fascinating	-11.928
▁ignorance	-11.928
▁investigating	-11.928
▁ignorancia	-11.928
▁producción	-11.928
▁continuación	-11.928
▁shallow	-11.928
▁gimnasio	-11.928
▁amargo	-11.928
▁scarf	-11.928
▁mandé	-11.928
▁defectos	-11.928
▁miserable	-11.928
ámonos	-11.928
▁announced	-11.928
▁soleado	-11.928
▁estuviese	-11.928
▁ninety	-11.928
▁nublado	-11.928
▁practicando	-11.928
▁sunset	-11.928
▁goose	-11.928
▁máximo	-11.928
▁mareado	-11.928
▁tasa	-11.928
▁ahorrando	-11.928
▁ho	-11.9281
▁humanidad	-11.9281
▁ocasiones	-11.9281
▁bunch	-11.9281
▁desorientado	-11.9281
▁maid	-11.9281
▁cerebro	-11.9281
▁aumentando	-11.9281
▁típico	-11.9281
▁charming	-11.9281
▁embarrassing	-11.9281
▁cuanta	-11.9281
▁roommate	-11.9281
▁apurado	-11.9281
▁shining	-11.9281
▁condenado	-11.9281
▁mantenga	-11.9282
▁reality	-11.9282
▁prometí	-11.9282
▁pardon	-11.9282
▁chores	-11.9282
▁sixty	-11.9282
▁asustada	-11.9282
▁rama	-11.9282
▁charlando	-11.9283
▁leather	-11.9283
▁sufrió	-11.9283
▁guide	-11.9283
▁relieved	-11.9284
▁shape	-11.9284
▁molestando	-11.9285
▁approached	-11.9285
▁compone	-11.9285
▁videojuegos	-11.9285
▁millonario	-11.9285
▁votaron	-11.9285
▁agradecerle	-11.9286
▁camp	-11.9286
▁quejarte	-11.9286
▁conseguiste	-11.9287
▁confiaba	-11.9287
▁absurdo	-11.9287
▁crió	-11.9288
▁ángeles	-11.9288
▁security	-11.9288
▁recovered	-11.9288
▁clothing	-11.9289
▁diseño	-11.9289
▁mueve	-11.9289
▁traído	-11.9289
▁empecemos	-11.9289
▁pudiste	-11.9289
▁rodeado	-11.9289
▁dyed	-11.9291
▁convencerle	-11.9291
▁pianista	-11.9291
▁entrenador	-11.9292
▁anytime	-11.9294
▁descripción	-11.9295
▁evidente	-11.9295
▁sentarte	-11.9295
▁mientas	-11.9296
▁terminamos	-11.9296
▁pensamientos	-11.9296
▁quint	-11.9296
▁memorizar	-11.9296
▁shooting	-11.9296
▁ranch	-11.9296
▁reírme	-11.9297
▁postponed	-11.9297
▁sigamos	-11.9298
▁pasta	-11.93
▁eighty	-11.9301
▁enterrado	-11.9301
▁drawing	-11.9304
▁escuchaste	-11.9304
▁stain	-11.9307
▁helpful	-11.9307
▁fatal	-11.931
▁mentioned	-11.9311
▁mor	-11.9311
▁entenderlo	-11.9311
▁longest	-11.9313
▁pinch	-11.9313
▁oírlo	-11.9313
gas	-11.9314
▁packed	-11.9316
▁gustará	-11.9316
▁enseñarte	-11.9317
▁contarle	-11.9317
▁crown	-11.9318
▁creep	-11.9318
▁vela	-11.9323
▁fooled	-11.9323
▁soñar	-11.9325
gi	-11.9328
▁opiniones	-11.9329
▁tasted	-11.9334
▁entendió	-11.9334
▁direct	-11.9339
▁slapp	-11.934
▁tira	-11.9341
▁rumores	-11.9342
▁accent	-11.9343
▁data	-11.9348
▁llevado	-11.9348
▁escuchas	-11.9351
▁tells	-11.9351
▁ajustar	-11.9351
▁aprovechar	-11.9351
▁welcomed	-11.9356
▁escuchaba	-11.9359
▁pagará	-11.9365
▁tools	-11.9371
▁charle	-11.9371
▁escuches	-11.9372
▁ocurren	-11.9375
▁sobras	-11.9381
▁dial	-11.9382
sos	-11.9383
per	-11.9388
▁molestes	-11.9394
▁mejorando	-11.9394
▁doscient	-11.9398
▁mass	-11.9411
▁candles	-11.9426
▁ab	-11.9431
▁politicians	-11.9437
▁prisioneros	-11.9437
▁encuentres	-11.9437
▁manten	-11.9442
hablas	-11.9443
ling	-11.9443
▁cultural	-11.9448
▁llenos	-11.9449
bré	-11.9488
▁citizens	-11.9488
▁averigua	-11.9489
ka	-11.9513
▁entienden	-11.9532
ué	-11.9532
▁ends	-11.9537
▁sabíamos	-11.9544
▁hambrientos	-11.9546
▁answering	-11.9566
tura	-11.9572
▁arrives	-11.9587
▁burns	-11.9591
▁walls	-11.9594
▁vinieras	-11.9602
▁seize	-11.9606
mu	-11.961
▁pospone	-11.961
▁contiene	-11.9613
ter	-11.9623
▁esperá	-11.9638
▁formal	-11.9639
▁pat	-11.9663
▁tirar	-11.967
▁mental	-11.968
sistió	-11.9683
vete	-11.9698
▁ocult	-11.9707
▁solicit	-11.9711
▁esperes	-11.9715
ric	-11.973
▁supieras	-11.9746
ial	-11.975
▁agrees	-11.976
▁jugu	-11.9765
chó	-11.9766
way	-11.977
▁acabe	-11.9775
▁arrojar	-11.9776
▁sir	-11.978
▁asks	-11.9795
fully	-11.9808
▁bur	-11.9826
▁llamara	-11.9837
▁visitas	-11.9842
▁operar	-11.9844
▁puestos	-11.9846
▁negoci	-11.9862
ki	-11.987
▁weigh	-11.9875
▁aplica	-11.9884
ant	-11.9891
▁admira	-11.9895
▁regresa	-11.9901
▁laughs	-11.9905
▁temas	-11.9905
▁pet	-11.9919
encia	-11.9932
▁juegas	-11.9935
▁idiotas	-11.9944
▁comprara	-11.9945
▁extend	-11.9948
▁quedará	-11.9952
▁volunteer	-11.996
▁paintings	-11.9961
▁ovni	-11.9966
▁andá	-11.9966
▁ufo	-11.9966
▁buildings	-11.9967
▁límite	-11.9974
▁siguen	-11.9974
▁archivo	-11.9975
▁diamante	-11.9975
▁blanket	-11.9975
▁gemelo	-11.998
▁banana	-11.9981
▁araña	-11.9981
▁relative	-11.9981
▁alumno	-11.9981
▁tiger	-11.9982
▁trick	-11.9982
▁pondrá	-11.9984
▁ste	-11.9992
med	-11.9996
▁sheet	-11.9997
▁consiga	-12.0009
put	-12.0012
▁recuerdos	-12.0012
nza	-12.0019
▁becomes	-12.005
▁alas	-12.0054
▁blam	-12.0054
▁oscur	-12.0059
employed	-12.0061
llama	-12.0063
▁industrial	-12.0064
recibi	-12.0065
aún	-12.0072
▁exit	-12.0073
▁image	-12.0074
mira	-12.0075
▁organ	-12.0081
▁labor	-12.0083
zing	-12.009
▁bark	-12.0092
▁absurd	-12.0092
oh	-12.0096
▁surrender	-12.0099
▁pistol	-12.0099
▁accomplish	-12.01
▁defeat	-12.01
▁novelist	-12.0101
▁tercer	-12.0101
aña	-12.0101
▁period	-12.0103
▁graduate	-12.0104
▁acudir	-12.0105
▁potato	-12.0106
▁cuadra	-12.0107
ense	-12.0107
▁incredibl	-12.0108
▁recent	-12.0108
▁happie	-12.0109
▁estupenda	-12.011
▁susurr	-12.0111
▁compro	-12.0111
▁circula	-12.0112
▁rug	-12.0112
▁disneyland	-12.0112
▁apuñaló	-12.0113
▁atmosphere	-12.0113
▁atmósfera	-12.0113
▁bastón	-12.0113
▁cadena	-12.0113
▁coartada	-12.0113
▁cueva	-12.0113
▁curiosity	-12.0113
▁dirige	-12.0113
▁egipto	-12.0113
▁engañado	-12.0113
▁febrero	-12.0113
▁february	-12.0113
▁hagámoslo	-12.0113
▁indispensable	-12.0113
▁invisible	-12.0113
▁jersey	-12.0113
▁juramento	-12.0113
▁koala	-12.0113
▁mahjong	-12.0113
▁maletero	-12.0113
▁muralla	-12.0113
▁obtuve	-12.0113
▁olvidadizo	-12.0113
▁outdoors	-12.0113
▁pacífico	-12.0113
▁perfume	-12.0113
▁plastic	-12.0113
▁pésima	-12.0113
▁raqueta	-12.0113
▁resemblance	-12.0113
▁sacerdote	-12.0113
▁scheme	-12.0113
▁serbia	-12.0113
▁skating	-12.0113
▁solving	-12.0113
▁stiff	-12.0113
▁sucediendo	-12.0113
▁suspicion	-12.0113
▁texas	-12.0113
▁twitter	-12.0113
▁uncomfortable	-12.0113
▁victoria	-12.0113
▁vodka	-12.0113
▁voleibol	-12.0113
▁colección	-12.0113
▁helmet	-12.0113
▁construction	-12.0113
▁hiroshima	-12.0113
▁impresionante	-12.0113
▁risa	-12.0113
▁spoon	-12.0113
▁enojó	-12.0113
▁noventa	-12.0113
▁surgery	-12.0113
▁essay	-12.0113
▁oath	-12.0113
▁registradora	-12.0113
▁textbook	-12.0113
▁despegó	-12.0113
▁hurried	-12.0113
▁siglo	-12.0113
▁forzado	-12.0113
▁pollera	-12.0113
▁región	-12.0113
▁steak	-12.0113
▁perdida	-12.0113
▁assistance	-12.0113
▁traducción	-12.0113
▁teresa	-12.0113
rubbed	-12.0113
▁creciendo	-12.0113
▁kong	-12.0113
▁viniendo	-12.0113
▁possibly	-12.0113
▁tries	-12.0113
▁fumo	-12.0113
▁queráis	-12.0113
▁detallada	-12.0113
▁condujera	-12.0113
▁empeorar	-12.0113
▁production	-12.0113
▁chef	-12.0113
▁prometiste	-12.0113
▁aggressive	-12.0113
▁comenzando	-12.0113
▁marzo	-12.0113
▁presentimiento	-12.0113
▁jarra	-12.0113
▁fried	-12.0113
▁pobreza	-12.0113
▁modales	-12.0113
▁downtown	-12.0114
▁gané	-12.0114
▁lloraba	-12.0114
▁latín	-12.0114
▁talkative	-12.0114
▁harp	-12.0114
▁relajado	-12.0114
▁kidnapped	-12.0114
▁hunter	-12.0114
▁tolerate	-12.0114
▁presupuesto	-12.0114
▁retrasado	-12.0115
▁severo	-12.0115
▁tardará	-12.0115
▁contrató	-12.0115
▁secretaria	-12.0115
▁sentimos	-12.0115
▁dawn	-12.0115
▁retiró	-12.0115
▁petición	-12.0115
▁effective	-12.0115
▁previsto	-12.0115
▁postura	-12.0115
▁ceremonia	-12.0116
▁defender	-12.0116
▁aventura	-12.0116
▁plead	-12.0117
▁solid	-12.0117
▁pride	-12.0117
▁fumando	-12.0117
▁cuán	-12.0117
▁conciencia	-12.0119
▁agradecerte	-12.0119
▁sword	-12.0119
▁theft	-12.0119
▁incredible	-12.012
▁horno	-12.012
▁saldrá	-12.012
▁yelling	-12.0121
▁lastimado	-12.0122
▁frontera	-12.0122
gging	-12.0122
▁besando	-12.0122
▁marchar	-12.0123
▁saldr	-12.0123
▁rancho	-12.0123
▁función	-12.0124
▁rollo	-12.0124
▁remote	-12.0125
▁congratulated	-12.0125
▁jar	-12.0126
▁apuntes	-12.0126
▁sándwiches	-12.0127
▁defeated	-12.0128
▁servirá	-12.0128
▁windy	-12.0128
▁frozen	-12.0129
▁collected	-12.013
▁trash	-12.0131
donald	-12.0131
▁install	-12.0131
▁compramos	-12.0132
▁prayed	-12.0132
▁sufre	-12.0133
▁importaba	-12.0134
▁cogieron	-12.0135
▁retirar	-12.0137
▁repairing	-12.0137
omic	-12.0137
▁lavarse	-12.0137
▁practicar	-12.0137
▁pala	-12.0138
▁interrupted	-12.0138
▁buscas	-12.0139
▁planeado	-12.0139
▁repeated	-12.014
▁contenta	-12.0141
▁levantarte	-12.0142
▁bal	-12.0142
▁preguntaré	-12.0142
▁intentaré	-12.0142
▁expenses	-12.0145
▁advanced	-12.0146
▁alike	-12.0147
▁cruza	-12.0148
▁llegaremos	-12.0149
▁remove	-12.0151
▁trabaje	-12.0151
▁pensarlo	-12.0152
▁knocking	-12.0152
▁hamburguesas	-12.0154
▁flea	-12.0155
▁cure	-12.0156
▁vendedor	-12.0158
▁waiter	-12.0159
▁salía	-12.016
▁compraría	-12.016
▁ayudaros	-12.0161
▁landed	-12.0161
▁helpless	-12.0162
▁matarme	-12.0163
▁arrancar	-12.0168
▁shed	-12.0169
▁cantaba	-12.0169
▁dormía	-12.017
▁corona	-12.017
▁consideran	-12.0171
▁ponerlo	-12.0171
▁pronuncia	-12.0174
▁observar	-12.0175
▁entendía	-12.0176
▁estampillas	-12.0178
▁x	-12.018
tan	-12.018
▁sung	-12.0181
▁preguntado	-12.0184
▁counting	-12.0184
▁estaciones	-12.0185
▁litera	-12.0186
▁reconocer	-12.0188
▁británicos	-12.019
▁handy	-12.0191
▁dresses	-12.0193
▁cal	-12.0194
▁manej	-12.0194
▁agradec	-12.0195
▁verás	-12.0196
▁robot	-12.0197
▁rep	-12.0197
▁hablara	-12.0201
▁libres	-12.0203
▁recuperar	-12.0205
▁falló	-12.0206
▁boxes	-12.0213
▁cometí	-12.0213
▁plátanos	-12.0213
▁wan	-12.0217
▁ballenas	-12.0225
▁prob	-12.0227
▁consiste	-12.0228
▁armed	-12.023
▁crecer	-12.023
▁probó	-12.0234
rán	-12.0237
▁skills	-12.0238
dded	-12.0241
▁cops	-12.0256
▁abandona	-12.0259
▁elephants	-12.0261
▁ruedas	-12.0261
tions	-12.0262
▁mislead	-12.0265
▁elefantes	-12.0273
▁comments	-12.0273
▁rested	-12.0276
▁pace	-12.0281
▁pedazos	-12.0284
▁relate	-12.0296
▁ages	-12.0319
▁curtains	-12.032
▁rodillas	-12.032
▁sucios	-12.0321
▁sa	-12.0321
▁inso	-12.0329
▁acto	-12.033
▁criad	-12.0334
▁forgiven	-12.0335
▁adaptar	-12.0342
▁enfrentar	-12.0351
▁ag	-12.0356
▁official	-12.036
▁confund	-12.0361
▁tristes	-12.0364
▁caras	-12.0365
▁antiguas	-12.0368
cen	-12.0383
▁mud	-12.0384
▁discuta	-12.0387
▁tiendas	-12.0396
▁tocado	-12.0397
▁pills	-12.0404
▁aumenta	-12.0406
▁tard	-12.041
▁heridas	-12.0416
alo	-12.0417
▁antiguos	-12.0428
▁persuadir	-12.0432
▁cases	-12.0434
▁numbers	-12.0452
▁pesos	-12.0459
▁phoned	-12.0467
signed	-12.0467
sistencia	-12.047
cking	-12.0472
▁fa	-12.0473
▁bu	-12.048
▁ciertas	-12.0501
▁lawyers	-12.0506
▁abuelos	-12.0517
▁cajas	-12.0521
▁riesgos	-12.0528
▁wasted	-12.0528
▁acusar	-12.0548
▁atrapados	-12.055
▁informar	-12.0553
ice	-12.0553
▁sides	-12.0553
▁confirm	-12.0557
selo	-12.0558
▁arregla	-12.0563
▁arrastr	-12.0568
lic	-12.0569
▁conditions	-12.0582
tic	-12.0585
▁horne	-12.0587
▁abogados	-12.0589
▁dejará	-12.0601
▁habits	-12.0611
▁desperdicia	-12.062
▁rumors	-12.0621
▁spa	-12.064
▁leía	-12.0647
▁faltan	-12.0651
▁bonitos	-12.066
▁aguanta	-12.0662
▁queríamos	-12.0663
ned	-12.0666
0,000	-12.0668
▁bags	-12.0671
ary	-12.0677
▁pu	-12.0678
▁bitte	-12.0681
▁mayo	-12.0701
▁nativos	-12.0709
▁pega	-12.0725
▁saluda	-12.0726
▁andaba	-12.073
▁exception	-12.0738
▁desprecia	-12.0749
▁vení	-12.0759
▁chinos	-12.076
estaba	-12.0763
▁suits	-12.0773
▁rem	-12.0774
▁mereces	-12.0777
▁vivi	-12.0778
via	-12.0783
▁explic	-12.0789
▁needle	-12.079
▁espaldas	-12.0795
▁impos	-12.0797
ship	-12.0797
▁mix	-12.0807
▁mudar	-12.0811
▁causar	-12.0836
▁clave	-12.0851
▁retire	-12.0864
▁skill	-12.0867
▁vitamin	-12.0871
▁económico	-12.0875
▁eléctrico	-12.0875
▁gatito	-12.0875
▁encendida	-12.0875
▁topic	-12.088
▁bump	-12.0881
▁levante	-12.0882
▁cambios	-12.0882
▁distinta	-12.0883
▁kite	-12.0883
▁slice	-12.0883
▁lemon	-12.0885
▁entienda	-12.0885
▁granjero	-12.0886
▁desconocido	-12.0886
▁truco	-12.0886
▁antique	-12.0888
▁tigre	-12.0889
▁explica	-12.0891
▁lines	-12.0893
▁turista	-12.0895
▁vitamina	-12.0898
▁grado	-12.0903
▁bills	-12.0907
▁divid	-12.0915
▁fina	-12.0924
▁moleste	-12.0929
▁déje	-12.0933
▁vigila	-12.0937
▁decí	-12.0939
▁secreta	-12.0955
▁th	-12.0958
sabéis	-12.0967
▁plancha	-12.0969
nna	-12.097
compraste	-12.0973
mañana	-12.0973
ssed	-12.0973
sobre	-12.0974
0,	-12.0977
▁empujó	-12.0979
fe	-12.0979
▁sub	-12.0982
▁registr	-12.0983
▁ancho	-12.0984
▁montó	-12.099
tera	-12.0993
▁enamorados	-12.0995
ándole	-12.0996
▁ol	-12.0998
▁podr	-12.1002
▁deliver	-12.1005
ul	-12.1006
▁repetir	-12.1007
▁llovi	-12.1008
▁squeak	-12.1008
▁develop	-12.1008
▁punish	-12.1009
▁destroy	-12.1009
▁basta	-12.101
▁crawl	-12.1011
▁cheerful	-12.1016
▁bore	-12.1017
▁ligera	-12.1019
▁inmediata	-12.1019
▁engaño	-12.1019
▁reciente	-12.1019
▁aparenta	-12.1021
▁orgullo	-12.1021
▁depart	-12.1022
▁thai	-12.1022
caño	-12.1022
▁acknowledge	-12.1022
▁almuerza	-12.1022
▁awoke	-12.1022
▁bathtub	-12.1022
▁blouse	-12.1022
▁bufanda	-12.1022
▁chalk	-12.1022
▁columbus	-12.1022
▁cordones	-12.1022
▁cállate	-12.1022
▁cómete	-12.1022
▁diablo	-12.1022
▁dieciséis	-12.1022
▁divertimos	-12.1022
▁estricto	-12.1022
▁estropeado	-12.1022
▁estupidez	-12.1022
▁fellow	-12.1022
▁financiera	-12.1022
▁fluidamente	-12.1022
▁graduó	-12.1022
▁greece	-12.1022
▁imágenes	-12.1022
▁insecure	-12.1022
▁intenciones	-12.1022
▁link	-12.1022
▁literature	-12.1022
▁locura	-12.1022
▁lío	-12.1022
▁lógica	-12.1022
▁marrón	-12.1022
▁maíz	-12.1022
▁movió	-12.1022
▁muéstre	-12.1022
▁perezoso	-12.1022
▁positive	-12.1022
▁revenge	-12.1022
▁revolution	-12.1022
▁ritmo	-12.1022
▁récord	-12.1022
▁sanguíneo	-12.1022
▁scotland	-12.1022
▁shoelaces	-12.1022
▁smooth	-12.1022
▁spaghetti	-12.1022
▁starving	-12.1022
▁sueltes	-12.1022
▁tattoo	-12.1022
▁telefónico	-12.1022
▁traitor	-12.1022
▁trousers	-12.1022
▁tunnel	-12.1022
▁término	-12.1022
▁undressing	-12.1022
▁unpleasant	-12.1022
▁victory	-12.1022
▁worries	-12.1022
▁ópera	-12.1022
▁berlin	-12.1022
▁blusa	-12.1022
▁pledge	-12.1022
▁destiny	-12.1022
▁escocia	-12.1022
▁jerk	-12.1022
▁traidor	-12.1022
▁arabic	-12.1022
▁prevenir	-12.1022
▁valentin	-12.1022
▁atractivo	-12.1022
▁morder	-12.1022
▁pausa	-12.1022
▁sixteen	-12.1022
▁apropiado	-12.1022
▁propiedad	-12.1022
▁zumo	-12.1022
▁battery	-12.1022
▁expresión	-12.1022
▁performance	-12.1022
▁temple	-12.1022
▁colón	-12.1022
▁agenda	-12.1022
▁sonrieron	-12.1022
▁aliviado	-12.1022
▁zero	-12.1022
▁comiera	-12.1022
▁necessity	-12.1022
▁túnel	-12.1022
▁bañera	-12.1022
▁cabaña	-12.1022
▁pecho	-12.1022
▁grecia	-12.1022
▁sorprendida	-12.1022
▁construyeron	-12.1022
▁objection	-12.1022
▁supiste	-12.1022
▁swimmer	-12.1022
▁descubrí	-12.1022
▁creature	-12.1022
▁aviso	-12.1022
▁rompí	-12.1022
▁encontraba	-12.1022
▁fluido	-12.1022
▁déjanos	-12.1022
▁tropical	-12.1022
▁cocinera	-12.1022
▁generation	-12.1022
▁scarce	-12.1022
▁complicada	-12.1022
▁whispered	-12.1022
▁genuine	-12.1022
▁dining	-12.1022
▁backyard	-12.1022
▁cavando	-12.1022
▁deportivo	-12.1022
▁pearl	-12.1023
▁numerosa	-12.1023
▁freezing	-12.1023
▁poderoso	-12.1023
▁descuento	-12.1023
▁ministro	-12.1023
▁housework	-12.1023
▁respiración	-12.1023
▁stunning	-12.1023
▁relajarme	-12.1023
▁pura	-12.1023
▁confiado	-12.1023
▁atropellado	-12.1024
▁aplaudió	-12.1024
▁inherit	-12.1024
▁soltó	-12.1024
▁ladrando	-12.1024
▁exploded	-12.1024
▁proposed	-12.1024
▁panic	-12.1024
▁sentarnos	-12.1024
▁arriesgado	-12.1024
▁vidrio	-12.1024
▁pantalla	-12.1024
▁invest	-12.1025
▁despidieron	-12.1025
▁disculparme	-12.1025
▁joyas	-12.1025
▁concentrarme	-12.1025
▁rendirse	-12.1025
▁divirtió	-12.1025
▁arranged	-12.1025
▁nacier	-12.1025
▁pronunciar	-12.1026
▁háblame	-12.1026
▁wow	-12.1026
▁parezca	-12.1027
▁bajé	-12.1027
▁conditioner	-12.1027
▁directly	-12.1027
▁aceptable	-12.1027
▁baking	-12.1028
▁personaje	-12.1028
▁justice	-12.1029
▁declaración	-12.1029
▁careless	-12.103
▁volviste	-12.103
▁praised	-12.103
▁severe	-12.1031
▁regularly	-12.1031
▁chased	-12.1032
▁trade	-12.1032
▁discutimos	-12.1033
▁trace	-12.1033
▁realizó	-12.1034
▁acostarme	-12.1034
▁contenido	-12.1034
▁entrado	-12.1035
▁aprendemos	-12.1035
▁volunteered	-12.1036
▁nave	-12.1036
▁novelista	-12.1036
▁situa	-12.1036
▁póngase	-12.1036
▁click	-12.1037
▁section	-12.1037
van	-12.1038
▁yelled	-12.1038
▁correctamente	-12.1039
▁relacion	-12.1039
▁distracted	-12.1039
▁especialmente	-12.104
▁puertas	-12.104
▁circunstancias	-12.1041
▁jewels	-12.1041
▁kilograms	-12.1041
▁folded	-12.1042
▁coughing	-12.1042
▁suministros	-12.1042
▁resigned	-12.1043
▁mango	-12.1043
done	-12.1043
▁traduce	-12.1044
▁boiled	-12.1044
▁fortunate	-12.1044
▁brilla	-12.1045
▁matches	-12.1045
▁decorate	-12.1045
▁sinking	-12.1046
▁jumping	-12.1047
▁marco	-12.1048
▁aclarar	-12.1052
▁insultó	-12.1052
▁pounds	-12.1054
▁fritas	-12.1054
▁polish	-12.1055
▁dejando	-12.1055
▁besara	-12.1056
▁borrachos	-12.1058
▁ruidosa	-12.106
▁posiblemente	-12.1061
▁fold	-12.1065
▁ku	-12.1065
▁leftovers	-12.1067
▁consequences	-12.1067
▁resfriar	-12.1069
▁ratas	-12.1071
▁coca	-12.1072
▁lleguemos	-12.1072
▁safely	-12.1072
▁escucharlo	-12.1074
rain	-12.1076
▁estante	-12.1077
▁pastillas	-12.1081
▁lightly	-12.1091
aga	-12.1093
▁oíste	-12.1094
▁shortly	-12.1095
▁vegetarianos	-12.1095
▁postal	-12.1096
▁planeaba	-12.1097
▁sudor	-12.1099
▁cuidará	-12.1099
▁shows	-12.1099
▁matarte	-12.1102
▁pluck	-12.1103
▁subí	-12.1109
▁finales	-12.1112
▁stirr	-12.1114
▁escase	-12.112
▁palm	-12.1121
▁sentences	-12.1121
▁aboard	-12.1121
▁protesta	-12.1122
▁veremos	-12.1127
▁asco	-12.1129
itas	-12.113
▁colgar	-12.113
▁unido	-12.1132
cel	-12.1132
▁mina	-12.1139
▁pron	-12.114
▁celebra	-12.1142
▁spiders	-12.1145
▁teenagers	-12.1145
▁vegetarians	-12.1145
▁notes	-12.1148
▁manténga	-12.1152
▁include	-12.116
▁tricks	-12.1171
▁apesta	-12.1171
▁pacientes	-12.1173
▁empezará	-12.1174
▁quedarás	-12.1176
ors	-12.1176
▁llevarlo	-12.1178
ite	-12.1179
▁sab	-12.1179
▁messages	-12.1185
▁seco	-12.119
▁sincere	-12.1192
yeron	-12.1194
▁constante	-12.1196
▁honesta	-12.1198
▁indicar	-12.12
▁felicit	-12.12
▁liberar	-12.1206
▁cepillar	-12.1208
▁conozcas	-12.1211
▁funcione	-12.1217
▁leads	-12.122
▁pot	-12.1223
▁cheques	-12.1224
▁arañas	-12.1227
▁provoc	-12.124
vos	-12.1248
▁rats	-12.1248
▁customs	-12.125
▁hazme	-12.1254
ika	-12.1254
▁cherr	-12.1259
▁fingí	-12.1262
▁pel	-12.1269
▁dejase	-12.127
▁médicos	-12.1271
▁ge	-12.1277
▁damas	-12.1278
▁celebrar	-12.1283
▁z	-12.1293
dad	-12.1299
▁casamos	-12.131
▁inusual	-12.1317
arle	-12.1319
▁doctores	-12.1328
spite	-12.1341
▁lessons	-12.1343
tas	-12.1352
▁meetings	-12.1361
▁temor	-12.1365
▁hábitos	-12.1369
▁funcionan	-12.1373
▁mist	-12.1382
▁ladrar	-12.1399
▁volvía	-12.1403
▁diseases	-12.1409
▁canto	-12.1411
▁corr	-12.1411
sigues	-12.1418
ísima	-12.1421
▁ignora	-12.1424
▁grita	-12.1428
▁criar	-12.1433
▁hombros	-12.1436
▁deberá	-12.1437
▁complains	-12.1454
▁interfere	-12.1459
▁abras	-12.1461
▁comprendi	-12.1461
▁alert	-12.1469
▁convenc	-12.149
▁terremotos	-12.1503
tivo	-12.1508
▁lograr	-12.1522
▁vendrás	-12.1536
▁earthquakes	-12.1543
▁enseñ	-12.1544
▁corn	-12.1547
▁interfer	-12.1554
▁desat	-12.1559
▁blancos	-12.1561
ponlo	-12.1569
▁resolv	-12.1573
ak	-12.1575
▁acompañ	-12.1579
▁soltar	-12.1586
sí	-12.1592
▁suyos	-12.1611
zed	-12.1613
▁incluye	-12.1624
▁políticas	-12.1624
ered	-12.1639
debido	-12.1656
▁hipo	-12.166
▁groups	-12.1665
▁crea	-12.1681
▁pagan	-12.1692
▁satisfechos	-12.1692
▁verdaderos	-12.1692
▁1,000	-12.1694
▁entrega	-12.1696
berg	-12.1698
▁soñado	-12.171
▁bolígrafos	-12.172
▁cortas	-12.1723
illas	-12.1743
come	-12.1749
▁revisa	-12.1751
▁enfada	-12.1754
▁breaks	-12.1763
▁bon	-12.177
▁sl	-12.1773
ie	-12.1781
▁unió	-12.1798
cree	-12.1801
▁estudios	-12.1802
▁grupos	-12.1802
ándolo	-12.1802
▁quedas	-12.1806
▁esperanzas	-12.1816
tendrás	-12.1818
▁apoya	-12.1819
▁junta	-12.1819
eando	-12.1825
▁pinturas	-12.1829
▁cru	-12.1831
▁produ	-12.1837
▁fac	-12.1848
▁fracasar	-12.1849
▁compensa	-12.1854
▁wrap	-12.1856
cas	-12.1859
▁gum	-12.186
▁bra	-12.1862
iéramos	-12.1865
▁casé	-12.1868
▁flecha	-12.1875
▁vegetarian	-12.1876
cal	-12.1876
day	-12.1878
▁ensayo	-12.1878
▁navideña	-12.1879
▁score	-12.1879
▁effect	-12.1881
▁oveja	-12.1881
▁camello	-12.1885
▁monkey	-12.1885
▁engineer	-12.1886
▁beginner	-12.1886
▁separado	-12.1887
▁spider	-12.1887
▁teenager	-12.1887
▁ballena	-12.1887
▁adolescente	-12.1888
▁sana	-12.1891
preferirías	-12.1897
▁zapato	-12.1898
▁captur	-12.1898
▁sobra	-12.1903
▁warning	-12.1905
ster	-12.1906
▁horn	-12.1912
▁rebel	-12.1921
tled	-12.1929
ally	-12.1932
nged	-12.1933
ció	-12.1933
▁industria	-12.1937
▁palma	-12.1942
▁bloque	-12.1945
▁dig	-12.1947
sion	-12.1948
pressed	-12.1952
▁largos	-12.1961
entendiste	-12.1966
▁hablarte	-12.1968
▁theirs	-12.197
encontraste	-12.1973
ayer	-12.1973
cerró	-12.1973
querría	-12.1973
siempre	-12.1973
nunca	-12.1973
▁verlos	-12.1977
dijo	-12.1981
▁driven	-12.199
land	-12.1994
▁marte	-12.1995
▁app	-12.1999
▁yell	-12.2002
▁guarantee	-12.2004
▁shave	-12.2006
▁congratulate	-12.2006
▁dye	-12.2006
▁fro	-12.2007
▁identif	-12.2008
ártelo	-12.2009
▁chain	-12.2009
▁reserve	-12.2009
▁reveal	-12.2009
▁discover	-12.201
stico	-12.201
▁rechazar	-12.2011
▁jugado	-12.2012
▁ascenso	-12.2013
▁nacional	-12.2014
▁assemble	-12.2015
▁superfici	-12.2015
▁hábil	-12.2019
▁tímida	-12.2019
▁measure	-12.202
▁spy	-12.202
▁compose	-12.202
▁indulge	-12.2021
▁occur	-12.2022
▁minister	-12.2022
▁natal	-12.2022
ustria	-12.2022
▁aficionado	-12.2022
▁agresivo	-12.2022
▁alivio	-12.2022
▁almacén	-12.2022
▁amateur	-12.2022
▁appropriate	-12.2022
▁architect	-12.2022
▁argentina	-12.2022
▁arquitecto	-12.2022
▁asqueroso	-12.2022
▁aviones	-12.2022
▁barefoot	-12.2022
▁blog	-12.2022
▁bloom	-12.2022
▁brazilian	-12.2022
▁buzón	-12.2022
▁cariño	-12.2022
▁castaño	-12.2022
▁catholic	-12.2022
▁century	-12.2022
▁ceremony	-12.2022
▁champion	-12.2022
▁chemical	-12.2022
▁chopin	-12.2022
▁cicatriz	-12.2022
▁closing	-12.2022
▁commercial	-12.2022
▁conocida	-12.2022
▁curioso	-12.2022
▁darwin	-12.2022
▁declared	-12.2022
▁desafortunado	-12.2022
▁desafío	-12.2022
▁dismissed	-12.2022
▁disney	-12.2022
▁dáselo	-12.2022
▁encienda	-12.2022
▁engagement	-12.2022
▁envidia	-12.2022
▁envidio	-12.2022
▁estacionamiento	-12.2022
▁etiqueta	-12.2022
▁female	-12.2022
▁filosofía	-12.2022
▁fotógrafo	-12.2022
▁gambling	-12.2022
▁generoso	-12.2022
▁globo	-12.2022
▁grandparents	-12.2022
▁hangover	-12.2022
▁hurricane	-12.2022
▁improving	-12.2022
▁inteligencia	-12.2022
▁interview	-12.2022
▁jesús	-12.2022
▁kanji	-12.2022
▁laundry	-12.2022
▁magnífica	-12.2022
▁malgaste	-12.2022
▁mischievous	-12.2022
▁monroe	-12.2022
▁niñito	-12.2022
▁november	-12.2022
▁okinawa	-12.2022
▁omelet	-12.2022
▁opponent	-12.2022
▁overcoat	-12.2022
▁oysters	-12.2022
▁pacific	-12.2022
▁physical	-12.2022
▁plástico	-12.2022
▁rabia	-12.2022
▁rastro	-12.2022
▁refund	-12.2022
▁reproductor	-12.2022
▁resaca	-12.2022
▁response	-12.2022
▁sapporo	-12.2022
▁semestre	-12.2022
▁shinjuku	-12.2022
▁thunder	-12.2022
▁tractor	-12.2022
▁translator	-12.2022
▁travieso	-12.2022
▁unmarried	-12.2022
▁whining	-12.2022
▁zealand	-12.2022
▁zelanda	-12.2022
▁laguna	-12.2022
▁niego	-12.2022
▁paranoico	-12.2022
▁splash	-12.2022
▁alternative	-12.2022
▁august	-12.2022
▁cachorro	-12.2022
▁contagious	-12.2022
▁plazo	-12.2022
▁promoted	-12.2022
▁revolución	-12.2022
▁shade	-12.2022
▁broad	-12.2022
▁camarero	-12.2022
▁entrevista	-12.2022
▁hágame	-12.2022
▁identical	-12.2022
▁napole	-12.2022
▁escríbeme	-12.2022
▁fluidez	-12.2022
▁identidad	-12.2022
▁paranoid	-12.2022
▁patético	-12.2022
▁plaza	-12.2022
▁receta	-12.2022
▁templo	-12.2022
▁abriera	-12.2022
▁admission	-12.2022
▁biwa	-12.2022
▁claridad	-12.2022
▁slavery	-12.2022
▁trial	-12.2022
▁agrado	-12.2022
▁excursión	-12.2022
▁equipment	-12.2022
▁recipe	-12.2022
▁typewriter	-12.2022
▁gorra	-12.2022
▁grandpa	-12.2022
▁fax	-12.2022
▁asocia	-12.2022
▁mailbox	-12.2022
▁mentirosa	-12.2022
▁strawberries	-12.2022
▁entendieron	-12.2022
▁malgasta	-12.2022
▁western	-12.2022
▁software	-12.2022
▁combine	-12.2022
▁espada	-12.2022
▁espía	-12.2022
▁relief	-12.2022
▁defendant	-12.2022
▁pruébate	-12.2022
▁merezco	-12.2022
▁sympathy	-12.2022
▁flush	-12.2022
▁nevada	-12.2022
▁engordado	-12.2022
▁sintieron	-12.2022
▁assist	-12.2022
▁liberty	-12.2022
▁sufriendo	-12.2022
▁fascinated	-12.2022
▁mask	-12.2022
▁tumor	-12.2022
▁canasta	-12.2022
▁huir	-12.2022
▁privada	-12.2022
▁majority	-12.2022
▁sediento	-12.2022
▁expression	-12.2022
▁simply	-12.2022
▁surgeon	-12.2022
▁factura	-12.2022
▁campus	-12.2022
▁diploma	-12.2022
▁ladies	-12.2022
▁siéntese	-12.2022
▁estudie	-12.2022
▁shovel	-12.2022
▁sentencia	-12.2022
▁crew	-12.2022
▁obligación	-12.2022
▁onions	-12.2022
▁venganza	-12.2023
▁humiliated	-12.2023
▁florero	-12.2023
▁venture	-12.2023
▁frequently	-12.2023
▁reluctantly	-12.2023
▁chatting	-12.2023
▁existencia	-12.2023
▁marina	-12.2023
tazo	-12.2023
▁curry	-12.2023
▁accidentally	-12.2023
▁personalidad	-12.2024
▁baje	-12.2024
▁applauded	-12.2024
▁sentémonos	-12.2024
▁checks	-12.2024
▁adquir	-12.2024
▁terrified	-12.2024
▁tirado	-12.2024
▁observó	-12.2024
▁sobrevivieron	-12.2024
▁balloon	-12.2024
▁photographer	-12.2025
▁mc	-12.2025
▁ilusión	-12.2025
▁apresúrate	-12.2025
▁symbol	-12.2025
▁chest	-12.2025
▁portuguese	-12.2025
▁asustó	-12.2025
▁discovery	-12.2025
▁roy	-12.2025
▁pico	-12.2025
▁ordenada	-12.2026
▁observe	-12.2026
▁hook	-12.2026
▁eché	-12.2026
▁perdonado	-12.2026
▁wandered	-12.2026
▁tomatoes	-12.2026
▁gallo	-12.2027
▁mudarse	-12.2027
▁quejar	-12.2027
▁preguntes	-12.2027
▁cuidadosa	-12.2027
▁pegado	-12.2027
▁approaching	-12.2027
▁entendemos	-12.2028
▁nevará	-12.2028
▁connected	-12.2028
▁suavemente	-12.2028
▁entusiasmado	-12.2028
▁atajo	-12.2028
▁olla	-12.2028
▁sintiendo	-12.2028
▁familiarizado	-12.2029
▁ocurrirá	-12.2029
▁giró	-12.2029
▁impacto	-12.203
▁turtles	-12.203
▁tortured	-12.203
▁pintando	-12.203
ham	-12.203
▁animó	-12.203
▁muerde	-12.203
▁niega	-12.203
▁gradual	-12.203
▁tiza	-12.203
▁invitaste	-12.2031
▁muchísima	-12.2031
▁recado	-12.2032
▁sentate	-12.2032
▁cancelado	-12.2032
▁gano	-12.2032
▁contributed	-12.2033
▁guardado	-12.2033
▁atravesar	-12.2033
▁traditional	-12.2034
▁offended	-12.2034
▁carrots	-12.2034
▁revealed	-12.2034
▁struggled	-12.2034
▁habilidades	-12.2035
▁angeles	-12.2035
▁utter	-12.2035
▁leyera	-12.2035
▁chewing	-12.2036
▁fracasó	-12.2036
▁escaparon	-12.2037
▁adventure	-12.2037
▁negotiate	-12.2037
▁waved	-12.2037
▁shaved	-12.2037
▁molestarte	-12.2038
▁created	-12.2038
▁despedirme	-12.2038
▁worker	-12.2039
▁señales	-12.2039
▁hopeless	-12.2039
▁risky	-12.2039
▁lastimarte	-12.204
▁pidiera	-12.204
▁tightly	-12.2041
▁adivinar	-12.2041
▁rellenar	-12.2041
▁settled	-12.2043
▁tortugas	-12.2044
▁jesus	-12.2044
▁zanahorias	-12.2044
▁dí	-12.2045
▁hesitated	-12.2045
rió	-12.2046
▁interrupting	-12.2046
▁rompa	-12.2047
▁registro	-12.2047
▁dinos	-12.2048
▁quemé	-12.205
▁ordené	-12.2051
▁hip	-12.2051
▁explicaré	-12.2052
▁útiles	-12.2053
▁preguntarme	-12.2055
▁acerques	-12.2058
▁desmayar	-12.206
▁considerada	-12.206
▁atrev	-12.206
▁culparte	-12.2061
▁tank	-12.2061
▁acceptable	-12.2063
▁parks	-12.2063
▁ordenadores	-12.2064
▁necesité	-12.2064
▁correctly	-12.2066
▁prender	-12.2069
▁pino	-12.2069
▁agente	-12.2071
▁abrazar	-12.2071
▁comparte	-12.2073
▁arrestó	-12.2077
▁dilo	-12.2077
▁georg	-12.2079
babies	-12.2079
▁completed	-12.2083
▁aguarda	-12.2084
▁cantado	-12.2086
▁reca	-12.2087
▁fuertemente	-12.209
▁capa	-12.2093
▁pizzas	-12.2094
▁aid	-12.2095
▁corría	-12.2095
▁corredor	-12.2097
rk	-12.21
▁eligier	-12.21
▁huesos	-12.2101
▁uniforms	-12.2103
▁arruinar	-12.2104
▁mejorado	-12.2104
▁respected	-12.2106
▁nota	-12.2114
▁muevas	-12.2115
▁brakes	-12.2116
▁huellas	-12.2116
▁remarks	-12.2116
▁mueren	-12.2119
▁doors	-12.212
▁nicer	-12.2121
▁delete	-12.2125
▁encantaba	-12.2126
▁bee	-12.2127
▁discute	-12.2129
▁apuros	-12.213
▁smiles	-12.2138
▁hablaste	-12.2139
▁laws	-12.2141
▁affairs	-12.2144
▁insulto	-12.2145
uela	-12.2149
▁buscado	-12.2152
▁contentos	-12.2153
▁equivocas	-12.2155
▁separados	-12.2159
▁beginners	-12.2159
▁acuest	-12.2161
▁owed	-12.2166
▁catching	-12.2166
▁coman	-12.2168
▁manga	-12.2185
▁robots	-12.2188
▁amamos	-12.2191
▁relatives	-12.2194
▁esperen	-12.2195
▁rayos	-12.2203
telo	-12.2211
▁transfer	-12.2216
▁cambies	-12.2217
ncé	-12.2223
▁telephoned	-12.2224
▁duermen	-12.2226
▁ways	-12.2232
▁delito	-12.2236
▁adopta	-12.224
▁policías	-12.2249
▁visito	-12.2249
▁opinions	-12.225
▁drain	-12.2253
▁esperad	-12.2256
tica	-12.2257
ments	-12.2263
▁sneeze	-12.2264
▁divorciar	-12.2283
▁twist	-12.2297
▁confi	-12.2302
▁pedía	-12.2302
▁traslad	-12.2303
▁mejillas	-12.2305
▁deudas	-12.2305
adora	-12.2306
hanging	-12.2324
▁ignor	-12.2331
▁pararon	-12.2332
▁directions	-12.2334
▁guarde	-12.2335
ring	-12.2337
▁taxis	-12.2338
▁escalado	-12.2358
▁cheeks	-12.2364
▁hablaron	-12.2367
▁empeora	-12.2367
▁seconds	-12.2377
▁cerdos	-12.2379
▁oculta	-12.2397
▁ponen	-12.2397
▁oídos	-12.24
▁sow	-12.2421
dores	-12.243
▁rat	-12.2437
▁caros	-12.244
▁celebr	-12.2445
zca	-12.2466
▁billetes	-12.2467
▁verse	-12.2473
▁estúpidos	-12.2479
▁servicios	-12.2483
arlo	-12.2483
▁ventas	-12.2498
▁entren	-12.2515
▁encogió	-12.252
▁tomate	-12.2524
▁derrota	-12.2531
▁loses	-12.2537
▁event	-12.2538
▁equivoca	-12.254
▁objetivos	-12.2542
▁shirts	-12.255
▁vacías	-12.2557
▁reforma	-12.2558
▁absorb	-12.256
▁curar	-12.2565
plica	-12.2571
▁oscurecie	-12.259
▁conserva	-12.2597
▁conduces	-12.2602
ador	-12.2612
▁acts	-12.2622
▁exprimi	-12.2623
▁aprenda	-12.2624
▁sweets	-12.2631
nme	-12.2634
shed	-12.264
ating	-12.2642
▁stifle	-12.2644
▁fiestas	-12.2665
▁vet	-12.2665
rg	-12.2681
▁sigues	-12.2687
▁hab	-12.2695
eth	-12.2697
▁dividi	-12.2701
▁líneas	-12.2708
▁critic	-12.2718
▁bodas	-12.2723
▁ricas	-12.2738
▁incendios	-12.2754
▁equivocados	-12.2756
▁sue	-12.2768
rry	-12.2769
▁notable	-12.2774
10,000	-12.2777
▁triunf	-12.2782
▁agarra	-12.2788
cé	-12.2798
▁travels	-12.2826
for	-12.2861
▁orbit	-12.2872
hoy	-12.2887
proxima	-12.2904
▁modera	-12.2925
▁aburre	-12.294
read	-12.2941
▁cur	-12.2942
▁escuche	-12.2948
conoce	-12.2953
arios	-12.2954
▁respects	-12.2956
tendió	-12.2966
liz	-12.2978
▁conclusion	-12.2979
▁paisaje	-12.2986
▁nieto	-12.2986
▁cubo	-12.2986
▁huérfano	-12.2987
▁inglesa	-12.299
▁mosca	-12.299
▁ingeniero	-12.2993
▁vehículo	-12.2993
▁abeja	-12.2994
todo	-12.2994
▁víctima	-12.2996
▁affair	-12.2997
▁cloud	-12.2998
▁plátano	-12.2998
▁pierda	-12.3
▁supplie	-12.3
▁degree	-12.3001
▁ingreso	-12.3002
car	-12.3002
▁customer	-12.3002
▁vegetable	-12.3003
ders	-12.3007
▁postul	-12.301
▁element	-12.3011
▁grade	-12.3011
▁elbow	-12.3016
▁trueno	-12.3027
▁estima	-12.3029
▁diente	-12.3029
▁incorrect	-12.3033
▁asegura	-12.3039
▁nervios	-12.304
▁relativ	-12.3056
▁cepilla	-12.3061
resisti	-12.3068
▁crow	-12.3073
fic	-12.3076
▁fuel	-12.3078
▁traig	-12.3078
terminaste	-12.3082
▁toast	-12.3084
entonces	-12.3084
what	-12.3085
quisiera	-12.3085
cimiento	-12.3086
▁pague	-12.3087
aquí	-12.309
made	-12.309
▁cared	-12.309
▁leas	-12.3091
entiendes	-12.3092
fue	-12.3093
estudias	-12.3093
▁item	-12.3094
cola	-12.3094
▁camel	-12.3095
▁hablará	-12.3101
soy	-12.3103
seguimos	-12.3105
▁horizon	-12.3111
▁afecta	-12.3111
▁maní	-12.3112
▁moments	-12.3112
▁limit	-12.3115
▁recover	-12.3117
▁detén	-12.3118
▁confuse	-12.3119
▁swallow	-12.3119
▁focus	-12.312
▁impact	-12.3121
▁prohíb	-12.3123
▁valid	-12.3124
▁comunicar	-12.3124
▁branch	-12.3125
▁cazador	-12.3125
▁artificial	-12.3126
recieron	-12.3127
▁hog	-12.3128
▁unfortunate	-12.3129
▁immediate	-12.3129
▁mastica	-12.3129
árselo	-12.313
▁threat	-12.3131
▁carbon	-12.3131
▁cigar	-12.3132
▁pulse	-12.3132
▁inclina	-12.3132
▁averig	-12.3132
▁process	-12.3132
▁slip	-12.3133
▁proverb	-12.3133
▁cuelg	-12.3133
▁compliment	-12.3133
▁afterwards	-12.3133
▁amistoso	-12.3133
▁appeal	-12.3133
▁arbusto	-12.3133
▁asignatura	-12.3133
▁attorney	-12.3133
▁atómica	-12.3133
▁autobuses	-12.3133
▁bancarrota	-12.3133
▁berlín	-12.3133
▁cajero	-12.3133
▁campamento	-12.3133
▁carácter	-12.3133
▁cerezo	-12.3133
▁chimney	-12.3133
▁cliff	-12.3133
▁clumsy	-12.3133
▁comunicación	-12.3133
▁concierne	-12.3133
▁conservative	-12.3133
▁demonio	-12.3133
▁desconozco	-12.3133
▁destination	-12.3133
▁dumped	-12.3133
▁elderly	-12.3133
▁equilibrio	-12.3133
▁erigi	-12.3133
▁escándalo	-12.3133
▁espagueti	-12.3133
▁estadística	-12.3133
▁exaggerate	-12.3133
▁expose	-12.3133
▁feroz	-12.3133
▁flauta	-12.3133
▁garlic	-12.3133
▁gossip	-12.3133
▁grammatical	-12.3133
▁idéntico	-12.3133
▁incumbe	-12.3133
▁injusta	-12.3133
▁insensitive	-12.3133
▁intelligence	-12.3133
▁journey	-12.3133
▁kyushu	-12.3133
▁maletín	-12.3133
▁malvado	-12.3133
▁maquillaje	-12.3133
▁mysterious	-12.3133
▁negative	-12.3133
▁nephew	-12.3133
▁niñez	-12.3133
▁ostras	-12.3133
▁overweight	-12.3133
▁peluquería	-12.3133
▁platform	-12.3133
▁pollution	-12.3133
▁postcard	-12.3133
▁privacy	-12.3133
▁propina	-12.3133
▁pruebe	-12.3133
▁práctico	-12.3133
▁pulso	-12.3133
▁póquer	-12.3133
▁quebró	-12.3133
▁satisfactory	-12.3133
▁seatbelt	-12.3133
▁shadow	-12.3133
▁siblings	-12.3133
▁sobrino	-12.3133
▁solitario	-12.3133
▁spinach	-12.3133
▁statistic	-12.3133
▁suegra	-12.3133
▁swept	-12.3133
▁símbolo	-12.3133
▁tatuaje	-12.3133
▁thieves	-12.3133
▁tobillo	-12.3133
▁translating	-12.3133
▁tropas	-12.3133
▁universitaria	-12.3133
▁votó	-12.3133
▁válido	-12.3133
▁workaholic	-12.3133
▁agricultura	-12.3133
▁cease	-12.3133
▁cinta	-12.3133
▁elegí	-12.3133
▁extent	-12.3133
▁hierve	-12.3133
▁pareciera	-12.3133
▁pediste	-12.3133
▁prosper	-12.3133
▁shelter	-12.3133
▁ankle	-12.3133
▁biología	-12.3133
▁manteca	-12.3133
▁parecida	-12.3133
▁profundidad	-12.3133
▁shortcut	-12.3133
▁snack	-12.3133
▁baboon	-12.3133
▁biology	-12.3133
▁bride	-12.3133
▁sneak	-12.3133
▁cerradura	-12.3133
▁crítica	-12.3133
▁toothache	-12.3133
▁democratic	-12.3133
▁pateó	-12.3133
▁diversión	-12.3133
▁eternidad	-12.3133
▁intervino	-12.3133
▁kingdom	-12.3133
▁muriera	-12.3133
▁semester	-12.3133
▁thread	-12.3133
firiendo	-12.3133
▁heaven	-12.3133
▁organization	-12.3133
▁bunk	-12.3133
▁melted	-12.3133
▁clapped	-12.3133
▁podrida	-12.3133
▁profit	-12.3133
▁yawn	-12.3133
▁organización	-12.3133
▁unsure	-12.3133
▁guitarist	-12.3133
▁mentiste	-12.3133
▁perrito	-12.3133
▁philosophy	-12.3133
▁volcán	-12.3133
▁banjo	-12.3133
▁loyal	-12.3133
▁snore	-12.3133
▁llévate	-12.3133
▁generación	-12.3133
ogen	-12.3133
▁beef	-12.3133
▁desesperado	-12.3133
▁cueste	-12.3133
▁recibe	-12.3133
▁seafood	-12.3133
▁direcciones	-12.3133
▁corregi	-12.3133
▁lloro	-12.3133
▁respondido	-12.3133
▁perdóname	-12.3133
▁reconozco	-12.3133
▁download	-12.3133
▁abrazó	-12.3133
▁billion	-12.3133
▁gentle	-12.3133
▁heavier	-12.3133
▁colgando	-12.3133
▁pub	-12.3133
▁hiking	-12.3134
▁esquiando	-12.3134
▁atleta	-12.3134
▁ahorita	-12.3134
▁redacción	-12.3134
▁devastated	-12.3134
▁roca	-12.3134
▁mojada	-12.3134
▁numero	-12.3134
▁descubrimiento	-12.3134
▁puro	-12.3134
▁dolía	-12.3134
▁permitted	-12.3134
▁tornillo	-12.3134
▁dibujó	-12.3134
▁cattle	-12.3134
▁depriv	-12.3134
▁obligation	-12.3134
▁recto	-12.3134
▁sostenía	-12.3134
▁conducido	-12.3134
▁esencial	-12.3134
▁shaking	-12.3134
▁meditando	-12.3134
▁interese	-12.3134
▁azar	-12.3135
▁conclusión	-12.3135
▁doloroso	-12.3135
▁trasero	-12.3135
▁reparado	-12.3135
▁temblaba	-12.3135
▁seventy	-12.3135
▁stingy	-12.3135
▁amarga	-12.3135
▁realista	-12.3135
▁tercio	-12.3135
▁consideration	-12.3135
▁hometown	-12.3135
▁revelar	-12.3135
▁gritando	-12.3136
▁levántate	-12.3136
▁rapidly	-12.3136
▁sacaste	-12.3136
▁turquía	-12.3136
▁fiable	-12.3136
▁doubtful	-12.3136
▁intervened	-12.3136
▁capturado	-12.3136
▁aferr	-12.3136
▁disculparse	-12.3136
▁costoso	-12.3136
▁blank	-12.3136
▁manual	-12.3136
▁cirujano	-12.3136
▁continúe	-12.3136
▁choque	-12.3136
▁grites	-12.3136
▁ahogarse	-12.3136
▁subestimes	-12.3137
▁hervir	-12.3137
▁patada	-12.3137
▁afilado	-12.3137
▁descalzo	-12.3137
▁calentador	-12.3137
▁defensa	-12.3138
▁melod	-12.3138
▁established	-12.3138
▁tumbado	-12.3138
▁atasco	-12.3138
▁severely	-12.3138
▁slower	-12.3139
▁comprando	-12.3139
▁clon	-12.3139
▁bombarde	-12.3139
▁wealthy	-12.314
▁taxista	-12.314
▁coast	-12.314
▁matando	-12.314
▁regañó	-12.314
▁derrotado	-12.314
▁mortal	-12.314
▁regularmente	-12.314
ny	-12.3141
▁suene	-12.3141
▁divertirse	-12.3141
▁former	-12.3141
▁misled	-12.3142
▁deprisa	-12.3142
▁fíj	-12.3142
▁carbono	-12.3142
▁pole	-12.3142
▁arreglado	-12.3143
▁horizonte	-12.3143
▁occupied	-12.3143
▁alejado	-12.3143
▁culparía	-12.3143
▁load	-12.3144
▁apagado	-12.3144
▁spoiled	-12.3144
▁ahogó	-12.3145
▁regresará	-12.3145
▁lavado	-12.3145
▁limited	-12.3146
▁dibujar	-12.3147
▁politely	-12.3148
▁parecé	-12.3148
▁besaron	-12.3148
▁associate	-12.3148
▁confirmed	-12.3148
▁invita	-12.3148
▁apagaron	-12.3149
▁delivered	-12.3149
▁levantaron	-12.3149
▁enseñado	-12.3149
▁desire	-12.315
▁alegrará	-12.315
▁sorbo	-12.315
▁devolveré	-12.315
▁buscamos	-12.315
▁perform	-12.315
▁brillaba	-12.3151
▁regrets	-12.3151
▁slightly	-12.3151
▁soportarlo	-12.3152
▁youngest	-12.3152
▁criminales	-12.3154
▁necesitás	-12.3154
▁blowing	-12.3154
▁disgusted	-12.3155
▁celosa	-12.3155
▁colgado	-12.3156
▁filete	-12.3156
omo	-12.3156
▁rendir	-12.3156
▁demora	-12.3157
▁cenó	-12.3157
▁refieres	-12.3157
▁patatas	-12.3158
▁asiáticos	-12.3158
▁qu	-12.3158
▁acordarme	-12.3159
▁considerable	-12.316
clined	-12.316
▁portón	-12.3161
▁vía	-12.3161
▁satisfactoria	-12.3161
▁culpando	-12.3162
▁posibilidades	-12.3162
▁má	-12.3163
▁referr	-12.3163
▁principales	-12.3166
▁athlete	-12.3166
▁examined	-12.3167
▁behaved	-12.3167
▁copies	-12.3169
▁criticize	-12.3172
▁señaló	-12.3172
▁ruidoso	-12.3173
▁marineros	-12.3174
▁sailors	-12.3174
▁escondidas	-12.3174
▁aliviar	-12.3175
▁interna	-12.3175
▁ruinas	-12.3177
▁organized	-12.3177
▁tubo	-12.3178
ong	-12.3178
ches	-12.3179
▁amaré	-12.3179
▁cerré	-12.3181
▁gire	-12.3182
▁errónea	-12.3182
▁sec	-12.3183
▁tame	-12.3184
▁menores	-12.3184
▁pagaron	-12.3184
▁eve	-12.3186
▁atrae	-12.3186
▁paré	-12.3187
▁prestarme	-12.3187
▁responda	-12.3187
▁terminaste	-12.3188
▁patiently	-12.3189
▁responded	-12.3189
▁palomas	-12.319
▁interrumpas	-12.3191
▁terminaron	-12.3194
▁tooth	-12.3196
▁torn	-12.3198
▁jueguen	-12.3198
▁cruce	-12.3199
▁differently	-12.3199
▁cambiaré	-12.32
▁mow	-12.3204
▁permanece	-12.3205
▁creerle	-12.3205
▁frutos	-12.3206
enzo	-12.3209
▁bebas	-12.321
▁descubre	-12.321
▁mantendrá	-12.321
▁vision	-12.3212
▁tool	-12.3213
▁discussing	-12.3214
▁aceptaría	-12.3216
▁meditar	-12.3219
▁mienten	-12.3222
▁congelado	-12.3224
▁frenos	-12.3225
▁mates	-12.3229
▁landing	-12.3229
▁jugaban	-12.3233
▁vuelves	-12.3233
▁tenista	-12.3235
▁enti	-12.3236
▁mag	-12.3238
▁acababa	-12.324
▁pandas	-12.324
▁weeds	-12.324
▁costear	-12.3247
▁voices	-12.325
▁rec	-12.3259
▁sip	-12.3261
▁hitch	-12.3263
▁escribirle	-12.3264
▁pensás	-12.3267
▁alter	-12.3273
▁visitarte	-12.3285
▁heating	-12.3286
▁monkeys	-12.3287
▁coja	-12.3287
▁logra	-12.3292
▁decís	-12.3303
▁granjeros	-12.3304
▁trucos	-12.3304
▁vitamins	-12.3304
▁antiques	-12.3305
▁vitaminas	-12.3306
▁provocar	-12.3309
▁exceptional	-12.331
▁garantiza	-12.3314
▁pork	-12.3315
lena	-12.3316
pon	-12.3317
fundió	-12.3317
▁sheets	-12.332
▁mall	-12.332
▁weighs	-12.3322
▁usamos	-12.3323
▁sacrifice	-12.3324
term	-12.3336
000	-12.3342
▁dejarme	-12.3342
▁hablen	-12.3343
▁indian	-12.3344
criado	-12.3344
ison	-12.3347
▁sentirá	-12.335
▁ja	-12.3352
▁principiantes	-12.3353
▁farmers	-12.3354
▁abrirá	-12.3363
▁sumo	-12.3366
▁voluntarios	-12.337
cked	-12.3376
▁arresto	-12.3384
▁acos	-12.3386
▁ban	-12.3395
▁consultar	-12.3397
▁oyes	-12.3403
ates	-12.341
▁doctora	-12.3418
▁fingir	-12.3418
▁cobra	-12.3423
▁enamor	-12.3439
▁partidos	-12.3441
▁cómodos	-12.3443
irió	-12.3448
▁sordos	-12.3452
▁medicamentos	-12.3452
▁cabras	-12.3452
istic	-12.3462
▁recog	-12.3462
▁recoge	-12.3466
▁plates	-12.3467
▁demands	-12.3469
▁files	-12.3469
▁freed	-12.3474
▁imports	-12.3476
▁ayudamos	-12.3485
▁youth	-12.3485
▁apresurar	-12.3489
▁weekends	-12.3505
▁harán	-12.3507
▁imagina	-12.3521
▁imitate	-12.3521
▁masa	-12.3522
▁tanque	-12.3529
▁alquila	-12.3539
▁criminals	-12.3552
▁tomates	-12.3553
▁infla	-12.3554
▁peligrosos	-12.3554
▁represent	-12.3556
ities	-12.3558
▁troubles	-12.3561
▁fo	-12.3567
▁suficientes	-12.3573
▁arregle	-12.3591
cre	-12.3596
▁estabais	-12.3597
tus	-12.3605
▁classic	-12.3613
▁du	-12.3616
▁owned	-12.3617
▁extendi	-12.3618
▁boletos	-12.3619
▁ubica	-12.3621
▁vendrías	-12.3622
▁parara	-12.3629
▁hoyo	-12.363
ger	-12.3637
portable	-12.3642
osa	-12.3646
▁afortunados	-12.3652
▁despiérta	-12.3656
▁remembering	-12.3659
▁ésas	-12.3669
▁intentions	-12.3669
▁vari	-12.3676
▁cercanos	-12.3677
meter	-12.3678
▁sucedier	-12.3678
ang	-12.3679
▁bienvenidos	-12.3686
parked	-12.3687
▁mirad	-12.3693
ko	-12.3694
▁remembers	-12.3694
▁demandar	-12.3697
▁absorbe	-12.3709
▁inventar	-12.371
melo	-12.3711
▁pertene	-12.3724
▁reform	-12.3742
▁cuidadosos	-12.3755
▁bro	-12.3758
▁costo	-12.3759
▁skirts	-12.3759
▁copias	-12.3765
▁dormidos	-12.3765
ú	-12.3782
▁camisas	-12.3798
▁acusa	-12.3804
▁gradua	-12.381
▁mars	-12.3812
▁borr	-12.3821
pó	-12.3824
▁bites	-12.3846
▁arriesg	-12.3847
marily	-12.3867
▁expresa	-12.3869
▁estudiara	-12.3875
▁idiots	-12.3892
▁pegar	-12.3907
▁aves	-12.3911
▁esperas	-12.3931
▁humans	-12.3931
▁limpie	-12.3939
▁proporcionar	-12.3944
▁recomiend	-12.3946
▁frases	-12.396
▁reconsider	-12.3971
▁gr	-12.3979
▁admite	-12.3982
▁pele	-12.4003
▁levantas	-12.4009
▁puntos	-12.4021
talo	-12.4041
▁burlar	-12.4045
▁comprendí	-12.4046
▁lata	-12.4046
ix	-12.406
▁irás	-12.4061
dicated	-12.4061
▁fare	-12.4067
▁elevado	-12.4067
▁aparece	-12.4068
▁urge	-12.4077
ático	-12.4091
▁concentr	-12.4117
▁reparti	-12.4137
▁atra	-12.414
deja	-12.4176
primió	-12.4186
▁transmit	-12.4219
▁neumático	-12.4236
▁investment	-12.4236
▁oiga	-12.4236
▁arruinado	-12.4238
▁castigado	-12.4239
▁movimiento	-12.424
▁valioso	-12.424
▁avance	-12.424
▁candidato	-12.424
▁cristiano	-12.4243
▁string	-12.4243
▁blonde	-12.4243
▁distinto	-12.4243
▁christian	-12.4244
▁mascota	-12.4244
▁apuro	-12.4247
▁oreja	-12.4251
▁impress	-12.4252
▁consecuencia	-12.4252
▁verdura	-12.4252
▁pista	-12.4252
▁nube	-12.4253
▁wire	-12.4253
▁sock	-12.4253
rected	-12.4255
rolled	-12.4255
▁pela	-12.4259
▁codo	-12.4259
▁australian	-12.4263
▁pregunt	-12.4266
▁jog	-12.4267
rro	-12.4268
▁docena	-12.4274
omas	-12.4282
▁reuni	-12.4285
▁moderno	-12.4285
illo	-12.4287
▁aprovech	-12.429
▁aprueb	-12.429
espera	-12.4293
▁invento	-12.4297
▁adelanta	-12.431
orge	-12.4319
10.	-12.4327
▁magnet	-12.4327
ona	-12.4329
confident	-12.4333
debo	-12.4333
alguno	-12.4333
déjame	-12.4334
▁agent	-12.4335
pasas	-12.4337
▁combina	-12.434
buen	-12.4344
voy	-12.4345
mbled	-12.4345
▁receiv	-12.4346
▁racist	-12.4354
awa	-12.4356
▁rin	-12.436
▁annoy	-12.436
rich	-12.4363
▁agradecer	-12.4364
▁deceive	-12.4368
estamos	-12.4368
▁spoil	-12.437
▁regar	-12.437
▁offend	-12.437
▁betray	-12.4371
▁cabin	-12.4371
bamos	-12.4371
▁compani	-12.4372
▁fabrica	-12.4375
▁modest	-12.4375
▁chaval	-12.4376
rado	-12.4376
▁implica	-12.4376
▁gene	-12.4376
▁neat	-12.4377
▁accu	-12.4378
▁apropiada	-12.438
▁compete	-12.438
▁plena	-12.4381
▁numb	-12.4381
oru	-12.4381
▁salvado	-12.4381
▁sharpen	-12.4382
hower	-12.4382
▁vietnam	-12.4382
▁inferior	-12.4382
▁knit	-12.4382
▁dinosaur	-12.4383
▁react	-12.4383
▁tendenc	-12.4383
▁differ	-12.4383
▁cacahu	-12.4383
▁aburrimiento	-12.4383
▁alemanes	-12.4383
▁almorcé	-12.4383
▁amistosa	-12.4383
▁aprobación	-12.4383
▁atascado	-12.4383
▁awkward	-12.4383
▁beethoven	-12.4383
▁bikini	-12.4383
▁cadáver	-12.4383
▁cafeteria	-12.4383
▁calcetín	-12.4383
▁camiseta	-12.4383
▁cementerio	-12.4383
▁champú	-12.4383
▁chatarra	-12.4383
▁cintura	-12.4383
▁comprueb	-12.4383
▁conversando	-12.4383
▁cotton	-12.4383
▁crítico	-12.4383
▁cycling	-12.4383
▁december	-12.4383
▁departure	-12.4383
▁despistado	-12.4383
▁destruida	-12.4383
▁diciembre	-12.4383
▁doorknob	-12.4383
▁dutch	-12.4383
▁ecuador	-12.4383
▁einstein	-12.4383
▁enormous	-12.4383
▁esclavitud	-12.4383
▁escuchá	-12.4383
▁exhilarat	-12.4383
▁flies	-12.4383
▁forbidden	-12.4383
▁fractur	-12.4383
▁francamente	-12.4383
▁global	-12.4383
▁gloomy	-12.4383
▁gramatical	-12.4383
▁guiso	-12.4383
▁hamlet	-12.4383
▁haunted	-12.4383
▁hobbies	-12.4383
▁holanda	-12.4383
▁incurable	-12.4383
▁industry	-12.4383
▁irresponsable	-12.4383
▁jarrón	-12.4383
▁jueves	-12.4383
▁juventud	-12.4383
▁lipstick	-12.4383
▁lloré	-12.4383
▁llovía	-12.4383
▁madrid	-12.4383
▁mariposa	-12.4383
▁misunderstood	-12.4383
▁monedero	-12.4383
▁monster	-12.4383
▁monstruo	-12.4383
▁muelle	-12.4383
▁muñeco	-12.4383
▁nagano	-12.4383
▁nagoya	-12.4383
▁narices	-12.4383
▁naughty	-12.4383
▁negativo	-12.4383
▁neglect	-12.4383
▁nixon	-12.4383
▁niñita	-12.4383
▁nocturno	-12.4383
▁noviembre	-12.4383
▁obama	-12.4383
▁origen	-12.4383
▁pathetic	-12.4383
▁peluquero	-12.4383
▁penicil	-12.4383
▁pertenencias	-12.4383
▁pilchas	-12.4383
▁policies	-12.4383
▁probabilidad	-12.4383
▁proceso	-12.4383
▁préstame	-12.4383
▁repisa	-12.4383
▁ribbon	-12.4383
▁ridícula	-12.4383
▁rumbo	-12.4383
▁satellite	-12.4383
▁sauce	-12.4383
▁shark	-12.4383
▁shibuya	-12.4383
▁shinano	-12.4383
▁sidewalk	-12.4383
▁snuggle	-12.4383
▁sobresaliente	-12.4383
▁stroke	-12.4383
▁supply	-12.4383
▁surface	-12.4383
▁testamento	-12.4383
▁thursday	-12.4383
▁titanic	-12.4383
▁tobacco	-12.4383
▁tromb	-12.4383
▁tuviese	-12.4383
▁técnica	-12.4383
▁título	-12.4383
▁uneasy	-12.4383
▁unnecessary	-12.4383
▁valiosa	-12.4383
▁vanidoso	-12.4383
▁vaqueros	-12.4383
▁virtud	-12.4383
▁virtue	-12.4383
▁voces	-12.4383
▁wisdom	-12.4383
▁withdrew	-12.4383
▁automático	-12.4383
▁blink	-12.4383
▁blunt	-12.4383
▁context	-12.4383
▁desnuda	-12.4383
▁diplomática	-12.4383
▁encaja	-12.4383
▁entorno	-12.4383
▁nasty	-12.4383
▁pochoclo	-12.4383
▁sobrina	-12.4383
▁temporal	-12.4383
▁tequila	-12.4383
▁unwilling	-12.4383
▁watermelon	-12.4383
▁automatically	-12.4383
▁confesar	-12.4383
▁contigu	-12.4383
▁culpó	-12.4383
▁cántaros	-12.4383
▁sector	-12.4383
▁waist	-12.4383
▁accurate	-12.4383
▁amenazó	-12.4383
▁delicate	-12.4383
▁explotó	-12.4383
▁hydr	-12.4383
▁palillos	-12.4383
▁apagué	-12.4383
▁jewelry	-12.4383
▁máscara	-12.4383
▁rational	-12.4383
▁recibo	-12.4383
▁rutina	-12.4383
▁basic	-12.4383
▁calculadora	-12.4383
▁northern	-12.4383
▁quote	-12.4383
▁tejiendo	-12.4383
órale	-12.4383
▁nintendo	-12.4383
▁qualified	-12.4383
▁refugiados	-12.4383
▁thailand	-12.4383
▁youtube	-12.4383
▁connection	-12.4383
▁desconcertado	-12.4383
▁enfrí	-12.4383
▁enlace	-12.4383
▁ficción	-12.4383
▁juzgue	-12.4383
▁loving	-12.4383
▁repite	-12.4383
▁setenta	-12.4383
▁steam	-12.4383
▁fiction	-12.4383
▁firewood	-12.4383
▁limón	-12.4383
▁clue	-12.4383
▁griega	-12.4383
▁huracán	-12.4383
▁algodón	-12.4383
▁consciencia	-12.4383
▁creative	-12.4383
▁memories	-12.4383
▁tailandia	-12.4383
▁cayeron	-12.4383
▁dinosaurio	-12.4383
▁tradición	-12.4383
▁versión	-12.4383
▁escondas	-12.4383
▁activa	-12.4383
▁invención	-12.4383
▁natación	-12.4383
▁encontremos	-12.4383
▁partner	-12.4383
▁almorzado	-12.4383
▁community	-12.4383
▁fuéramos	-12.4383
▁formula	-12.4383
▁guitarrista	-12.4383
▁carelessness	-12.4383
▁agosto	-12.4383
▁ocurriendo	-12.4383
▁calculator	-12.4383
▁nacionalidad	-12.4383
▁crane	-12.4383
▁quédese	-12.4383
▁cupboard	-12.4383
▁consciousness	-12.4383
▁knitting	-12.4383
▁parallel	-12.4383
▁sunlight	-12.4383
▁agradecimiento	-12.4383
▁exhibition	-12.4383
▁ballet	-12.4383
▁previous	-12.4383
▁estallar	-12.4383
▁tremble	-12.4383
▁automáticamente	-12.4383
▁curb	-12.4383
▁suertudo	-12.4383
▁salesman	-12.4384
▁govern	-12.4384
▁deadline	-12.4384
▁ipod	-12.4384
▁escondí	-12.4384
▁reap	-12.4384
▁aplicación	-12.4384
▁preocupo	-12.4384
▁somehow	-12.4384
▁existence	-12.4384
▁descuidado	-12.4384
▁instalar	-12.4384
▁murmurando	-12.4384
▁agradecería	-12.4384
▁statement	-12.4384
▁costosa	-12.4384
▁relajarse	-12.4384
▁liado	-12.4384
▁preocupaciones	-12.4384
▁pronunciation	-12.4385
▁arco	-12.4385
▁pulsar	-12.4385
▁tempt	-12.4385
▁espantoso	-12.4385
▁disparado	-12.4385
semeja	-12.4385
▁fundamental	-12.4385
▁critical	-12.4385
▁fracasado	-12.4385
▁prediction	-12.4385
▁elija	-12.4385
▁váyase	-12.4385
▁title	-12.4385
▁cepillo	-12.4385
▁motion	-12.4385
▁chairman	-12.4385
▁disfrazado	-12.4385
▁motivado	-12.4385
▁llamá	-12.4385
▁compass	-12.4385
▁feriado	-12.4386
▁rebelde	-12.4386
▁perlas	-12.4386
▁robé	-12.4386
▁carné	-12.4386
▁disgustado	-12.4386
▁policemen	-12.4386
▁fuss	-12.4386
▁alfabeto	-12.4387
▁bañando	-12.4387
▁flock	-12.4387
▁luchando	-12.4387
▁distingue	-12.4387
▁dental	-12.4387
▁trasera	-12.4387
▁indignado	-12.4387
▁temporary	-12.4387
inició	-12.4387
▁daily	-12.4387
▁poli	-12.4387
▁dependable	-12.4387
dney	-12.4387
▁querrá	-12.4388
▁cardíaco	-12.4388
▁impresionar	-12.4388
▁pues	-12.4388
▁furiosa	-12.4388
stén	-12.4388
▁darkness	-12.4388
▁lamentable	-12.4388
▁ruego	-12.4388
▁version	-12.4389
▁pescando	-12.4389
▁rodeos	-12.4389
▁desprecio	-12.4389
▁fantástico	-12.439
▁ju	-12.439
hablá	-12.439
▁fabricado	-12.4391
legó	-12.4391
▁artificiales	-12.4391
▁mandado	-12.4391
▁viking	-12.4391
▁destinad	-12.4392
▁superficial	-12.4392
▁firmemente	-12.4392
▁confront	-12.4392
▁gay	-12.4392
▁signal	-12.4392
▁lazie	-12.4392
▁makeup	-12.4392
▁print	-12.4393
▁toneladas	-12.4393
▁croa	-12.4393
▁congela	-12.4393
▁ocup	-12.4393
▁gata	-12.4394
▁llámalo	-12.4394
▁costaría	-12.4394
▁feder	-12.4394
▁americana	-12.4394
▁amused	-12.4394
▁duck	-12.4395
▁voyage	-12.4395
▁freak	-12.4395
going	-12.4396
▁ileso	-12.4396
▁periodo	-12.4396
▁abandonaron	-12.4397
▁pensamos	-12.4397
▁logic	-12.4397
▁presté	-12.4397
▁focused	-12.4397
▁exacto	-12.4398
▁corporal	-12.4398
▁tape	-12.4398
▁fastest	-12.4398
▁counter	-12.4398
▁molestado	-12.4399
▁perdonaré	-12.4399
▁caída	-12.4399
▁vámonos	-12.44
▁enfadarse	-12.44
▁exacta	-12.4401
▁violento	-12.4402
▁absurda	-12.4402
▁gray	-12.4402
▁accomplished	-12.4402
▁cuba	-12.4403
▁navegar	-12.4403
▁delgada	-12.4404
▁ruta	-12.4404
▁visitarnos	-12.4404
▁apostar	-12.4405
▁guardaré	-12.4405
▁create	-12.4405
▁presentarme	-12.4405
▁criticized	-12.4405
▁nik	-12.4405
hea	-12.4406
▁pese	-12.4406
▁moverse	-12.4407
▁funcionando	-12.4407
▁flute	-12.4408
▁acostarte	-12.4409
▁niece	-12.4409
▁costado	-12.441
▁visado	-12.441
▁evitarlo	-12.441
▁intentaron	-12.4411
▁racista	-12.4411
bérmelo	-12.4412
▁attic	-12.4412
▁reserved	-12.4412
▁entramos	-12.4413
▁vuelan	-12.4413
▁darker	-12.4414
▁conseguimos	-12.4415
▁pacientemente	-12.4416
▁conflicto	-12.4417
▁creci	-12.4417
▁bay	-12.4417
▁sillón	-12.4417
▁hail	-12.4418
▁mago	-12.4419
isen	-12.442
▁preso	-12.442
▁besarte	-12.4421
vives	-12.4421
▁conocés	-12.4421
▁quedaste	-12.4421
▁mide	-12.4423
▁ironing	-12.4424
▁maintain	-12.4425
▁protegerte	-12.4425
▁salty	-12.4427
▁lifted	-12.4428
▁encontraremos	-12.4429
▁cacahuetes	-12.4429
▁nadador	-12.443
▁cogeré	-12.443
▁comporta	-12.443
▁diferenciar	-12.4431
▁destaca	-12.4431
▁pasteles	-12.4433
▁contradict	-12.4434
▁ganaron	-12.4435
▁eliminar	-12.4435
▁calmado	-12.4436
▁apretar	-12.4438
▁terriblemente	-12.4439
▁farther	-12.4439
▁familiares	-12.444
▁mudo	-12.4442
▁visitamos	-12.4444
▁relaxing	-12.4446
▁sábanas	-12.4448
▁colegas	-12.4448
▁galletitas	-12.4448
▁obeyed	-12.4449
▁usarlo	-12.445
010	-12.4451
▁stays	-12.4452
▁ganamos	-12.4454
▁intercambiar	-12.4455
▁payment	-12.4457
▁strangely	-12.4461
▁gotea	-12.4461
▁seguiré	-12.4462
▁islam	-12.4463
▁llamarlo	-12.4463
▁goma	-12.4463
▁perd	-12.4466
▁terroristas	-12.4467
▁arreglo	-12.4467
▁bridges	-12.4468
▁cuidarte	-12.4469
▁libras	-12.447
▁obedece	-12.4475
▁creés	-12.4477
▁esperaron	-12.4478
▁runner	-12.4481
▁armada	-12.4483
▁recupere	-12.4485
comes	-12.4487
▁ganará	-12.4488
▁dormi	-12.449
▁distraer	-12.449
▁fr	-12.4493
▁ganara	-12.4502
▁disparos	-12.4503
▁hacés	-12.4503
▁parientes	-12.4504
▁bones	-12.4506
▁anti	-12.4509
▁confundid	-12.451
▁pararme	-12.4518
ino	-12.452
▁ayudaron	-12.4523
▁mini	-12.4525
▁vean	-12.4528
▁encontraría	-12.4531
▁cri	-12.4532
▁llamarte	-12.4533
▁rights	-12.4536
▁vini	-12.4539
▁limits	-12.454
▁víctimas	-12.4541
queda	-12.4546
▁empe	-12.4547
cos	-12.4551
▁reported	-12.4556
▁faults	-12.4558
▁ajo	-12.456
▁triple	-12.457
▁enseñe	-12.4571
▁realiza	-12.4576
▁entiendas	-12.4577
▁bob	-12.4596
▁archivos	-12.4597
▁blankets	-12.4597
▁diamantes	-12.4597
▁ganaría	-12.4598
ache	-12.4602
▁aterrizar	-12.4607
▁descansa	-12.4609
▁dejarle	-12.4609
▁deba	-12.4613
▁pigs	-12.4615
▁cables	-12.4616
▁dejamos	-12.4618
▁acompañar	-12.4618
▁fáciles	-12.4619
▁ending	-12.4622
▁aproxima	-12.4625
▁competente	-12.4625
dó	-12.4626
▁vidas	-12.4627
ai	-12.4633
▁goats	-12.4633
▁atrac	-12.4635
▁olvid	-12.4639
▁vuelvan	-12.464
▁marks	-12.4647
▁mensajes	-12.4649
▁varía	-12.4651
▁sabrás	-12.4652
▁vencer	-12.4652
▁mosquitos	-12.4654
▁wa	-12.4655
▁arroj	-12.4657
▁helada	-12.4661
▁mol	-12.4663
▁afueras	-12.4667
▁brains	-12.4672
▁tin	-12.4672
▁ayudase	-12.4691
dico	-12.4692
▁roman	-12.4693
▁pap	-12.4693
▁pelos	-12.4704
▁cuentos	-12.471
▁casara	-12.4711
▁aterroriza	-12.4718
▁hoteles	-12.4721
▁dejad	-12.4729
▁apt	-12.4729
▁forth	-12.4746
▁parecidos	-12.4748
▁disponibles	-12.4748
▁gallinas	-12.4748
nada	-12.4748
▁ayuden	-12.4762
▁cer	-12.4762
▁negociar	-12.4763
▁debts	-12.4765
▁aprendes	-12.477
értelo	-12.4772
devuélveme	-12.4781
▁tube	-12.4794
▁morirá	-12.4794
jones	-12.4801
▁copas	-12.4803
▁actions	-12.4805
▁lé	-12.4806
▁sostiene	-12.4808
▁conseguirá	-12.4808
▁consulta	-12.4827
▁pastor	-12.483
▁mejore	-12.4835
▁serlo	-12.4836
▁produces	-12.4836
▁ships	-12.4837
ríamos	-12.4848
▁costar	-12.4848
▁tocas	-12.4859
▁aspectos	-12.4862
▁condena	-12.4862
▁calcul	-12.4866
aid	-12.4884
▁training	-12.4892
▁kn	-12.4899
▁goals	-12.49
▁interests	-12.4902
▁ache	-12.4917
▁besado	-12.492
▁ordenar	-12.492
▁procur	-12.4924
▁acumul	-12.4928
stó	-12.4943
▁preocupar	-12.4949
▁recort	-12.4972
▁pes	-12.4976
▁abiertos	-12.4978
▁barcos	-12.498
▁patients	-12.498
ight	-12.4995
▁presum	-12.4999
▁castiga	-12.5007
▁echas	-12.5025
▁rooms	-12.5029
▁coste	-12.5034
▁entres	-12.5051
naciones	-12.5054
preció	-12.5062
▁cumpl	-12.5065
▁tr	-12.5068
▁recompensa	-12.5081
▁exige	-12.5084
lin	-12.5086
▁holes	-12.5094
▁casos	-12.51
pagando	-12.5101
▁busque	-12.5101
vando	-12.5101
▁v	-12.5101
▁despe	-12.5104
▁acaban	-12.5106
▁caballeros	-12.5117
▁skip	-12.512
▁pint	-12.5127
▁fondos	-12.5129
▁castigar	-12.5131
▁muñecas	-12.5133
▁opens	-12.5138
▁chup	-12.5139
▁bombs	-12.5143
▁coc	-12.5145
line	-12.515
▁chi	-12.5159
▁remo	-12.5162
tenía	-12.5171
ain	-12.5173
▁exists	-12.5173
▁poné	-12.5175
▁favoritos	-12.5176
▁salva	-12.5179
▁blancas	-12.5192
icked	-12.5194
▁indicate	-12.5199
▁forms	-12.5202
▁porqué	-12.5224
yendo	-12.5227
▁sn	-12.5234
▁esperan	-12.5234
▁representa	-12.5237
▁medias	-12.5238
ondas	-12.5238
▁bol	-12.5243
▁desorden	-12.5248
▁detesta	-12.5258
tely	-12.5259
▁cas	-12.5263
bel	-12.5269
▁mile	-12.5282
ping	-12.529
▁nadaba	-12.5299
▁points	-12.5299
nic	-12.5303
▁intentas	-12.5318
▁escapa	-12.5324
▁cantantes	-12.5331
▁vestidos	-12.5338
▁realiz	-12.534
▁aspir	-12.5343
▁singers	-12.5354
▁formar	-12.5355
▁contesta	-12.5357
▁barri	-12.5363
▁oje	-12.537
▁tomara	-12.5371
▁cerradas	-12.5371
▁raises	-12.5395
▁frances	-12.5405
▁preparados	-12.5411
▁islands	-12.5414
ps	-12.5418
aza	-12.5422
▁tí	-12.5434
▁vendid	-12.5443
▁humillad	-12.5472
▁banks	-12.5473
▁abr	-12.5476
escrib	-12.5504
▁console	-12.5506
ensa	-12.5513
toca	-12.5515
▁desear	-12.5526
itos	-12.5542
▁levantan	-12.5547
▁encarg	-12.5548
▁includ	-12.5554
quis	-12.5557
▁invadi	-12.5571
▁evita	-12.5583
▁enterrar	-12.5596
▁instant	-12.5598
▁remark	-12.5602
desea	-12.561
▁carreras	-12.5612
▁gua	-12.5614
pensá	-12.5617
vendrá	-12.5625
▁unir	-12.5625
▁atender	-12.564
▁arriesga	-12.5643
sador	-12.5645
▁volverás	-12.5646
▁restos	-12.5655
▁cheer	-12.5656
▁permít	-12.5662
▁apuesta	-12.5665
▁capítulo	-12.5665
▁kitten	-12.5665
▁minifalda	-12.5665
▁aliado	-12.5665
▁pendiente	-12.5665
▁crí	-12.5666
▁stir	-12.5667
▁bacteria	-12.5669
▁maravilla	-12.5669
▁recuperará	-12.5669
▁anuncio	-12.567
▁liberado	-12.5671
▁confirmar	-12.5671
▁graciosa	-12.5672
▁lavarropa	-12.5673
▁disparo	-12.5674
▁pariente	-12.5675
▁brake	-12.5676
▁huella	-12.5677
▁mueva	-12.5677
▁transporte	-12.5677
▁británico	-12.5678
▁crop	-12.5678
▁lip	-12.5679
▁peanut	-12.568
▁mueble	-12.5681
▁ayudan	-12.5684
▁panda	-12.5694
▁charges	-12.5696
▁hacé	-12.5697
▁errors	-12.5701
▁pal	-12.5702
▁milla	-12.5713
▁exhibi	-12.5714
▁aprendi	-12.5721
▁sigh	-12.5723
▁sets	-12.5724
▁encontrará	-12.5731
▁irrelevant	-12.5732
▁resfri	-12.5734
▁cojo	-12.5735
rang	-12.5757
▁escabull	-12.5758
ulated	-12.5758
▁marc	-12.5758
ciento	-12.5758
▁corro	-12.5758
flexible	-12.5759
bló	-12.576
successful	-12.5762
podrá	-12.5763
minute	-12.5763
había	-12.5763
quiero	-12.5764
saw	-12.5764
▁temía	-12.5767
▁admiraba	-12.5769
▁supus	-12.577
hola	-12.577
ank	-12.5774
sois	-12.5775
▁instal	-12.5777
▁rellen	-12.5778
estuviste	-12.5778
hablaste	-12.5782
▁investiga	-12.5792
▁abro	-12.5794
juegas	-12.5794
▁involve	-12.5796
▁disguise	-12.5797
▁struggle	-12.5797
▁stress	-12.5798
▁resuelv	-12.5798
▁centr	-12.5802
▁interrumpir	-12.5802
▁compulsiv	-12.5802
▁wink	-12.5802
▁fascina	-12.5802
▁crear	-12.5803
▁mona	-12.5803
▁cristal	-12.5803
▁separar	-12.5803
irás	-12.5803
▁traductor	-12.5804
▁volcano	-12.5805
▁contribute	-12.5805
hand	-12.5805
▁afila	-12.5806
▁indigna	-12.5807
▁necessar	-12.5808
▁adecuada	-12.5809
▁valle	-12.5809
▁chase	-12.5809
▁tomato	-12.5809
cript	-12.581
▁vestir	-12.581
▁gasoline	-12.5811
▁insiste	-12.5811
▁futbol	-12.5811
▁previo	-12.5811
▁significant	-12.5811
▁casual	-12.5811
▁opone	-12.5811
▁calendar	-12.5811
▁ofender	-12.5811
óxido	-12.5811
▁acertijo	-12.5811
▁agriculture	-12.5811
▁alexand	-12.5811
▁ambiente	-12.5811
▁ambition	-12.5811
▁archaeologist	-12.5811
▁arrancó	-12.5811
▁asesinó	-12.5811
▁astronomía	-12.5811
▁attribute	-12.5811
▁babysitter	-12.5811
▁banquero	-12.5811
▁bargain	-12.5811
▁batteries	-12.5811
▁belief	-12.5811
▁benefit	-12.5811
▁bulb	-12.5811
▁calefacción	-12.5811
▁calurosa	-12.5811
▁carpenter	-12.5811
▁catálogo	-12.5811
▁cenizas	-12.5811
▁chantaje	-12.5811
▁cirugía	-12.5811
▁conducción	-12.5811
▁confidencial	-12.5811
▁cradle	-12.5811
▁democracia	-12.5811
▁democracy	-12.5811
▁descartar	-12.5811
▁descifr	-12.5811
▁despierte	-12.5811
▁destruido	-12.5811
▁devuelto	-12.5811
▁dictionaries	-12.5811
▁dishonest	-12.5811
▁divertiste	-12.5811
▁drastic	-12.5811
▁duties	-12.5811
▁efficient	-12.5811
▁elevó	-12.5811
▁embajador	-12.5811
▁encantó	-12.5811
▁encerrado	-12.5811
▁entusiasmo	-12.5811
▁equivoqué	-12.5811
▁errand	-12.5811
▁especie	-12.5811
▁esperándote	-12.5811
▁estrelló	-12.5811
▁estupideces	-12.5811
▁exactitud	-12.5811
▁expliqué	-12.5811
▁fabuloso	-12.5811
▁farmacia	-12.5811
▁fountain	-12.5811
▁fregadero	-12.5811
▁harbor	-12.5811
▁hiciéramos	-12.5811
▁hidrógeno	-12.5811
▁hígado	-12.5811
▁infarto	-12.5811
▁inhabitants	-12.5811
▁injury	-12.5811
▁instinto	-12.5811
▁intenso	-12.5811
▁inversión	-12.5811
▁irresponsible	-12.5811
▁jungle	-12.5811
▁lastimé	-12.5811
▁lechuga	-12.5811
▁magician	-12.5811
▁mammal	-12.5811
▁mankind	-12.5811
▁nacido	-12.5811
▁netherlands	-12.5811
▁nochebuena	-12.5811
▁nocturna	-12.5811
▁padrastro	-12.5811
▁palideció	-12.5811
▁palomitas	-12.5811
▁panadería	-12.5811
▁peculiar	-12.5811
▁perfección	-12.5811
▁pickpocket	-12.5811
▁portugués	-12.5811
▁positivo	-12.5811
▁promising	-12.5811
▁psiquiatra	-12.5811
▁quebrado	-12.5811
▁questionnaire	-12.5811
▁receipt	-12.5811
▁refiero	-12.5811
▁relájate	-12.5811
▁renuncié	-12.5811
▁respetuoso	-12.5811
▁romántica	-12.5811
▁routine	-12.5811
▁rudo	-12.5811
▁satélite	-12.5811
▁signature	-12.5811
▁slim	-12.5811
▁slump	-12.5811
▁sorrow	-12.5811
▁souvenir	-12.5811
▁squirrel	-12.5811
▁stadium	-12.5811
▁stranded	-12.5811
▁stream	-12.5811
▁sunbathing	-12.5811
▁survivor	-12.5811
▁sólida	-12.5811
▁sótano	-12.5811
▁tabla	-12.5811
▁telescope	-12.5811
▁telescopio	-12.5811
▁tournament	-12.5811
▁tripulación	-12.5811
▁troops	-12.5811
▁tropez	-12.5811
▁unattended	-12.5811
▁vacuum	-12.5811
▁valentín	-12.5811
▁veinticinco	-12.5811
▁venecia	-12.5811
▁vergonzoso	-12.5811
▁widow	-12.5811
▁yield	-12.5811
▁accidentalmente	-12.5811
▁apuñala	-12.5811
▁conversamos	-12.5811
▁criticism	-12.5811
▁debiera	-12.5811
▁diligent	-12.5811
▁edge	-12.5811
▁intersection	-12.5811
▁intimida	-12.5811
▁lettuce	-12.5811
▁picó	-12.5811
▁precisa	-12.5811
▁recoja	-12.5811
▁rural	-12.5811
▁sartén	-12.5811
▁satisfacer	-12.5811
▁simpatía	-12.5811
▁spouse	-12.5811
▁torneo	-12.5811
▁blend	-12.5811
▁contagiosa	-12.5811
▁masculine	-12.5811
▁scandal	-12.5811
▁sharing	-12.5811
▁communication	-12.5811
▁proposición	-12.5811
▁repetí	-12.5811
▁representative	-12.5811
▁roast	-12.5811
▁sequía	-12.5811
▁aéreo	-12.5811
▁silenciosamente	-12.5811
▁cuídate	-12.5811
▁folk	-12.5811
▁quédense	-12.5811
▁separó	-12.5811
▁chofer	-12.5811
▁compasión	-12.5811
▁delfines	-12.5811
▁distraído	-12.5811
▁espinacas	-12.5811
▁foul	-12.5811
▁wreck	-12.5811
▁basis	-12.5811
▁quíte	-12.5811
▁specific	-12.5811
▁cooperation	-12.5811
▁estrés	-12.5811
▁estadio	-12.5811
▁dominio	-12.5811
▁doorbell	-12.5811
▁psychiatrist	-12.5811
▁reemplazar	-12.5811
▁diplomatic	-12.5811
▁rompiste	-12.5811
▁termino	-12.5811
▁disputa	-12.5812
▁pecado	-12.5812
▁salmon	-12.5812
rupción	-12.5812
▁britain	-12.5812
▁emoción	-12.5812
▁reflection	-12.5812
▁vestía	-12.5812
▁sacudirse	-12.5812
▁calendario	-12.5812
▁mommy	-12.5812
▁afición	-12.5812
▁cafe	-12.5812
▁calificaciones	-12.5812
▁exceso	-12.5812
▁grueso	-12.5812
▁haciéndolo	-12.5812
▁torpe	-12.5812
▁categoría	-12.5812
▁dispers	-12.5812
▁flojo	-12.5812
▁meditating	-12.5812
▁proverbio	-12.5812
▁huelo	-12.5812
▁interrumpió	-12.5812
▁humid	-12.5812
▁reflexionar	-12.5812
▁entendiera	-12.5812
▁fiddle	-12.5812
▁factories	-12.5812
▁pesimista	-12.5812
▁dudé	-12.5812
▁identificar	-12.5812
▁anteayer	-12.5812
▁bakery	-12.5812
▁cartero	-12.5812
▁objective	-12.5812
▁carcajada	-12.5812
▁secure	-12.5812
▁unbearable	-12.5812
▁temblando	-12.5812
▁nationality	-12.5812
▁disappointment	-12.5812
▁díganme	-12.5812
▁enseñanza	-12.5812
▁villagers	-12.5812
▁handbag	-12.5812
▁accountant	-12.5812
▁pudiéramos	-12.5812
▁rainbow	-12.5812
▁ojeada	-12.5812
▁luckily	-12.5812
▁gravedad	-12.5812
▁regañado	-12.5812
▁function	-12.5812
▁skeptic	-12.5812
▁apresurado	-12.5812
▁hormigas	-12.5812
▁temperamento	-12.5812
▁bombones	-12.5812
▁defectuoso	-12.5812
▁dentífrico	-12.5812
▁aparcado	-12.5812
▁descuido	-12.5812
▁tasty	-12.5812
▁regalado	-12.5812
▁podrido	-12.5812
▁fatter	-12.5812
▁espina	-12.5812
▁reflect	-12.5812
▁pulsera	-12.5812
▁mostrame	-12.5812
▁actuación	-12.5812
▁fulfill	-12.5812
▁realistic	-12.5812
▁alpes	-12.5812
▁perdóneme	-12.5812
▁pronunciación	-12.5812
▁inspired	-12.5813
▁destrozado	-12.5813
▁caramelo	-12.5813
▁opuesto	-12.5813
▁desempleado	-12.5813
▁tóme	-12.5813
▁fíe	-12.5813
▁complacer	-12.5813
▁venice	-12.5813
▁bailarín	-12.5813
▁entregué	-12.5813
▁existir	-12.5813
▁humanity	-12.5813
▁avísame	-12.5813
▁arduamente	-12.5813
▁regardless	-12.5813
▁spin	-12.5813
▁alcoholic	-12.5813
▁frustrado	-12.5813
▁comic	-12.5813
▁vanished	-12.5813
▁gesto	-12.5813
▁airmail	-12.5813
▁contaste	-12.5813
▁passage	-12.5813
▁jardinero	-12.5813
▁cesta	-12.5813
▁cocido	-12.5813
▁caminé	-12.5814
▁gris	-12.5814
bebes	-12.5814
▁dimitir	-12.5814
▁deshonesto	-12.5814
▁maleducado	-12.5814
▁ahogando	-12.5814
▁cockroaches	-12.5814
▁hotter	-12.5814
▁pospondr	-12.5814
▁aventón	-12.5814
▁extraordinario	-12.5814
▁shortage	-12.5814
▁salsa	-12.5814
▁observa	-12.5814
shot	-12.5814
▁sociable	-12.5814
▁graduarse	-12.5814
▁contratado	-12.5815
▁mataste	-12.5815
▁minerales	-12.5815
▁alcance	-12.5815
▁desayuné	-12.5815
▁vigilando	-12.5815
▁fist	-12.5815
▁valley	-12.5815
▁especialidad	-12.5815
▁escondiste	-12.5815
▁compleja	-12.5816
employment	-12.5816
▁vestirse	-12.5816
▁innecesario	-12.5816
▁ligeramente	-12.5816
▁bias	-12.5816
▁educated	-12.5816
▁speechless	-12.5816
▁instantly	-12.5816
▁recovery	-12.5816
▁suelta	-12.5816
▁resfrío	-12.5816
▁súbe	-12.5816
▁estupendamente	-12.5816
▁chile	-12.5817
▁damp	-12.5817
▁recordado	-12.5817
▁obligaron	-12.5817
▁prepárate	-12.5817
▁snowman	-12.5817
▁implicado	-12.5817
▁evitando	-12.5817
▁examinar	-12.5817
▁reímos	-12.5818
▁worthless	-12.5818
▁tender	-12.5818
▁anticipated	-12.5818
▁misteriosa	-12.5818
sterna	-12.5818
▁indefenso	-12.5818
▁traduzca	-12.5819
▁childish	-12.5819
▁barra	-12.5819
▁sickness	-12.5819
▁retirarse	-12.5819
▁fama	-12.582
▁perdonará	-12.582
▁untied	-12.582
▁conquer	-12.582
▁barrer	-12.582
▁sailing	-12.582
▁sucederá	-12.582
▁manejando	-12.582
▁dispararon	-12.582
▁repetirlo	-12.582
▁déjelo	-12.582
▁tiny	-12.5821
▁interferir	-12.5821
▁conocerla	-12.5821
▁nacionales	-12.5822
▁ticking	-12.5822
▁fade	-12.5822
▁entraste	-12.5822
▁wax	-12.5822
▁conveniente	-12.5823
▁decepción	-12.5823
▁intentemos	-12.5823
▁sentís	-12.5823
▁chopsticks	-12.5823
▁villancicos	-12.5823
▁estribos	-12.5823
▁dímelo	-12.5824
▁racional	-12.5824
▁necesitáis	-12.5824
▁secuestrado	-12.5824
▁agitó	-12.5824
▁cl	-12.5824
▁cantemos	-12.5825
▁trajiste	-12.5825
▁orilla	-12.5826
▁spying	-12.5826
▁socio	-12.5827
▁prestada	-12.5827
▁outcome	-12.5828
▁despedirse	-12.5828
▁dna	-12.5829
▁liberal	-12.5829
▁quemando	-12.5829
▁lejano	-12.5829
▁moriría	-12.5829
▁cansando	-12.583
▁dull	-12.583
▁arrestada	-12.583
▁captured	-12.583
▁apunté	-12.5831
▁ripe	-12.5831
▁phrase	-12.5832
▁bandage	-12.5832
▁atraviesa	-12.5832
▁triunfará	-12.5832
prendieron	-12.5832
▁alley	-12.5832
▁abrazo	-12.5832
▁subimos	-12.5832
▁apretado	-12.5832
▁capacidades	-12.5832
▁esconderse	-12.5832
▁competed	-12.5833
▁amigable	-12.5834
gave	-12.5834
▁update	-12.5834
▁barked	-12.5835
▁preparé	-12.5835
▁witnesses	-12.5836
▁reírse	-12.5836
▁gardener	-12.5836
▁alps	-12.5837
cakes	-12.5837
▁fry	-12.5838
▁leíste	-12.5838
▁sandía	-12.5838
▁envío	-12.5839
▁reporter	-12.5839
▁envíame	-12.584
▁paseando	-12.584
▁subieron	-12.584
▁packing	-12.584
▁loaded	-12.5841
▁consideraría	-12.5842
▁amará	-12.5843
▁easter	-12.5843
▁débiles	-12.5843
▁mariscos	-12.5844
▁refugees	-12.5844
▁siembras	-12.5844
▁apoyes	-12.5844
▁shaving	-12.5845
▁sello	-12.5845
▁viajero	-12.5847
ncionado	-12.5848
▁fled	-12.5848
▁reports	-12.5851
▁choke	-12.5851
▁flipp	-12.5851
▁sección	-12.5852
▁exponer	-12.5852
▁mejorará	-12.5853
cidimos	-12.5853
▁cenando	-12.5853
▁limpiado	-12.5855
▁pony	-12.5856
▁permitiré	-12.5856
▁cured	-12.5857
▁inseguro	-12.5857
▁invenci	-12.5859
▁enfrente	-12.5861
▁intentamos	-12.5862
▁flexible	-12.5864
▁disturbed	-12.5864
▁canceló	-12.5865
gar	-12.5865
▁indios	-12.5865
▁muelas	-12.5865
▁hamburgers	-12.5866
▁freezes	-12.5866
▁descubrirá	-12.5866
▁visitantes	-12.5867
▁comparta	-12.5867
wed	-12.5868
▁fasten	-12.5868
▁patas	-12.5868
▁picky	-12.5869
▁italiana	-12.587
▁increased	-12.587
▁ironed	-12.5873
▁stores	-12.5874
▁bate	-12.5875
▁escucharon	-12.5877
▁salada	-12.5879
▁visitarle	-12.5879
▁helados	-12.588
▁planeamos	-12.588
▁terminarlo	-12.5881
▁completar	-12.5882
▁detente	-12.5883
pan	-12.5884
▁lamentar	-12.5885
▁cruzado	-12.5885
cendió	-12.5887
▁boasts	-12.5887
▁stinks	-12.5887
▁cucarachas	-12.5887
▁dolphins	-12.5887
▁asians	-12.5887
▁cultivos	-12.5887
cera	-12.5887
▁planchar	-12.5888
▁travelers	-12.589
▁creerlo	-12.5891
▁pensaría	-12.5891
▁noel	-12.5891
▁poorly	-12.5892
▁irrelevante	-12.5892
▁conducía	-12.5893
▁toser	-12.5893
▁anchor	-12.5893
▁echarme	-12.5894
▁armado	-12.5895
vivieron	-12.5895
▁conocerle	-12.5896
▁examin	-12.5898
▁strongly	-12.5899
pensás	-12.5901
vendrás	-12.5901
▁signs	-12.5902
▁male	-12.5908
▁cebollas	-12.5909
▁colleagues	-12.5909
▁pigeons	-12.5909
▁terrorists	-12.5909
▁employed	-12.5911
▁notó	-12.5912
▁cambiarme	-12.5915
▁gaze	-12.5916
▁calculat	-12.592
▁hum	-12.592
tivos	-12.5924
▁extinct	-12.5925
▁extraordinaria	-12.5927
▁relaje	-12.5928
▁fumes	-12.5929
▁leaks	-12.593
▁sáca	-12.593
▁scraps	-12.593
▁mueras	-12.593
▁prefieren	-12.5932
▁cría	-12.5933
▁flota	-12.5933
▁preguntaría	-12.5934
▁bathing	-12.5939
▁delight	-12.5941
▁puño	-12.5942
▁rías	-12.5942
▁alrededores	-12.5943
cula	-12.5945
▁footing	-12.5946
▁descubra	-12.5947
▁presione	-12.5949
estaría	-12.595
▁cantes	-12.5951
▁lavarropas	-12.5952
▁haríamos	-12.5952
▁dais	-12.5957
hei	-12.5957
▁islas	-12.5962
▁encontrarla	-12.5966
▁seller	-12.5968
▁formed	-12.5968
▁culpado	-12.5969
illos	-12.5969
fit	-12.597
▁mascotas	-12.5974
▁codos	-12.5974
▁docenas	-12.5974
▁spie	-12.5974
▁christians	-12.5978
▁reales	-12.5978
▁abiertas	-12.5983
▁lidiar	-12.5984
▁modernos	-12.5984
▁pisos	-12.5988
▁creerá	-12.5988
▁abejas	-12.5995
ack	-12.6
▁dolores	-12.6003
▁salgan	-12.6005
xed	-12.6006
▁peaceful	-12.6012
▁argumento	-12.6015
▁disfrutan	-12.6016
▁plantar	-12.6016
adores	-12.6021
▁comenzará	-12.6028
▁ping	-12.6032
alizado	-12.6033
▁relojes	-12.6037
▁slices	-12.6039
▁kites	-12.6039
sant	-12.6041
▁gal	-12.6041
irse	-12.6044
▁hablaban	-12.6045
▁union	-12.6049
jaba	-12.6049
▁exceptions	-12.605
▁últimas	-12.6059
▁chu	-12.6061
▁límites	-12.6061
▁cámaras	-12.6061
▁compensar	-12.6062
▁ingresar	-12.6064
▁tierras	-12.6067
▁chocolates	-12.6067
▁pila	-12.6068
▁decida	-12.6077
▁violenta	-12.6078
▁smoked	-12.6078
▁debían	-12.6078
▁boils	-12.6083
▁mejoró	-12.6084
▁economics	-12.6085
▁proven	-12.6092
▁ayudarlos	-12.6094
▁atacar	-12.6094
▁suspendi	-12.6095
▁characters	-12.6105
▁preguntaste	-12.6107
▁ordena	-12.6112
uta	-12.6115
▁cortés	-12.6124
ridad	-12.6129
▁adivine	-12.6129
▁aceptara	-12.6132
▁desp	-12.6138
▁expres	-12.6142
▁cro	-12.6144
vida	-12.6146
▁pesadillas	-12.6149
▁acostumbra	-12.615
▁cometas	-12.6153
▁armar	-12.6154
▁cantan	-12.6154
▁probe	-12.6155
coming	-12.6157
▁favorable	-12.6158
▁ants	-12.616
urged	-12.6161
right	-12.6165
▁compraré	-12.6169
▁envi	-12.6172
▁aparecer	-12.6184
▁enterr	-12.6185
▁za	-12.6186
▁amables	-12.6192
▁guardias	-12.6193
▁oscuras	-12.6196
▁misa	-12.62
▁eater	-12.6201
▁quedate	-12.6202
▁dejaba	-12.6204
▁amado	-12.6212
▁pidas	-12.6212
▁diseñ	-12.6214
her	-12.6215
▁machines	-12.6215
▁ruins	-12.6216
sitting	-12.6221
▁imitar	-12.6222
▁demandas	-12.623
▁consumi	-12.6231
▁decepcione	-12.6233
▁photographs	-12.6237
bieron	-12.6238
▁hatch	-12.6243
▁intent	-12.6246
▁percat	-12.6247
sería	-12.625
mamente	-12.6252
▁regreses	-12.6257
▁aguard	-12.6258
▁obligar	-12.6259
▁cosechas	-12.626
▁extrañas	-12.6263
▁librar	-12.6267
vie	-12.6272
▁veían	-12.6274
▁falt	-12.6276
af	-12.6276
▁pierdes	-12.6282
▁testigos	-12.6282
▁flo	-12.6297
▁tardar	-12.6299
▁comerse	-12.6313
▁expertos	-12.6313
▁confies	-12.6314
▁altas	-12.6316
▁medidas	-12.6327
▁francesas	-12.6329
▁manifestan	-12.6342
▁maravillosas	-12.6344
▁causas	-12.6346
▁recorte	-12.6346
▁questioned	-12.6347
▁apariencias	-12.6349
▁impacientes	-12.6349
▁ro	-12.6357
▁sopla	-12.6362
▁mencionar	-12.6365
▁finja	-12.6371
ju	-12.6384
ana	-12.6392
▁materials	-12.6393
▁recibier	-12.6411
▁pato	-12.6412
▁experts	-12.6415
▁lindos	-12.6417
▁tests	-12.6421
▁desayunas	-12.6429
nzaron	-12.6444
▁veranos	-12.6448
▁hicieran	-12.645
▁decor	-12.6453
▁bo	-12.646
tomas	-12.6461
▁vivirá	-12.6464
▁cam	-12.6469
▁permití	-12.6476
▁ceder	-12.6485
▁sujeta	-12.6488
▁thoughts	-12.6491
imiento	-12.6492
ij	-12.6493
▁tear	-12.6498
tales	-12.6499
worthy	-12.6499
▁pl	-12.6513
▁tag	-12.6516
▁sw	-12.6519
▁shoulders	-12.652
▁cubr	-12.6524
▁bajos	-12.6525
▁quedaras	-12.6526
table	-12.6554
▁pil	-12.656
▁vendrán	-12.6562
▁limpiara	-12.6576
aped	-12.6581
▁encantar	-12.6582
▁pisa	-12.6586
▁fund	-12.6595
cubre	-12.6598
▁artículos	-12.6598
▁dormitorios	-12.6598
irte	-12.6606
▁llenar	-12.6611
▁computadoras	-12.6615
▁choices	-12.6625
uf	-12.6641
lder	-12.6642
▁costumbres	-12.6644
▁arriesgar	-12.6646
▁founded	-12.6662
▁pagas	-12.6663
▁invade	-12.6677
▁peleas	-12.6677
▁nu	-12.668
▁comerla	-12.6684
▁miran	-12.6693
▁dies	-12.6694
riendo	-12.6695
jera	-12.6696
ili	-12.67
▁enamorar	-12.6701
▁corresponde	-12.6702
▁quitas	-12.6704
▁limita	-12.6707
▁consola	-12.671
mina	-12.6712
▁seasons	-12.6713
cito	-12.6717
aremos	-12.6724
▁mejora	-12.6728
▁banne	-12.673
▁renta	-12.6732
▁fábricas	-12.6736
▁corri	-12.6754
▁lana	-12.6755
▁emp	-12.6764
▁hats	-12.677
▁host	-12.677
▁alza	-12.6773
▁dolls	-12.6779
▁écha	-12.6789
gle	-12.6799
▁flights	-12.6806
▁bord	-12.6809
▁award	-12.6812
▁descanse	-12.6812
▁aconseja	-12.6813
idos	-12.6814
▁preste	-12.6816
▁restaurants	-12.682
▁gustos	-12.6829
▁wi	-12.6833
▁lesion	-12.6834
▁trans	-12.6838
▁modos	-12.6855
▁frustrat	-12.6868
▁cerra	-12.6887
▁exercises	-12.6919
▁ch	-12.6923
▁ji	-12.6927
▁recost	-12.6939
▁cantara	-12.694
▁speakers	-12.6943
cena	-12.6945
▁entendi	-12.6945
ap	-12.6945
día	-12.6966
▁raras	-12.697
▁mari	-12.6983
eight	-12.6994
▁provoca	-12.6999
▁escal	-12.6999
érgico	-12.7001
▁reí	-12.7003
▁rings	-12.7014
▁chin	-12.7023
▁reun	-12.7032
ario	-12.7033
▁bells	-12.7033
▁enterar	-12.7046
▁cuestion	-12.705
▁golpea	-12.705
▁propus	-12.7055
▁agit	-12.7056
ivo	-12.7064
▁principios	-12.7065
leading	-12.7085
▁captura	-12.7087
cción	-12.7094
▁fij	-12.7104
▁retrasa	-12.7109
▁regal	-12.7124
▁gi	-12.7128
▁recuper	-12.713
iar	-12.7133
▁mantene	-12.7139
▁ci	-12.7142
▁envejec	-12.7144
▁leap	-12.7146
volverá	-12.7151
tiles	-12.7154
tiva	-12.7154
puso	-12.7157
▁swa	-12.7164
▁conocías	-12.7165
fer	-12.717
▁uniform	-12.7173
seguro	-12.7187
▁pónga	-12.7193
nero	-12.7203
rate	-12.7204
▁portar	-12.7207
acción	-12.721
▁pelotas	-12.7211
▁burla	-12.7212
▁pospus	-12.722
ssured	-12.7221
▁chatte	-12.7228
ddling	-12.7235
▁lees	-12.7238
▁pose	-12.7246
jó	-12.7246
▁odias	-12.725
▁elegi	-12.7251
dir	-12.7265
▁reza	-12.7271
pón	-12.728
▁sudar	-12.7285
light	-12.7286
ence	-12.7286
bul	-12.73
▁felicitar	-12.7303
▁bars	-12.7307
tained	-12.7311
▁serie	-12.7315
▁instrument	-12.7323
▁tratas	-12.7325
▁films	-12.7328
▁fruits	-12.7329
▁comience	-12.7331
▁consulte	-12.7332
▁telefone	-12.7334
▁esclavo	-12.7335
▁ninja	-12.7336
▁lung	-12.7336
▁pein	-12.7336
▁expire	-12.7337
▁channel	-12.7338
▁órgano	-12.7338
▁conduzca	-12.7338
▁candidate	-12.7338
▁brace	-12.7339
iva	-12.734
▁clavo	-12.7341
▁muera	-12.7342
▁acud	-12.7342
▁hueso	-12.7344
▁estampilla	-12.7344
▁wave	-12.7344
▁instrumento	-12.7344
▁labio	-12.7346
▁herramienta	-12.7346
▁option	-12.7346
▁pulga	-12.7346
▁impuesto	-12.7347
▁galleta	-12.7348
▁guest	-12.7349
▁bone	-12.7352
▁european	-12.7353
▁aparc	-12.7353
ended	-12.7354
▁bombero	-12.7354
▁continu	-12.7355
▁vegetariano	-12.7359
▁arranca	-12.7363
▁ahorr	-12.7365
▁freno	-12.7365
▁scrap	-12.7368
▁fume	-12.7377
ged	-12.7378
▁rescat	-12.7381
gué	-12.7385
▁incompetent	-12.7385
▁conform	-12.7385
▁pun	-12.7388
▁kee	-12.7392
▁añadi	-12.7394
▁mezcl	-12.7395
▁leak	-12.7401
▁despreci	-12.7401
▁sentimiento	-12.7401
anda	-12.7402
▁natives	-12.7402
▁urban	-12.7411
▁cobrar	-12.7411
▁relaja	-12.7415
sible	-12.7417
▁tolerar	-12.7418
fashioned	-12.742
creéis	-12.742
▁pensá	-12.7422
room	-12.7424
▁eleva	-12.7425
▁tribu	-12.7425
▁bolsas	-12.7426
conocés	-12.7427
lloverá	-12.7428
down	-12.7428
ayuda	-12.7429
capable	-12.7429
viniste	-12.7429
water	-12.7429
américa	-12.7429
vosotros	-12.743
judge	-12.743
box	-12.743
hiciste	-12.743
ojal	-12.743
together	-12.743
great	-12.743
¡	-12.743
sentimiento	-12.743
ley	-12.7431
comer	-12.7431
▁conflict	-12.7432
▁sueña	-12.7434
▁vuela	-12.7437
hold	-12.744
▁describir	-12.7441
aleja	-12.7442
▁persuadi	-12.7443
▁envía	-12.7445
▁arrogant	-12.7445
▁comedia	-12.7449
▁consent	-12.745
struyó	-12.7451
▁déja	-12.7451
▁elect	-12.7452
▁frighten	-12.7455
▁approach	-12.7456
torio	-12.7459
▁revise	-12.7459
▁fallo	-12.7462
▁cuénta	-12.7463
▁release	-12.7463
▁amuse	-12.7464
▁fiel	-12.7465
▁relie	-12.7466
▁scold	-12.7466
▁desconocid	-12.7467
▁sail	-12.7468
▁appeti	-12.7469
▁espacial	-12.747
▁occidental	-12.747
▁mantel	-12.7471
irme	-12.7471
▁actividad	-12.7471
▁obsolet	-12.7472
▁ronca	-12.7472
▁inund	-12.7473
▁attentive	-12.7473
▁escoge	-12.7474
▁proper	-12.7474
▁pregúnta	-12.7474
▁guilt	-12.7475
▁murmur	-12.7475
▁imprudente	-12.7475
▁quinient	-12.7476
▁enséñ	-12.7476
▁identi	-12.7477
ollywood	-12.7477
▁scienti	-12.7477
▁aboli	-12.7477
icycle	-12.7477
▁ingenio	-12.7478
▁territor	-12.7478
▁consecutiv	-12.7478
▁incorr	-12.7478
oportuno	-12.7478
zhou	-12.7478
ófono	-12.7478
▁acantilado	-12.7478
▁acarici	-12.7478
▁acepté	-12.7478
▁activities	-12.7478
▁ambición	-12.7478
▁amplia	-12.7478
▁aprendizaje	-12.7478
▁astronomy	-12.7478
▁background	-12.7478
▁blackmailed	-12.7478
▁básica	-12.7478
▁cachorrito	-12.7478
▁caigo	-12.7478
▁campesino	-12.7478
▁campeón	-12.7478
▁carpintero	-12.7478
▁carretilla	-12.7478
▁catástrofe	-12.7478
▁cayera	-12.7478
▁celsius	-12.7478
▁chicle	-12.7478
▁circo	-12.7478
▁comandante	-12.7478
▁comestibles	-12.7478
▁compromise	-12.7478
▁comunican	-12.7478
▁comunidad	-12.7478
▁conclude	-12.7478
▁conexión	-12.7478
▁cricket	-12.7478
▁cuenco	-12.7478
▁cuervo	-12.7478
▁cuñado	-12.7478
▁cólera	-12.7478
▁dañó	-12.7478
▁deceased	-12.7478
▁decírtelo	-12.7478
▁derribó	-12.7478
▁desacuerdo	-12.7478
▁descompuesto	-12.7478
▁desilusionado	-12.7478
▁desperdicie	-12.7478
▁despidió	-12.7478
▁detroit	-12.7478
▁devorado	-12.7478
▁diabetic	-12.7478
▁disorder	-12.7478
▁distraiga	-12.7478
▁divierte	-12.7478
▁dreadful	-12.7478
▁dripping	-12.7478
▁duplicado	-12.7478
▁ebriedad	-12.7478
▁eclipse	-12.7478
▁eficaz	-12.7478
▁eficiente	-12.7478
▁eiffel	-12.7478
▁elogió	-12.7478
▁embrujada	-12.7478
▁enthusiasm	-12.7478
▁escéptic	-12.7478
▁escúchame	-12.7478
▁estofado	-12.7478
▁estrecho	-12.7478
▁estresante	-12.7478
▁evacuate	-12.7478
▁eventualmente	-12.7478
▁exceed	-12.7478
▁eyebrows	-12.7478
▁ferrocarril	-12.7478
▁financieros	-12.7478
▁fingerprints	-12.7478
▁flavor	-12.7478
▁giraffe	-12.7478
▁gramática	-12.7478
▁gratuita	-12.7478
▁greedy	-12.7478
▁hairdresser	-12.7478
▁hakone	-12.7478
▁happily	-12.7478
▁helsinki	-12.7478
▁hesitation	-12.7478
▁hiciese	-12.7478
▁himalaya	-12.7478
▁honshu	-12.7478
▁hyogo	-12.7478
▁immature	-12.7478
▁immigrants	-12.7478
▁impolite	-12.7478
▁imponente	-12.7478
▁improvis	-12.7478
▁inaceptable	-12.7478
▁ingleses	-12.7478
▁inmaduro	-12.7478
▁inmigrantes	-12.7478
▁insensible	-12.7478
▁intrigued	-12.7478
▁invasores	-12.7478
▁janeiro	-12.7478
▁jirafa	-12.7478
▁jodiendo	-12.7478
▁jubiló	-12.7478
▁karaoke	-12.7478
▁kennedy	-12.7478
▁knives	-12.7478
▁lemonade	-12.7478
▁liquid	-12.7478
▁llanto	-12.7478
▁medication	-12.7478
▁mercurio	-12.7478
▁mercury	-12.7478
▁mermelada	-12.7478
▁montgomery	-12.7478
▁muerda	-12.7478
▁murciélago	-12.7478
▁mysteries	-12.7478
▁neblina	-12.7478
▁neutral	-12.7478
▁nitrógeno	-12.7478
▁niñera	-12.7478
▁ofendido	-12.7478
▁offensive	-12.7478
▁olfato	-12.7478
▁ordeña	-12.7478
▁orientación	-12.7478
▁otorg	-12.7478
▁overreact	-12.7478
▁pascua	-12.7478
▁patinaje	-12.7478
▁peasant	-12.7478
▁permanezca	-12.7478
▁perspectiva	-12.7478
▁picadura	-12.7478
▁pioneer	-12.7478
▁plagi	-12.7478
▁plague	-12.7478
▁plumber	-12.7478
▁poesía	-12.7478
▁polonia	-12.7478
▁potential	-12.7478
▁privacidad	-12.7478
▁proceed	-12.7478
▁profile	-12.7478
▁protección	-12.7478
▁pulmón	-12.7478
▁quisquilloso	-12.7478
▁racial	-12.7478
▁rascacielo	-12.7478
▁recesión	-12.7478
▁reflejo	-12.7478
▁reggae	-12.7478
▁rehús	-12.7478
▁religious	-12.7478
▁rubber	-12.7478
▁salvavidas	-12.7478
▁sample	-12.7478
▁señas	-12.7478
▁shiegal	-12.7478
▁shikoku	-12.7478
▁sigilosamente	-12.7478
▁singapore	-12.7478
▁singapur	-12.7478
[...]
