<pad>	0
<s>	0
</s>	0
<unk>	0
▁.	-3.33701
▁	-3.56577
을	-3.72955
의	-3.8715
는	-3.90109
은	-4.20659
를	-4.2069
에	-4.2918
이	-4.3911
가	-4.45717
▁,	-4.54885
고	-4.87313
에서	-4.99527
한	-5.08813
로	-5.15672
인	-5.28039
▁이	-5.30603
일	-5.34773
▁그	-5.39591
과	-5.46097
으로	-5.48099
▁있다	-5.58966
▁고	-5.63764
와	-5.63995
도	-5.7114
▁수	-5.71928
할	-5.76428
지	-5.79083
▁밝혔다	-5.83592
▁말했다	-5.85947
했다	-5.90357
하고	-5.90584
년	-5.91959
▁있는	-6.0375
다	-6.06058
하는	-6.08699
▁전	-6.16485
기	-6.17186
▁2	-6.18243
▁1	-6.20567
스	-6.2891
자	-6.31316
해	-6.32136
으며	-6.33361
▁대한	-6.33633
▁위해	-6.35679
만	-6.35988
▁미국	-6.40671
▁이번	-6.41332
월	-6.41414
▁3	-6.42197
▁한	-6.42634
된	-6.43181
나	-6.43802
▁전했다	-6.43835
▁미	-6.44665
리	-6.46044
▁지난	-6.50429
명	-6.52265
▁현지시간	-6.541
▁중	-6.54882
며	-6.60925
▁대해	-6.61327
던	-6.65272
에게	-6.6572
▁며	-6.66071
들은	-6.66518
▁것	-6.68249
▁것으로	-6.6938
s	-6.71921
▁것이라고	-6.74372
▁4	-6.74647
시	-6.74677
▁정부	-6.7491
명이	-6.77023
▁있다고	-6.80926
히	-6.81046
▁5	-6.81336
게	-6.81592
라	-6.81719
▁그러나	-6.83195
▁것을	-6.83645
트	-6.84003
▁6	-6.85381
▁더	-6.85668
사	-6.85871
▁이라크	-6.87362
주	-6.8808
들이	-6.89203
드	-6.9101
하기	-6.91686
▁10	-6.92556
상	-6.93879
▁다른	-6.96811
▁대통령	-6.97672
하게	-6.99246
했	-6.9945
이다	-6.995
운	-6.99555
어	-6.99645
▁주	-7.00308
▁중국	-7.01312
수	-7.01543
▁내	-7.01654
하지	-7.02348
서	-7.03312
적인	-7.03909
▁북한	-7.06508
▁한편	-7.08315
대	-7.08798
▁오바마	-7.10374
▁등	-7.11145
▁또	-7.11485
▁약	-7.11858
▁이라고	-7.12048
▁경찰	-7.13303
르	-7.13782
▁후	-7.14119
세	-7.14424
성	-7.15462
아	-7.16103
▁가	-7.1712
▁총리	-7.17693
지만	-7.18146
명의	-7.18932
▁대변인	-7.19343
▁8	-7.19893
-	-7.20328
▁영국	-7.21449
▁바	-7.2188
했다고	-7.22072
▁7	-7.22593
▁통해	-7.22722
▁우리	-7.22888
▁이후	-7.22925
▁많은	-7.23328
▁위한	-7.2362
▁부시	-7.24105
까지	-7.25184
▁두	-7.25528
▁말	-7.25795
하며	-7.25992
▁한국	-7.26457
▁대통령은	-7.28137
원	-7.28174
됐다	-7.28815
▁가장	-7.29667
▁에	-7.30584
크	-7.3062
▁9	-7.31885
비	-7.32075
될	-7.32339
면	-7.32906
▁동안	-7.32938
▁같은	-7.33241
▁12	-7.33607
▁일	-7.3408
니	-7.34176
▁것이다	-7.34769
부	-7.35565
▁않았다	-7.3565
적	-7.38649
▁11	-7.40842
치	-7.40896
▁알	-7.41215
위	-7.41738
진	-7.42136
소	-7.43492
▁비	-7.44401
▁아	-7.44529
▁있	-7.45058
▁영화	-7.45079
▁세계	-7.45105
거	-7.45734
▁주장했다	-7.45801
▁때	-7.45882
개	-7.46097
▁될	-7.46636
▁현재	-7.4765
▁문제	-7.48655
▁한다	-7.48692
화	-7.48827
▁할	-7.48896
▁지역	-7.49396
▁것은	-7.49401
▁제	-7.49447
▁관련	-7.49476
보	-7.49734
프	-7.50384
▁또한	-7.50523
간	-7.50749
▁조사	-7.51347
▁일부	-7.51393
▁후보	-7.51856
정	-7.52816
하	-7.5289
들을	-7.53168
야	-7.53386
▁오	-7.5343
▁마	-7.53521
▁the	-7.53943
선	-7.54382
▁이상	-7.54529
▁최근	-7.54535
▁s	-7.55243
으나	-7.55595
▁경우	-7.55706
미	-7.55721
▁보도했다	-7.55993
마	-7.56203
▁덧붙였다	-7.56884
및	-7.5714
▁사	-7.57699
당	-7.58323
▁20	-7.58947
▁있었다	-7.5927
▁시	-7.5969
▁경제	-7.60627
▁것이	-7.60783
▁일본	-7.61205
즈	-7.61525
▁자신의	-7.6235
바	-7.62574
했던	-7.62666
▁모든	-7.62812
▁나	-7.62844
▁공격	-7.62938
▁지	-7.63044
전	-7.63304
차	-7.6367
▁미군	-7.63976
▁뒤	-7.6419
▁국가	-7.64256
▁했다	-7.65276
국	-7.66099
▁이들	-7.66201
▁새로	-7.66722
디	-7.6697
▁함께	-7.66977
▁19	-7.67508
▁당시	-7.67523
파	-7.68664
적으로	-7.68955
에는	-7.6901
한다	-7.69208
▁로	-7.69316
▁대	-7.6932
▁라고	-7.69339
▁계획	-7.69469
▁부	-7.70151
장	-7.7055
▁안	-7.70646
조	-7.70659
타	-7.70873
▁그리고	-7.7186
e	-7.7364
러	-7.7376
분	-7.73809
오	-7.74102
d	-7.74763
▁라	-7.75049
▁프랑스	-7.75072
▁파키스탄	-7.75081
▁cnn	-7.75278
▁러시아	-7.75484
▁반	-7.756
었다	-7.75745
하다	-7.75804
▁당국	-7.76268
들	-7.76819
우	-7.76874
▁30	-7.76882
관	-7.76926
레	-7.76982
▁수도	-7.77124
▁계속	-7.77452
해야	-7.77466
▁예정이다	-7.77737
에따르면	-7.77854
▁정	-7.78381
▁처음	-7.78528
▁모두	-7.78898
▁결과	-7.79001
▁설명했다	-7.79013
▁몇	-7.79384
▁to	-7.79445
안	-7.7981
▁있습니다	-7.79851
에서는	-7.80008
제	-7.80037
라고	-7.80467
▁있으며	-7.80611
m	-7.80751
▁거	-7.8101
용	-7.81043
▁사실	-7.81611
▁유엔	-7.81669
▁무	-7.81865
▁하	-7.82508
보다	-7.82753
구	-7.83631
도록	-7.83677
▁아직	-7.84377
▁이스라엘	-7.84406
▁사고	-7.84485
▁조	-7.84703
▁a	-7.8484
▁민주당	-7.84845
여	-7.84954
▁이란	-7.85134
▁없다	-7.85262
카	-7.85722
억	-7.85792
때문에	-7.85859
내	-7.86327
▁자	-7.86487
▁큰	-7.86542
▁불	-7.8683
이라고	-7.86875
▁클린턴	-7.87321
▁신	-7.87991
y	-7.88237
단	-7.88539
▁2005	-7.88862
▁보	-7.89119
려	-7.89232
식	-7.89255
티	-7.8953
▁그녀	-7.90203
▁발표	-7.90478
▁유	-7.90623
모	-7.90889
▁15	-7.91747
▁회담	-7.91836
▁공	-7.92039
▁사건	-7.92492
▁하는	-7.92574
▁지원	-7.92642
▁지난해	-7.92808
브	-7.92896
▁다	-7.93079
▁올해	-7.93132
▁경기	-7.93265
코	-7.93416
▁핵	-7.93463
계	-7.9359
▁않을	-7.93657
▁열린	-7.93973
됐	-7.9411
회	-7.94307
▁대통령이	-7.94553
권	-7.94663
▁기	-7.94723
▁세	-7.94966
c	-7.94981
물	-7.9569
▁달러	-7.9609
▁재	-7.96604
▁테러	-7.96785
▁파	-7.97128
▁여성	-7.97245
▁해	-7.97271
▁이날	-7.98081
실	-7.98651
▁08	-7.9876
▁성명	-7.99065
했습니다	-7.99334
▁상	-7.99486
▁사람들	-7.998
le	-7.99848
질	-7.9992
▁발생한	-8.00291
▁관계자	-8.00439
▁군	-8.00775
노	-8.01512
▁연구	-8.01672
▁카	-8.0186
p	-8.01921
▁선거	-8.02098
▁발표했다	-8.02438
▁결정	-8.02449
되는	-8.02503
였다	-8.02528
▁사람	-8.02601
▁국제	-8.02871
▁모	-8.03093
▁데	-8.03248
▁초	-8.03412
▁16	-8.03636
▁받고	-8.03768
린	-8.03905
산	-8.04121
▁구	-8.04133
▁받았다	-8.0423
▁도	-8.04345
▁장관	-8.04405
▁미국의	-8.04613
시간	-8.04903
▁노	-8.04972
들의	-8.04983
호	-8.05103
▁존	-8.05165
에도	-8.05675
신	-8.06255
▁다시	-8.06476
▁성	-8.07149
▁있을	-8.07467
▁달	-8.07552
u	-8.07563
▁조치	-8.08323
▁of	-8.08442
점	-8.08613
▁된다	-8.08902
▁가운데	-8.09317
▁18	-8.09381
면서	-8.09949
이며	-8.10309
군	-8.10363
였	-8.10522
하면서	-8.10668
이나	-8.10766
하여	-8.10775
▁이라	-8.10858
▁강	-8.11027
직	-8.11128
입니다	-8.11245
▁사람들이	-8.11297
▁방문	-8.11449
길	-8.11881
▁13	-8.11928
▁주요	-8.12322
▁사망했다	-8.12414
▁있었	-8.1244
▁의해	-8.12753
▁2006	-8.13788
▁아프간	-8.13813
▁줄	-8.13815
습니다	-8.13836
토	-8.13846
▁하고	-8.13859
g	-8.13881
▁정부가	-8.13888
▁에서	-8.14065
유	-8.14255
▁양	-8.14405
방	-8.14509
1	-8.14629
들에게	-8.14682
▁총	-8.14907
▁25	-8.14951
부터	-8.14976
▁시위	-8.15283
o	-8.15335
▁첫	-8.15546
▁2008	-8.15609
n	-8.15664
▁w	-8.15958
▁보고	-8.16313
▁승리	-8.16416
▁관계	-8.16529
▁인해	-8.16612
에따라	-8.16922
되고	-8.16943
▁피	-8.17084
▁소	-8.17512
▁대부분	-8.17627
▁인도	-8.17663
▁리	-8.17677
문	-8.17716
▁이에	-8.17764
▁회사	-8.17862
달러	-8.18256
▁비난	-8.18687
▁기자	-8.1908
법	-8.19153
▁14	-8.19231
▁않은	-8.19232
▁간	-8.19246
▁유럽	-8.19729
▁어	-8.19783
학	-8.19935
루	-8.20127
▁차	-8.20155
ing	-8.20165
▁정보	-8.20263
▁채	-8.20319
▁기록	-8.20422
▁아이	-8.20855
피	-8.20961
▁독일	-8.20966
▁50	-8.21077
처럼	-8.21147
▁원	-8.21154
▁예정	-8.21257
하지만	-8.2129
▁탈레반	-8.2136
▁시간	-8.2141
▁됐다	-8.21528
▁활동	-8.21759
▁혐의로	-8.22302
ed	-8.22376
란	-8.22408
▁22	-8.22569
키	-8.22898
▁지금	-8.22997
▁매	-8.23045
터	-8.23269
▁스	-8.2336
▁지지	-8.23391
▁타	-8.23565
▁이미	-8.2358
▁프로그램	-8.23712
되어	-8.23847
▁의원	-8.23947
▁저	-8.23997
▁당	-8.24008
▁대표	-8.24263
▁in	-8.24349
력	-8.24422
동	-8.24445
중	-8.24586
km	-8.24812
▁대선	-8.24962
▁팔레스타인	-8.25317
체	-8.25342
▁호주	-8.25817
감	-8.25847
▁요구	-8.2609
▁뉴욕	-8.26267
무	-8.26301
종	-8.26367
▁감독	-8.2641
번	-8.26673
▁생각	-8.26846
▁tv	-8.26979
▁위치한	-8.27202
al	-8.2721
연	-8.27254
▁인터넷	-8.27535
▁매우	-8.2758
▁개	-8.27599
라는	-8.27612
3	-8.27867
▁우려	-8.27918
▁사망	-8.27985
▁동	-8.28122
함	-8.28157
▁적	-8.28411
▁반대	-8.28454
▁우주	-8.28504
되었다	-8.28555
▁명	-8.29039
심	-8.29181
▁피해	-8.29198
r	-8.29236
2	-8.29435
▁있다는	-8.29737
▁이슬람	-8.29782
더	-8.30021
▁새	-8.3014
▁17	-8.30354
▁매케인	-8.30355
▁투표	-8.30394
석	-8.30459
▁시작	-8.30476
▁잘	-8.30652
▁소속	-8.30736
로부터	-8.30813
▁위	-8.30824
▁없는	-8.30911
er	-8.30922
공	-8.30926
▁?	-8.31072
▁추가	-8.31285
살	-8.3134
▁내용	-8.3141
▁실	-8.31471
위원회	-8.31561
▁전쟁	-8.31946
▁상원의원	-8.32096
▁보도	-8.32473
박	-8.32613
▁방송	-8.3264
▁관리	-8.32966
▁발	-8.33164
경	-8.33262
▁오늘	-8.33427
▁주장	-8.33446
임	-8.33447
▁않고	-8.33658
▁시장	-8.34322
▁한다고	-8.34696
돼	-8.34727
했지만	-8.34856
▁혐의	-8.34866
▁노력	-8.3492
▁조지	-8.35202
난	-8.35215
발	-8.35397
▁물	-8.35508
▁많	-8.3559
포	-8.35732
▁대학	-8.35943
▁코	-8.36179
▁최고	-8.36319
▁협상	-8.36729
되지	-8.36922
들과	-8.3698
재	-8.3698
▁joins	-8.37005
▁어떤	-8.37005
▁합의	-8.37013
b	-8.37076
건	-8.37165
▁24	-8.37195
형	-8.37426
▁차량	-8.37468
▁배	-8.37578
▁지적했다	-8.37636
▁올림픽	-8.37772
▁이용	-8.37959
▁포함	-8.38062
설	-8.38068
버	-8.38124
년간	-8.38201
▁선	-8.38219
▁언론	-8.38593
▁개발	-8.39111
▁정도	-8.39295
츠	-8.39324
행	-8.39395
▁21	-8.39399
▁100	-8.39705
▁원문기사보기	-8.39716
▁포	-8.39942
▁여러	-8.40404
이었다	-8.40406
▁27	-8.40684
됐다고	-8.40735
금	-8.41021
▁입장	-8.41138
▁열	-8.41219
▁부상	-8.41331
▁명의	-8.41405
▁서	-8.41503
측	-8.42015
그	-8.42138
▁점	-8.42198
네	-8.42267
▁자동차	-8.42366
▁23	-8.4242
▁판매	-8.42537
k	-8.42672
▁장	-8.42926
▁외	-8.43132
▁석방	-8.43494
▁단	-8.43531
개월	-8.43632
▁때문	-8.43685
▁없다고	-8.43688
▁40	-8.43779
▁사용	-8.43822
▁날	-8.44096
▁하지	-8.44131
▁산	-8.44241
▁보고서	-8.44494
너	-8.44498
▁않는다	-8.4478
▁받은	-8.44977
▁중단	-8.4521
▁위협	-8.45482
▁단체	-8.45557
▁기술	-8.45663
▁생산	-8.45765
작	-8.4589
▁못했다	-8.46103
t	-8.46172
판	-8.4637
장은	-8.46377
▁인	-8.4641
▁김	-8.46442
워	-8.46629
▁발생했다	-8.46734
요	-8.46856
민	-8.46995
▁2007	-8.47025
▁도시	-8.47029
▁치	-8.47329
▁우	-8.47376
▁호	-8.47847
씨	-8.4804
합니다	-8.48067
▁미얀마	-8.48319
▁폭탄	-8.48322
▁사이	-8.48397
▁의회	-8.48415
▁지도자	-8.48494
▁검찰	-8.48748
▁변화	-8.49227
데	-8.49326
스트	-8.49371
▁오후	-8.49429
▁해결	-8.49535
론	-8.49565
▁연	-8.50126
▁남부	-8.50301
▁살	-8.50564
품	-8.50684
▁볼	-8.5081
▁입	-8.50928
▁26	-8.50946
▁의사	-8.51038
▁평화	-8.5104
개의	-8.51233
▁폭발	-8.51293
자들	-8.5148
▁남자	-8.51514
든	-8.51587
▁않았	-8.51652
▁모습	-8.51657
▁다음	-8.51705
▁연방	-8.51742
된다	-8.51785
▁ap	-8.51829
릴	-8.51942
류	-8.5196
▁북한이	-8.51964
▁경	-8.52418
▁금융	-8.52618
▁정책	-8.52682
▁이어	-8.52727
7	-8.52846
▁안전	-8.52862
속	-8.52898
▁아시아	-8.52937
▁상태	-8.52939
하는데	-8.53158
▁발생	-8.53213
▁힐러리	-8.53589
▁인터뷰에서	-8.53637
▁집	-8.53689
f	-8.54182
교	-8.54188
a	-8.54318
온	-8.54333
▁준비	-8.54468
▁보호	-8.54483
▁병원	-8.54563
▁f	-8.54654
▁지구	-8.54679
▁주지사	-8.54816
▁공화당	-8.54875
는데	-8.55059
했었다	-8.55137
▁현지	-8.55175
▁컴퓨터	-8.5518
▁심	-8.55334
▁앞서	-8.55344
▁앞으로	-8.55542
급	-8.55594
▁있어	-8.55653
▁특	-8.55665
▁치료	-8.55874
▁정치	-8.55879
▁이러	-8.56156
하기로	-8.56228
▁교수	-8.56427
▁백악관	-8.56604
▁갖고	-8.56767
▁건강	-8.56808
▁나는	-8.56848
▁마지막	-8.57263
▁터키	-8.57428
▁여행	-8.57484
▁것에	-8.57605
▁강조했다	-8.57623
5	-8.57736
▁건물	-8.57909
표	-8.58263
▁레	-8.5849
통	-8.58616
▁오전	-8.58629
▁경찰이	-8.58696
▁반군	-8.58724
▁떨어진	-8.58914
▁인쇄	-8.58914
반	-8.58972
강	-8.58985
▁상황	-8.59052
▁가진	-8.59489
▁드	-8.59909
▁확인	-8.60442
▁증가	-8.60716
▁가족	-8.60758
▁논의	-8.60812
▁은행	-8.60866
▁여	-8.60988
▁연기	-8.61222
졌다	-8.61255
▁않	-8.61321
▁비난했다	-8.61371
▁친	-8.61751
▁미국과	-8.61771
▁국민	-8.61879
▁독해	-8.61894
설명	-8.61926
슨	-8.61935
▁29	-8.61946
▁스페인	-8.62055
다고	-8.62115
▁p	-8.62258
▁요청	-8.62304
▁루	-8.62472
▁c	-8.62535
▁납치	-8.62555
▁버락	-8.62558
▁자신이	-8.62804
▁북부	-8.62841
▁규모	-8.62938
배	-8.62992
▁원문	-8.63087
▁28	-8.63153
▁메	-8.63329
▁최대	-8.63357
▁하나	-8.63416
▁된	-8.63458
▁오는	-8.63474
▁맞	-8.63489
▁방	-8.63502
▁행동	-8.63804
▁불법	-8.63847
▁없	-8.64042
▁법	-8.6416
w	-8.64221
▁금지	-8.64221
▁살해	-8.64223
천	-8.64356
병	-8.64718
와의	-8.64811
▁인근	-8.64849
량	-8.64897
▁판결	-8.65053
음	-8.65127
▁지난달	-8.65419
▁행사	-8.65531
▁미국이	-8.65663
▁자금	-8.65873
▁없었다	-8.66103
래	-8.66207
▁손	-8.66431
▁방법	-8.66439
▁h	-8.66439
생	-8.66555
▁이탈리아	-8.66572
으로부터	-8.66577
▁야당	-8.66618
출	-8.66732
6	-8.6687
▁곳	-8.6704
▁자신	-8.672
하자	-8.67213
▁무샤라프	-8.67346
역	-8.67364
▁이를	-8.67405
▁좋은	-8.67424
하도록	-8.67443
▁비행기	-8.67526
▁남	-8.67565
색	-8.67643
▁돈	-8.67644
▁분	-8.67871
았다	-8.67984
번째	-8.68055
▁있지만	-8.68207
▁최소	-8.68323
▁관한	-8.68362
▁서울	-8.68575
▁영향	-8.68581
▁거래	-8.68622
▁for	-8.68872
청	-8.69018
▁지역에서	-8.69124
두	-8.69207
▁투자	-8.69207
져	-8.69214
▁아무	-8.69266
▁막	-8.69393
▁올	-8.69497
▁공개	-8.69588
▁사망자	-8.69653
해서	-8.69731
▁팀	-8.69961
▁발사	-8.69992
▁보인다	-8.69993
처	-8.70007
▁없이	-8.70056
▁베	-8.70057
▁미국은	-8.70121
▁이런	-8.70187
▁주둔	-8.70261
▁상승	-8.70306
지는	-8.70327
▁선수	-8.70379
▁com	-8.70407
▁회장	-8.70625
i	-8.70804
▁공동	-8.70825
메	-8.70939
팀	-8.71172
▁사태	-8.71218
▁이름	-8.71398
▁수사	-8.71416
▁검사	-8.71743
2005	-8.71788
층	-8.71837
▁정치적	-8.71837
l	-8.71885
복	-8.7191
▁d	-8.71931
▁전망	-8.71988
▁미사일	-8.72022
▁전문가들	-8.72075
울	-8.72135
▁공식	-8.72153
저	-8.72166
▁무기	-8.72384
친	-8.72506
▁않다	-8.72811
▁들	-8.72878
▁런던	-8.72908
▁진	-8.73
▁가격	-8.73025
▁교	-8.73143
▁가능성	-8.73203
▁관심	-8.73227
▁만에	-8.73442
▁난	-8.73486
▁출신	-8.73828
▁문	-8.7398
▁동영상	-8.74033
▁애	-8.74168
▁환경	-8.74245
영	-8.74348
▁앞	-8.74441
▁행위	-8.7455
▁이전	-8.74669
▁중요한	-8.74762
▁밤	-8.74963
▁역사	-8.74984
▁감	-8.75037
▁씨	-8.7512
▁만	-8.75572
▁언급	-8.75577
절	-8.75589
▁시위대	-8.75591
▁빌	-8.75596
▁조직	-8.75693
▁artic	-8.75706
▁최초	-8.75714
▁유지	-8.7583
▁인질	-8.75861
날	-8.76047
▁나라	-8.76176
▁보다	-8.76218
▁군사	-8.76364
▁표	-8.76459
▁게임	-8.76573
열	-8.76625
▁페	-8.76699
년에	-8.76794
▁공급	-8.76887
▁위험	-8.77135
▁코리아	-8.77141
▁알카에다	-8.77298
▁알려졌다	-8.77428
▁예	-8.77813
▁박사는	-8.7783
▁현	-8.77858
▁필요	-8.78178
▁용의자	-8.78209
업	-8.78334
▁지방	-8.78381
▁발언	-8.78511
▁남성	-8.78578
▁운동	-8.78633
▁법안	-8.7876
▁000	-8.7914
편	-8.79209
▁성공	-8.79241
▁벌이	-8.7931
런	-8.79323
▁대통령과	-8.79424
▁e	-8.7951
▁돌	-8.7961
▁속	-8.79714
▁바그다드	-8.79768
테	-8.79776
▁60	-8.79977
▁법원	-8.79988
▁사회	-8.80068
▁학교	-8.80145
▁말했습니다	-8.80184
▁병력	-8.80279
▁이야기	-8.80317
회사	-8.80592
▁충돌	-8.80624
탄	-8.8069
▁박	-8.80711
▁기업	-8.80719
▁반면	-8.80796
▁뉴스	-8.80953
▁것입니다	-8.81155
▁담	-8.81197
▁역할	-8.8137
▁폐쇄	-8.81497
▁아버지	-8.81497
▁보안	-8.815
▁사망한	-8.81518
▁범죄	-8.81562
▁아이들	-8.81564
▁변	-8.81569
▁부토	-8.81588
▁통과	-8.8192
or	-8.82124
es	-8.82138
▁고위	-8.82165
▁생	-8.82176
▁진행	-8.82308
▁직접	-8.82397
▁강화	-8.82397
▁인용	-8.8249
▁종	-8.82521
▁까지	-8.82636
▁부족	-8.82681
▁n	-8.82746
▁여부	-8.82807
▁통	-8.82861
시켰다	-8.82983
▁토	-8.82993
▁본	-8.83196
▁사진	-8.83273
▁서비스	-8.83391
▁부인	-8.83488
8	-8.83508
▁대해서	-8.8357
▁독립	-8.83613
하면	-8.83921
▁자신들	-8.83924
▁골	-8.83947
만명	-8.83989
▁보내	-8.84091
한다고	-8.84148
▁우승	-8.84461
증	-8.84548
▁주민들	-8.84617
▁워싱턴	-8.84617
▁b	-8.84642
되었	-8.8466
▁불구하	-8.84768
혀	-8.84829
▁길	-8.84903
▁버	-8.84914
달	-8.84967
▁것이라는	-8.85271
▁자유	-8.85275
▁인정	-8.85283
▁위기	-8.85306
▁들어	-8.85345
정부	-8.85428
▁한나라당	-8.85448
▁높은	-8.85759
▁하마스	-8.8576
각	-8.85804
▁국경	-8.85874
▁상원	-8.85932
마리	-8.8595
▁기간	-8.86055
▁통신	-8.86097
긴	-8.8612
▁헤	-8.86287
▁시도	-8.86349
이라는	-8.8642
시킬	-8.86477
▁감소	-8.8657
▁의하면	-8.86756
▁와	-8.86762
▁지난주	-8.86862
▁야	-8.86881
▁재판	-8.86906
▁하루	-8.86991
사전	-8.86993
▁비행	-8.87041
었	-8.87057
▁의견	-8.87354
▁가능성이	-8.87365
▁강력	-8.87384
초	-8.87659
▁자살	-8.87715
약	-8.87735
▁소식	-8.87739
본	-8.8774
▁확보	-8.8796
▁정상	-8.88074
▁사업	-8.88124
h	-8.88174
▁전화	-8.88175
쳐	-8.88223
하겠다고	-8.88267
▁더욱	-8.88286
▁뜻	-8.88302
▁공항	-8.88521
▁관계자들	-8.88602
▁전체	-8.88677
▁변호사	-8.88886
양	-8.88912
외	-8.88955
▁팔	-8.89012
▁번	-8.8908
▁알고	-8.8909
▁못	-8.89121
▁k	-8.89162
▁신문	-8.89409
▁이제	-8.89532
an	-8.89665
▁것이며	-8.89698
▁호텔	-8.89792
▁왔다	-8.89942
만달러	-8.89981
re	-8.90032
▁2004	-8.90223
▁온	-8.90234
▁re	-8.90387
▁베이징	-8.90489
▁la	-8.90696
▁캘리포니아	-8.90709
▁지역에	-8.91015
▁맥	-8.91118
▁발견	-8.91153
▁구조	-8.91249
▁제안	-8.913
▁특별	-8.91423
차례	-8.91424
▁각	-8.91447
▁마련	-8.91533
립	-8.9158
▁그것	-8.91689
▁아니다	-8.91776
▁주택	-8.91795
▁필요한	-8.91895
▁전에	-8.91953
▁어제	-8.91981
격	-8.92062
▁핵무기	-8.92182
하려	-8.922
▁korea	-8.92841
▁체	-8.92879
▁이와	-8.92933
▁철수	-8.92955
하던	-8.93209
림	-8.93327
▁되는	-8.93488
▁않는	-8.93642
▁체포	-8.93689
세의	-8.93739
▁31	-8.93757
▁결혼	-8.9382
▁번째	-8.93967
료	-8.93989
▁사르코지	-8.94192
▁티베트	-8.94192
▁국회	-8.94277
▁라이스	-8.94297
▁받았	-8.94429
▁예상	-8.94432
▁석유	-8.94533
▁결국	-8.94578
후	-8.94683
▁시작했다	-8.94746
락	-8.95096
▁이유	-8.95131
▁폭탄테러	-8.95134
▁아침	-8.95242
en	-8.95335
▁아프가니스탄	-8.95532
▁관련된	-8.95562
▁증거	-8.95592
▁해외	-8.95597
있는	-8.95643
자가	-8.95807
▁기자회견에서	-8.95838
▁건설	-8.95867
▁콜롬비아	-8.95898
렌	-8.95992
▁국방부	-8.96258
▁걸	-8.96268
▁사람이	-8.96327
▁시신	-8.96375
투	-8.96566
년대	-8.96804
▁항	-8.96833
▁생활	-8.96842
▁보였다	-8.96848
▁결	-8.96899
▁협력	-8.96937
▁아니라	-8.97074
4	-8.97125
▁브라운	-8.97286
▁이동	-8.97338
▁200	-8.97355
▁인권	-8.97369
억원	-8.97462
▁t	-8.97468
▁이같	-8.97517
▁아들	-8.9755
▁g	-8.97566
▁노무현	-8.97635
▁0	-8.97801
있다	-8.97867
▁폴	-8.97895
▁관	-8.97969
▁작전	-8.9801
▁회의	-8.98078
졌	-8.98292
▁eu	-8.98407
▁키	-8.98465
▁딸	-8.98588
▁에너지	-8.98692
▁요	-8.98709
▁있고	-8.9873
▁친구	-8.98781
▁j	-8.98799
▁재개	-8.98889
▁타고	-8.98997
▁받을	-8.99051
▁위해서	-8.9921
▁and	-8.99361
▁도로	-8.99367
▁제공	-8.99734
▁시설	-8.99749
▁연설	-8.99805
년까지	-8.9982
장을	-8.99878
▁영	-9.00126
받	-9.00152
▁천	-9.00367
▁디	-9.00372
▁내년	-9.00403
▁별	-9.00562
▁목표	-9.00771
▁아니	-9.00777
커	-9.00842
▁2003	-9.00864
▁역시	-9.00915
▁네	-9.00983
이자	-9.01054
▁대화	-9.01056
집	-9.01244
▁직원	-9.01298
▁힘	-9.01329
일간	-9.01367
▁어떻게	-9.01564
퍼	-9.01591
▁잠	-9.0165
머	-9.01758
렸다	-9.01959
▁위원회	-9.02013
합	-9.02285
▁산업	-9.02297
▁한국인	-9.02324
▁경쟁	-9.02464
v	-9.0251
▁눈	-9.02533
▁음악	-9.02606
▁열리는	-9.02771
하라	-9.02778
▁수준	-9.02843
▁대사	-9.02892
케	-9.03045
▁이유로	-9.03054
곳	-9.03056
▁용	-9.03222
▁곧	-9.03481
입	-9.03589
범	-9.03684
▁출전	-9.03725
목	-9.03772
▁그들	-9.03798
▁인도네시아	-9.04147
▁국무부	-9.0416
▁추	-9.04247
▁사건에	-9.04284
▁문제에	-9.04321
었다고	-9.04384
▁의장	-9.04448
▁제작	-9.04478
회의	-9.04724
▁잡	-9.04817
▁숨졌다	-9.04862
▁m	-9.04862
▁타임즈	-9.04907
▁알리	-9.05013
▁시스템	-9.05084
지역	-9.05106
포인트	-9.05157
먼	-9.05196
▁데이비드	-9.05275
▁멕시코	-9.05275
▁태국	-9.05348
단체	-9.05363
▁co	-9.05408
추	-9.05476
▁훈련	-9.05486
른	-9.05617
▁경고	-9.0573
▁주변	-9.05737
▁경선	-9.05749
리는	-9.05796
▁회복	-9.06044
▁500	-9.06213
st	-9.06235
등	-9.06242
갈	-9.06273
▁레바논	-9.06304
▁해안	-9.06304
▁아프리카	-9.06343
▁빈	-9.0635
▁개인	-9.06355
▁대회	-9.06588
▁지명	-9.06614
기도	-9.06646
하려는	-9.06708
링	-9.06798
▁기회	-9.06956
▁있게	-9.06968
th	-9.0701
▁하락	-9.07036
로서	-9.07142
▁대선후보	-9.07189
▁어린이	-9.07466
▁원인	-9.07613
▁방안	-9.07643
▁쿠	-9.07663
▁말하는	-9.07816
▁성장	-9.07854
▁배우	-9.07981
았	-9.07984
▁인구	-9.08076
▁같다	-9.082
▁만나	-9.08242
▁패	-9.0832
▁승인	-9.08475
▁대신	-9.08479
▁수술	-9.08708
de	-9.08733
센터	-9.08745
▁있기	-9.08757
▁동물	-9.08818
▁사임	-9.08851
되	-9.08858
▁양국	-9.08872
▁샤	-9.08908
결	-9.09107
▁전세계	-9.09124
▁선택	-9.09278
▁바로	-9.09281
▁과학자들	-9.09351
▁너무	-9.09362
리아	-9.09367
▁대규모	-9.09533
▁임무	-9.09542
▁일정	-9.09543
만원	-9.09555
▁2000	-9.09577
▁연합	-9.09708
▁무장	-9.09729
율	-9.09797
▁못하	-9.09915
▁여객기	-9.09918
▁폭력	-9.09946
월에	-9.09992
▁교육	-9.1001
▁되	-9.10011
망	-9.10016
▁기대	-9.10349
▁생각한다	-9.10476
주의	-9.10489
들에	-9.10562
▁놓	-9.10634
▁투	-9.10654
▁건	-9.10658
▁측	-9.10672
▁스타	-9.10678
▁제품	-9.107
자들이	-9.10727
▁왕	-9.1076
▁주말	-9.10796
▁일이	-9.1081
▁발견했다	-9.10885
▁요구했다	-9.11191
▁받아	-9.11413
▁구성	-9.11423
▁약속	-9.11505
▁비디오	-9.1153
▁마을	-9.11582
▁r	-9.11608
▁북	-9.11671
승	-9.11765
▁저장	-9.11878
▁un	-9.12133
▁남편	-9.12143
▁부분	-9.12227
▁화재	-9.12256
▁나타났다	-9.12397
▁누	-9.12398
▁민간인	-9.12481
▁출연	-9.12527
매	-9.12589
▁전투	-9.12616
▁약어표	-9.12729
▁앞두고	-9.12729
▁금	-9.12825
▁us	-9.12974
▁참가	-9.12994
▁대사관	-9.13084
▁갖	-9.13088
▁정당	-9.13131
▁비롯	-9.13143
▁포함한	-9.13186
언	-9.13303
억달러	-9.13307
▁개최	-9.13332
▁판사	-9.13338
명과	-9.13346
ri	-9.13488
▁크	-9.13526
레이	-9.13585
▁지나	-9.13625
ra	-9.1364
▁인간	-9.13738
업체	-9.1379
▁지도자들	-9.13875
변	-9.13894
▁도움	-9.13902
▁심각한	-9.13907
▁로버트	-9.1397
▁행정부	-9.13996
태	-9.14016
in	-9.1403
▁항공	-9.14057
▁관할	-9.14361
엔	-9.14455
▁죽	-9.14534
▁예정이라	-9.14663
▁편	-9.1471
▁넘	-9.14725
▁아닌	-9.14804
채	-9.14888
▁앤	-9.14947
▁것이라	-9.14978
▁당신	-9.15153
탈	-9.152
ar	-9.15216
▁여전	-9.15291
▁그들의	-9.15294
▁태	-9.15467
▁수단	-9.15544
으로써	-9.15671
록	-9.15742
▁위원장	-9.15758
▁도착	-9.15813
▁만들어	-9.15819
ic	-9.15964
▁수치	-9.16052
▁작품	-9.16057
▁즉	-9.16116
▁참석	-9.16164
▁그런	-9.16277
▁주도	-9.16407
했을	-9.1681
되기	-9.16877
▁가자지구	-9.16888
▁온라인	-9.16893
▁라디오	-9.169
대로	-9.16901
▁갈	-9.16906
▁총선	-9.17246
▁부부	-9.17252
▁여자	-9.17339
▁2002	-9.17344
▁주민	-9.17465
자인	-9.17471
▁운영	-9.17501
▁살고	-9.17586
▁부통령	-9.17741
▁홍콩	-9.17741
▁질	-9.17763
▁l	-9.18055
▁가지고	-9.18116
▁수입	-9.18118
▁촉구했다	-9.18177
▁부대	-9.18178
▁계약	-9.18179
▁국내	-9.18222
플	-9.18285
베	-9.1836
▁얼마	-9.18546
턴	-9.18562
▁찾아	-9.18563
▁무장세력	-9.18605
▁밝혀졌다	-9.18614
퍼센트	-9.18621
▁연료	-9.18628
▁내려	-9.1877
▁암	-9.18832
▁악	-9.18895
▁작은	-9.18905
▁행	-9.19061
▁2009	-9.19106
▁벌	-9.19191
▁안에	-9.19201
▁경기에서	-9.19243
▁마이클	-9.19469
축	-9.19526
▁가지	-9.19531
장관	-9.19627
▁실시	-9.1963
▁헬기	-9.19707
▁청	-9.19812
on	-9.19818
▁안보	-9.19891
▁규정	-9.19907
▁푸틴	-9.19908
▁최종	-9.19928
▁파업	-9.1996
▁담당	-9.19962
▁과거	-9.19972
▁be	-9.19983
기구	-9.19987
▁열차	-9.20013
▁웹사이트	-9.20093
▁입은	-9.20292
▁아기	-9.20309
▁이상이	-9.20311
▁인기	-9.2032
▁제재	-9.2047
자회담	-9.20909
족	-9.20961
톤	-9.21001
별	-9.21081
▁미국에서	-9.21219
▁미국인	-9.21236
▁시험	-9.21257
독	-9.21267
해왔다	-9.2134
말	-9.21424
겨	-9.21517
스타	-9.2152
▁입었다	-9.21707
▁개선	-9.21815
▁기소	-9.21867
▁프로	-9.21961
▁그들이	-9.22082
▁광고	-9.22128
▁문화	-9.22182
▁했다고	-9.22196
랜드	-9.22218
▁증시	-9.22224
▁파괴	-9.22301
▁밀	-9.22308
광	-9.22483
▁환자	-9.22495
▁브라질	-9.22567
▁세금	-9.22651
▁주식	-9.22863
▁중동	-9.22969
▁커	-9.22989
▁캐나다	-9.23017
▁메시지	-9.23018
▁말한다	-9.23024
리스	-9.2305
사를	-9.23063
▁이라크에서	-9.2314
▁외국인	-9.23256
▁일을	-9.23507
▁플로리다	-9.23735
백	-9.23771
▁이것	-9.23777
ce	-9.2378
▁밝힌	-9.23924
▁대의원	-9.23937
▁통제	-9.24166
▁u	-9.24202
▁가치	-9.24264
▁추락	-9.24274
▁기념	-9.24359
▁어머니	-9.2438
▁만약	-9.24409
▁힐	-9.24412
▁경고했다	-9.24535
il	-9.24564
기로	-9.2459
예	-9.24634
▁필요하다	-9.24714
▁암살	-9.24865
▁다양	-9.249
현	-9.2521
▁06	-9.25243
▁올라	-9.25255
▁화요일	-9.2572
▁움직임	-9.25768
▁책임	-9.25778
▁식량	-9.2579
▁나오	-9.25815
하겠다	-9.25866
▁서로	-9.25982
50	-9.26025
▁반응	-9.26056
▁동부	-9.26079
ion	-9.26145
▁외국	-9.26289
▁중인	-9.2634
▁테	-9.26389
▁임명	-9.26421
▁국민들	-9.26692
▁케냐	-9.267
▁발표한	-9.26755
사는	-9.26773
▁섬	-9.26829
▁대만	-9.26838
▁밝혔	-9.26884
▁나이	-9.2689
▁비해	-9.26934
▁벌였다	-9.26958
▁관계자가	-9.27097
▁국무장관	-9.27167
년부터	-9.27524
줄	-9.27525
ch	-9.27545
▁사랑	-9.27681
it	-9.27722
▁강제	-9.2777
▁없을	-9.27903
▁on	-9.27989
▁총격	-9.28049
액	-9.28092
향	-9.28096
▁스미스	-9.28111
▁소송	-9.28125
▁사과	-9.28396
▁선언	-9.28439
ss	-9.28473
▁소식통	-9.28514
근	-9.28543
▁짐바브웨	-9.28586
▁실험	-9.28602
▁감시	-9.28607
▁관리들	-9.28613
▁수출	-9.28731
▁진압	-9.28744
▁쇼	-9.28904
▁80	-9.28948
▁가스	-9.28999
▁같이	-9.29012
▁국영	-9.29166
▁공연	-9.29167
▁허	-9.29184
례	-9.29322
습	-9.29396
▁제한	-9.29468
시키는	-9.29515
▁사무총장	-9.29546
▁위반	-9.29599
▁전달	-9.29613
한다는	-9.29645
▁하원	-9.29831
▁내렸다	-9.2985
▁학생	-9.29905
▁시즌	-9.30009
▁상당	-9.30009
▁게	-9.30037
▁여름	-9.30045
▁머리	-9.30061
▁장소	-9.30126
▁비용	-9.30175
▁기록했다	-9.3028
▁시아파	-9.30515
▁목적	-9.30559
압	-9.30882
▁밖에	-9.30904
▁인수	-9.3093
렸	-9.30933
▁귀	-9.31026
골	-9.31063
▁추진	-9.31083
▁일본의	-9.31102
▁제기	-9.31116
▁감염	-9.31208
▁차례	-9.31223
이었던	-9.31243
▁탈	-9.31348
때	-9.31422
튼	-9.31446
▁평균	-9.31496
▁접근	-9.315
▁각각	-9.31514
▁권리	-9.31647
▁거리	-9.31667
빌	-9.31673
여명	-9.31689
▁차이	-9.31719
▁여론조사	-9.31737
▁퍼	-9.31775
▁정권	-9.31885
▁음식	-9.32007
▁서부	-9.32021
▁무역	-9.32063
령	-9.32128
▁해군	-9.32208
왔다	-9.32288
▁위성	-9.32333
▁병	-9.32411
▁최	-9.32423
혈	-9.32442
힌	-9.32479
▁극	-9.32634
쉬	-9.32698
▁다리	-9.32772
▁텍사스	-9.32794
거리	-9.32827
▁인상	-9.32862
▁사원	-9.32929
▁않아	-9.32984
▁이수지	-9.32994
협회	-9.33232
▁버스	-9.33254
▁선정	-9.33323
▁신고	-9.33342
시켜	-9.33478
▁헌법	-9.3349
▁소녀	-9.33496
평	-9.33622
▁처리	-9.33642
▁배치	-9.33675
▁숨	-9.33704
▁부모	-9.33744
랜	-9.33769
▁받	-9.33974
흐	-9.33977
개국	-9.33978
▁구속	-9.34054
▁나온	-9.34099
▁책	-9.34379
▁삼	-9.34432
▁명이	-9.34454
▁파병	-9.34557
▁과정에서	-9.34576
▁축구	-9.34593
▁사건이	-9.34631
▁사이에	-9.34802
▁참여	-9.34871
▁내무부	-9.34993
▁결의안	-9.34995
▁걸쳐	-9.35013
▁전국	-9.35103
▁수상	-9.35105
▁칼	-9.35318
까	-9.35325
일까지	-9.35351
▁의미	-9.35369
▁처	-9.35479
장에서	-9.35524
▁몰	-9.35554
▁시리아	-9.35573
▁수행	-9.35593
▁설명	-9.35604
▁거부	-9.35606
▁35	-9.35669
▁희망	-9.35725
▁평가	-9.35764
▁발견됐다	-9.35776
▁살인	-9.35801
▁합의했다	-9.35818
▁붕괴	-9.35853
▁완전	-9.35942
▁자리	-9.36002
▁설립	-9.36024
▁자료	-9.36199
▁설치	-9.36231
▁학생들	-9.36269
▁아내	-9.36281
샤	-9.36304
쿠	-9.36323
앞서	-9.36349
엘	-9.36376
▁항공사	-9.36444
▁센터	-9.36549
▁것과	-9.36565
▁집중	-9.36592
▁긴장	-9.36733
하다고	-9.36802
▁폭	-9.36904
인한	-9.36934
▁상황이	-9.36966
▁의원들	-9.37073
▁파견	-9.37077
▁기관	-9.37125
▁발전	-9.3716
▁이곳	-9.37196
▁외교	-9.37358
▁안정	-9.3736
세기	-9.37381
▁고려	-9.374
▁북핵	-9.37571
30	-9.37593
▁빨	-9.37594
▁허용	-9.37615
5000	-9.37642
클	-9.37668
▁교회	-9.37731
▁대상으로	-9.3782
▁주재	-9.37827
▁작업	-9.37843
남	-9.37866
▁개혁	-9.38036
▁글	-9.38063
가지	-9.3807
▁온몸	-9.38094
▁논쟁	-9.38095
▁죽음	-9.38116
▁후세인	-9.38127
▁사퇴	-9.38128
▁그룹	-9.38224
▁거주	-9.38241
▁기사	-9.38283
▁인물	-9.38343
▁선고	-9.38345
▁되어	-9.38516
▁혼란	-9.38636
▁수요일	-9.38647
▁촬영	-9.38838
사건	-9.38918
▁수감	-9.39027
▁터	-9.39053
▁슬	-9.39134
▁이집트	-9.3915
▁시카고	-9.39151
▁바란다	-9.39151
▁유일	-9.39157
▁90	-9.39193
▁했	-9.39215
▁마약	-9.3924
▁독	-9.39254
▁포기	-9.39264
▁당선	-9.39265
중인	-9.39325
지수	-9.39377
시키기	-9.39388
▁일반	-9.39445
었습니다	-9.39522
▁결정했다	-9.39526
규	-9.39591
▁평	-9.39603
▁성폭행	-9.39681
▁압력	-9.39682
▁바이러스	-9.39684
▁항의	-9.3969
▁대응	-9.39692
▁야후	-9.39705
▁알려진	-9.39711
▁구매	-9.39724
▁익명	-9.39734
li	-9.39818
▁단계	-9.40006
환	-9.40171
▁베네수엘라	-9.40216
▁정신	-9.40229
▁불만	-9.40254
▁공습	-9.40257
▁집회	-9.4033
▁발견된	-9.40412
▁기지	-9.40472
경기	-9.40527
능	-9.40539
x	-9.40672
창	-9.40681
▁사망했	-9.40693
▁관해	-9.40751
▁기상캐스터	-9.40753
▁상대로	-9.40799
▁질문	-9.40811
동안	-9.40873
▁울	-9.40998
▁쓰	-9.41043
▁지수	-9.41083
▁나가	-9.41113
하였다	-9.4113
앙	-9.41138
장이	-9.41144
▁슈	-9.41184
잡	-9.41229
2006	-9.41245
▁차베스	-9.41299
▁집단	-9.41386
▁로마	-9.41419
ation	-9.4147
▁여론	-9.41572
▁취	-9.41659
올	-9.41748
▁민주주의	-9.41845
▁표현	-9.41856
us	-9.41894
▁끝	-9.41966
▁목	-9.41982
▁교전	-9.42002
▁부상했다	-9.42039
술	-9.42049
시키고	-9.42072
▁되었다	-9.42171
▁st	-9.42427
▁이래	-9.42428
▁국가들	-9.42465
▁임시	-9.42499
▁증	-9.42509
▁마치	-9.42551
블	-9.42565
▁남한	-9.42598
▁해리	-9.42691
▁시민	-9.42695
▁신원	-9.42714
▁대변인이	-9.42725
▁왕자	-9.42907
▁받는	-9.43029
▁크게	-9.43107
▁탄	-9.43117
▁출	-9.43343
▁300	-9.43347
▁받지	-9.43369
페	-9.43449
▁요청했다	-9.43505
▁밝혔습니다	-9.4352
다면	-9.43591
▁근	-9.43605
▁예상된다	-9.43621
▁이해	-9.4378
▁경찰에	-9.43801
▁팬들	-9.43808
▁09	-9.43882
▁접	-9.43921
▁거대	-9.43929
▁보여주	-9.43978
▁유명	-9.44025
▁철	-9.44029
▁복귀	-9.44045
▁사령관	-9.44159
▁때까지	-9.44164
이어	-9.4419
▁변호사는	-9.44218
쳤다	-9.44222
▁사이트	-9.44326
책	-9.44359
▁판	-9.44363
▁폭력사태	-9.44604
▁누구	-9.44656
▁자체	-9.44743
▁사형	-9.44758
갔다	-9.44813
▁허가	-9.44856
▁사망하	-9.44865
▁고통	-9.44933
일부터	-9.45037
▁인터뷰	-9.45043
▁탑승	-9.45143
▁목요일	-9.45162
▁분쟁	-9.4517
▁모델	-9.45186
킨	-9.45211
▁쿠바	-9.45234
▁동료	-9.45266
▁밝히	-9.45312
으로서	-9.4542
▁내리	-9.45492
▁콜	-9.45587
▁있지	-9.45588
▁가정	-9.45629
하기도	-9.45657
름	-9.45664
▁한반도	-9.45728
▁최악	-9.45733
▁무장단체	-9.45743
지도	-9.45747
▁권력	-9.45773
▁뇌	-9.45776
▁강한	-9.45867
▁비밀	-9.45902
▁중국은	-9.45931
▁캐	-9.45948
▁고용	-9.45993
▁70	-9.46088
▁형	-9.46141
▁마크	-9.46198
▁따른	-9.46307
▁의료	-9.46332
글	-9.46358
▁유권자들	-9.46361
었던	-9.46385
▁한다는	-9.46412
▁is	-9.46466
▁아니라고	-9.46501
▁교통	-9.46501
랑	-9.46625
ve	-9.46692
▁백	-9.46737
ro	-9.46838
▁남북	-9.46838
▁바다	-9.46858
▁연결	-9.46897
▁따	-9.46936
빈	-9.46948
▁도움이	-9.46983
▁엘	-9.47058
▁지불	-9.47145
▁세력	-9.47259
▁장면	-9.4727
▁국	-9.47425
▁검토	-9.47442
▁2001	-9.4757
▁받게	-9.47573
▁수색	-9.47592
▁주가	-9.47696
명으로	-9.47714
되었습니다	-9.47743
▁임기	-9.47753
▁명령	-9.47816
▁여사	-9.47822
▁상대	-9.4797
▁과정	-9.47989
▁높이	-9.48019
▁필리핀	-9.48019
▁흑인	-9.48019
맨	-9.48105
▁역	-9.48126
▁브	-9.48173
▁하기	-9.48185
준	-9.482
▁비판	-9.48267
션	-9.48365
리자	-9.48488
▁사실이	-9.48496
▁전시	-9.48596
▁상원의원이	-9.48598
▁nasa	-9.486
▁제임스	-9.48601
▁일요일	-9.48602
▁사무실	-9.48613
▁정부와	-9.48667
▁예측	-9.48683
▁농	-9.4871
▁월요일	-9.48718
▁병사	-9.48794
▁순	-9.48932
▁내부	-9.48967
▁수십	-9.48995
폭	-9.49249
▁있음	-9.4932
▁되고	-9.49371
▁선수들	-9.49391
▁두고	-9.49421
▁적이	-9.49434
▁못한	-9.49529
▁매년	-9.49561
▁벤	-9.49611
▁가능한	-9.4966
ly	-9.49734
▁사우디	-9.49774
은행	-9.49827
▁선박	-9.49853
▁들어가	-9.50015
▁밝혀	-9.50207
▁사람들을	-9.50233
▁가졌다	-9.50291
▁긴급	-9.5038
▁지진	-9.504
▁진출	-9.50407
▁달리	-9.50474
▁선출	-9.50505
▁대중	-9.50533
la	-9.50541
▁나왔다	-9.50615
▁소년	-9.50661
▁시기	-9.50677
▁de	-9.50682
▁사는	-9.50685
▁언급했다	-9.50832
se	-9.50879
▁어느	-9.50978
▁자세	-9.51
▁항공기	-9.51019
▁부상자	-9.51023
▁오른	-9.51031
▁떠나	-9.51042
▁파리	-9.51077
▁희생자	-9.51167
▁확인했다	-9.5122
▁노동	-9.5127
▁사항	-9.51292
▁밝히지	-9.51315
▁위치	-9.51342
▁계획이	-9.51377
▁공격으로	-9.51408
있	-9.51476
냈다	-9.51515
이었	-9.5153
el	-9.51547
▁선두	-9.51615
▁작	-9.51646
lo	-9.51711
▁관광객	-9.51769
▁보냈다	-9.51861
▁수익	-9.51886
▁북한에	-9.51898
▁칸	-9.52061
▁32	-9.52133
▁나머지	-9.52162
▁이끄는	-9.52167
▁군대	-9.52171
▁작년	-9.52415
볼	-9.52433
▁전기	-9.52569
▁종교	-9.52638
텔	-9.52714
▁오르	-9.52767
▁구체적	-9.52783
▁ac	-9.52861
▁중앙	-9.52918
▁향해	-9.52931
▁사람들에게	-9.52962
▁영어	-9.53024
익	-9.53057
째	-9.53329
▁국립	-9.53394
▁순간	-9.53466
▁전력	-9.53484
사가	-9.53535
▁올랐다	-9.53615
▁제거	-9.5383
항	-9.53835
▁업체	-9.53935
▁비슷	-9.53991
드는	-9.53993
▁넘어	-9.53995
▁일자리	-9.54036
▁정말	-9.5405
불	-9.54065
북	-9.54199
▁인질들	-9.54431
ll	-9.54512
움	-9.54555
▁싶다	-9.54608
▁잘못	-9.54611
▁충격	-9.54618
▁맺	-9.54635
▁소재	-9.54706
검	-9.54733
학자	-9.54756
▁이라크전	-9.55022
▁현대	-9.55023
is	-9.55036
누	-9.55059
것	-9.55215
▁도쿄	-9.55229
▁다음달	-9.55269
▁작가	-9.55296
▁감사	-9.55374
▁창	-9.55567
▁환영	-9.55583
▁양측	-9.55602
▁주의	-9.55678
▁45	-9.55681
▁소리	-9.55682
▁막기	-9.55697
▁유권자	-9.55784
총	-9.55785
되면서	-9.55842
▁목숨	-9.55855
▁정상회담	-9.55861
문제	-9.55891
▁만든	-9.55912
▁착륙	-9.5597
▁노조	-9.55988
▁중심	-9.56048
▁후에	-9.56143
국가	-9.56143
봉	-9.56234
스터	-9.56261
▁심장	-9.56306
▁만큼	-9.56307
▁제출	-9.56384
랄	-9.56478
▁숨지고	-9.56486
▁올리	-9.56546
만한	-9.56653
▁1000	-9.56705
▁주장하고	-9.56784
▁프리	-9.56871
▁총기	-9.56916
▁미군이	-9.56938
▁합	-9.56948
▁전문가	-9.57022
담	-9.57042
욕	-9.57074
▁id	-9.57104
▁허리케인	-9.57116
▁국방장관	-9.57121
시아	-9.57124
▁중에	-9.57253
▁소비자	-9.57268
▁자연	-9.57276
▁동의	-9.57308
▁질문에	-9.57746
▁소말리아	-9.57753
▁어떠한	-9.57753
▁자국	-9.57823
마다	-9.57885
▁정부에	-9.58161
▁경찰관	-9.58421
▁제시	-9.58434
▁왜	-9.58434
▁마음	-9.58533
▁직원들	-9.58574
▁급	-9.58746
j	-9.58841
섬	-9.58854
▁권	-9.58876
▁장기	-9.58927
-1	-9.58933
▁확대	-9.59039
▁적어도	-9.5904
▁출발	-9.59068
▁물론	-9.59113
슬	-9.59128
만이	-9.59169
▁공공	-9.59209
레스	-9.59274
▁대비	-9.59283
▁곳에서	-9.59315
분기	-9.59316
▁화	-9.59338
▁부정	-9.59394
▁되지	-9.59429
▁보수	-9.59446
▁끝에	-9.59458
et	-9.5947
거래	-9.59677
▁외무부	-9.59689
기간	-9.59704
▁따라	-9.59709
▁패배	-9.59719
▁뛰어	-9.59725
tal	-9.59743
▁보장	-9.59813
시키	-9.59866
▁작업을	-9.60071
▁절	-9.601
▁당선인	-9.60112
냐	-9.60279
▁약물	-9.60287
스러운	-9.60323
▁뿐	-9.60336
딘	-9.60342
▁보건	-9.60438
ers	-9.60486
▁여당	-9.60488
당국	-9.60565
대의	-9.60709
▁공장	-9.60876
▁넘는	-9.6094
▁전자	-9.60946
▁ba	-9.60972
▁시행	-9.60978
럽	-9.61003
▁접촉	-9.61004
여명이	-9.61018
▁뉴	-9.61044
▁가까	-9.61086
▁소유	-9.61137
▁식	-9.61166
sa	-9.61248
▁수천	-9.61327
수가	-9.61392
센	-9.61427
손	-9.61492
자로	-9.6151
▁미래	-9.61606
▁시간이	-9.61649
틀	-9.61657
▁베컴	-9.6167
▁의혹	-9.61672
▁로켓	-9.61675
▁찰스	-9.61689
▁승객	-9.617
▁동결	-9.61729
▁유명한	-9.61739
▁지배	-9.61816
겠다	-9.61854
▁묻	-9.61866
▁존스	-9.61896
▁수천명	-9.61954
▁입고	-9.62027
순	-9.62043
견	-9.62045
패	-9.62063
겼다	-9.62099
몬	-9.62157
▁여성이	-9.62176
척	-9.62262
▁이란이	-9.62266
▁인사	-9.62287
▁프로젝트	-9.62329
▁압박	-9.6233
▁fbi	-9.62335
▁o	-9.62364
▁홍보	-9.62389
▁유죄	-9.62428
성이	-9.62447
ol	-9.62575
▁방문한	-9.6269
▁발생해	-9.62709
▁이달	-9.62809
ent	-9.62886
▁피해자	-9.6289
한다면	-9.62898
▁향	-9.62915
씩	-9.63
▁신뢰	-9.63002
▁목소리	-9.63003
▁어려움	-9.63006
▁출마	-9.63091
▁제조	-9.63127
▁아베	-9.6314
릭	-9.63236
▁해야	-9.63258
지에	-9.63259
▁관광	-9.63332
▁듯	-9.63429
▁유로	-9.63446
▁레이	-9.63451
▁능력	-9.63454
▁관련해	-9.63563
▁사상	-9.63648
컵	-9.6367
▁외무장관	-9.63676
▁휴대폰	-9.63677
▁고문	-9.63694
▁바람	-9.63744
▁폐	-9.63756
▁아마	-9.63769
▁작성	-9.63776
▁완화	-9.63795
겠다고	-9.6384
▁없었	-9.63878
관계	-9.63885
기가	-9.63892
▁아주	-9.63943
기관	-9.63977
▁연구소	-9.64015
▁발생했	-9.64039
▁유세	-9.64213
▁사진을	-9.64258
허	-9.64285
▁수백	-9.6439
▁심리	-9.64403
▁최고의	-9.64408
ti	-9.64411
▁마리	-9.6446
▁구호	-9.64517
▁연장	-9.64738
대가	-9.64888
ment	-9.64904
▁경제적	-9.65009
▁취임	-9.65033
▁시상식	-9.65041
▁국제사회	-9.65054
▁병원에	-9.65113
자금	-9.65223
ta	-9.65241
▁경험	-9.65318
▁동원	-9.65319
▁지도자인	-9.65324
인지	-9.65367
ia	-9.65388
ne	-9.6544
▁01	-9.65451
▁사기	-9.65454
▁일어나	-9.65633
▁이라크에	-9.65664
▁평양	-9.65749
▁술	-9.65773
▁대법원	-9.65784
▁군인	-9.65823
▁총재	-9.65837
▁망명	-9.65866
▁오래	-9.65879
▁끝나	-9.65934
▁주민들이	-9.65954
at	-9.66056
▁차지	-9.66161
▁사장	-9.6623
취	-9.6632
▁회	-9.66374
▁걱정	-9.66425
▁게이츠	-9.66426
▁여왕	-9.66441
▁절차	-9.6648
리고	-9.66528
▁존재	-9.66543
▁적용	-9.66598
▁것인지	-9.66607
이지만	-9.66636
▁기억	-9.66678
▁현장	-9.66705
▁공군	-9.6677
▁불리	-9.66808
칠	-9.66829
▁카메라	-9.66834
▁취소	-9.66904
밀	-9.6693
▁학	-9.66947
▁가질	-9.67013
▁젊은	-9.67041
▁청와대	-9.67125
▁보여	-9.67155
▁머물	-9.67155
▁전문	-9.67224
▁심각	-9.67257
해졌다	-9.67299
▁그리스	-9.6753
침	-9.67618
▁붙	-9.6765
▁an	-9.67666
▁소비	-9.67704
▁카운티	-9.67775
am	-9.67795
납	-9.67811
▁말레이시아	-9.67829
▁트럭	-9.67832
▁애플	-9.67855
월부터	-9.67882
▁등록	-9.67967
스크	-9.67982
▁목표로	-9.67984
▁400	-9.68003
서는	-9.68063
▁체포됐다	-9.68314
▁촉구	-9.68322
▁해제	-9.6838
▁만들	-9.6838
▁선거에서	-9.68421
희	-9.6851
▁힐튼	-9.68552
▁아랍	-9.68556
▁숨진	-9.68625
70	-9.68701
▁옷	-9.68731
▁반대하는	-9.68751
ha	-9.68854
▁격	-9.69027
▁효과	-9.69102
럼	-9.692
싼	-9.69252
▁느끼	-9.69254
▁투입	-9.69274
▁이전에	-9.69334
통신	-9.69336
2007	-9.69366
▁없어	-9.69426
▁추정	-9.69786
▁수석	-9.69864
▁코소보	-9.69972
▁마드리드	-9.69972
▁자주	-9.69975
▁korean	-9.69985
▁실패	-9.6999
▁법률	-9.7
▁상징	-9.70002
▁bo	-9.70043
▁비상	-9.702
슈	-9.70287
▁황	-9.70298
▁전략	-9.70315
▁보기	-9.70362
▁단지	-9.70461
20	-9.70478
▁티	-9.70505
▁as	-9.706
▁수용	-9.7064
▁스포츠	-9.70696
▁크리스마스	-9.70696
▁나타나	-9.70697
▁최신	-9.70743
▁한미	-9.70788
아니라	-9.70844
▁케	-9.70939
10	-9.70995
▁육	-9.71017
▁박물관	-9.7106
▁엔	-9.7115
▁오픈	-9.71228
곤	-9.71383
▁몇몇	-9.71427
▁신화통신	-9.71428
▁약간	-9.7143
찬	-9.71535
▁휴	-9.71563
▁넣	-9.71572
▁집행	-9.71583
▁그러	-9.71599
활동	-9.71599
▁부문	-9.71643
▁직	-9.71654
▁굴	-9.71687
▁고래	-9.7178
▁입원	-9.71814
▁보이는	-9.71914
▁계	-9.7196
니다	-9.72085
▁시작된	-9.72112
롭	-9.72122
▁잉글랜드	-9.72161
▁스위스	-9.72162
▁들고	-9.72181
장에	-9.7219
▁부패	-9.72213
▁판단	-9.72215
철	-9.72215
애	-9.72243
tp	-9.72255
▁신청	-9.7227
▁도중	-9.72342
▁영상	-9.72372
▁ms	-9.72425
▁차기	-9.72426
▁fa	-9.72437
▁확산	-9.72573
▁임	-9.72608
해진	-9.72651
▁윌리엄	-9.72652
▁동시	-9.72668
▁도전	-9.72738
▁세르비아	-9.72902
▁밝혀지지	-9.72903
▁수니파	-9.72904
▁bbc	-9.72907
▁운행	-9.72912
▁고양이	-9.72918
▁연속	-9.72972
▁마무리	-9.72975
un	-9.73056
▁연합군	-9.73084
▁대형	-9.73088
▁본부	-9.73299
람	-9.73398
했는데	-9.73429
▁버지니아	-9.73453
▁강조	-9.73482
드리	-9.73489
▁대피	-9.73526
▁가수	-9.73554
▁매일	-9.73576
▁다이애나	-9.73581
시설	-9.73608
▁블레어	-9.73648
▁얼굴	-9.73649
▁찬성	-9.73743
돌	-9.73766
▁집계	-9.73771
▁나토	-9.7379
▁조건	-9.73792
▁민	-9.73829
벌	-9.7383
▁자녀	-9.73859
▁가량	-9.73877
곡	-9.73886
쇼	-9.73894
▁i	-9.73984
▁시대	-9.74046
▁회담에서	-9.7405
들도	-9.74073
▁운전	-9.74266
▁개의	-9.74398
▁올메르트	-9.744
▁억류	-9.74404
▁데이	-9.74404
▁스스로	-9.74406
▁집권	-9.7447
▁군부	-9.74474
▁노래	-9.74497
▁분노	-9.74503
▁대처	-9.74536
▁난민	-9.74561
▁베이	-9.74565
연합	-9.74675
▁전까지	-9.74698
로써	-9.74808
▁지지자들	-9.74886
적이	-9.74902
▁영국의	-9.74913
▁new	-9.74919
▁at	-9.7494
▁물질	-9.74982
▁푸	-9.75016
▁사라	-9.75024
갑	-9.75076
▁연설에서	-9.75142
좌	-9.75147
▁수정	-9.75153
▁오랫동안	-9.75158
▁협정	-9.75158
▁할리우드	-9.75158
▁탁신	-9.75159
▁비상사태	-9.75161
▁임신	-9.75195
▁구입	-9.75226
▁핵심	-9.75312
▁외교부	-9.75316
낸	-9.75336
▁있는지	-9.75406
▁수반	-9.75455
▁소장	-9.7549
▁성인	-9.75548
▁전통	-9.75646
▁실수	-9.75662
기에	-9.75667
▁가능	-9.75758
▁나무	-9.75832
▁과학	-9.75858
▁무사	-9.75894
▁분석	-9.75913
▁빠른	-9.75921
▁아파트	-9.75951
▁확실히	-9.75987
시킨	-9.76033
악	-9.76078
▁사상자	-9.76094
로운	-9.76124
▁축하	-9.76159
▁병원에서	-9.76165
▁이와같	-9.76258
들로	-9.7627
▁찬	-9.76454
하였	-9.76469
▁저지	-9.76518
▁기자들	-9.76558
▁전반	-9.76626
▁빠져	-9.76689
▁겪고	-9.7669
▁그렇게	-9.7669
▁클럽	-9.76696
▁쥐	-9.767
만명이	-9.76706
▁직후	-9.76706
▁cat	-9.76731
▁웨	-9.76754
▁경계	-9.76819
으면	-9.76875
시장	-9.77192
▁돌아가	-9.77212
킬	-9.77233
▁늘	-9.77391
▁pa	-9.77427
ive	-9.77441
벨	-9.77442
na	-9.77459
▁협의	-9.77466
500	-9.77467
▁팬	-9.7749
▁개봉	-9.77499
▁곳에	-9.77518
▁깨	-9.77655
▁모여	-9.77697
▁체포했다	-9.777
▁분야	-9.77731
낼	-9.77774
▁놀라	-9.77778
델	-9.7778
▁마감	-9.77794
ho	-9.77839
▁실제	-9.7785
▁문서	-9.77863
▁보좌관	-9.78001
▁홀	-9.78021
험	-9.78043
▁그린	-9.78197
▁필	-9.78207
젤	-9.78247
▁크리스토퍼	-9.78247
운동	-9.7825
▁mo	-9.78272
▁풀	-9.78275
▁산불	-9.78276
▁감축	-9.78277
▁담배	-9.78295
▁오랜	-9.78333
▁악화	-9.78376
▁화성	-9.78381
▁됐	-9.78384
▁조작	-9.78398
▁라이	-9.7842
황	-9.78432
▁근무	-9.78472
▁원조	-9.78479
▁나와	-9.78548
방송	-9.7861
▁비자	-9.78621
▁선포	-9.78681
▁한국은	-9.78723
▁깊	-9.78724
▁맞아	-9.78753
ate	-9.78836
▁송	-9.78887
▁유사	-9.78943
▁당했다	-9.79007
롤	-9.79026
▁이밖에	-9.79034
▁샤리프	-9.79035
▁업무	-9.79036
라운드	-9.7904
▁처벌	-9.79044
▁원자로	-9.79074
백만	-9.79135
마일	-9.79151
▁조금	-9.79194
▁의심	-9.7926
▁대책	-9.79335
▁장군	-9.79352
▁알게	-9.79433
자와	-9.79453
주의자	-9.79713
▁현상	-9.79771
▁떨어져	-9.79828
▁스피어스	-9.79828
▁빠르	-9.79829
▁민병대	-9.79829
▁견	-9.79831
▁광	-9.79845
▁지지율	-9.79882
▁노출	-9.79931
▁차지했다	-9.79957
▁알려지	-9.79973
▁북한과	-9.80011
▁소지	-9.80019
▁개정	-9.8003
비아	-9.80037
▁내각	-9.8006
▁윌리엄스	-9.80097
스가	-9.80107
▁성적	-9.80154
▁실시된	-9.80176
▁분명	-9.80201
놓고	-9.80202
헌	-9.80241
▁타이	-9.80339
왔	-9.8037
지르	-9.80379
▁초기	-9.80587
▁폭풍	-9.80593
▁우크라이나	-9.80628
겐	-9.80628
▁iaea	-9.80628
▁보이고	-9.8065
▁크리스	-9.80652
▁절반	-9.80653
▁나타냈다	-9.80707
센트	-9.80761
▁완	-9.80804
했는지	-9.80828
▁십	-9.80914
▁집에서	-9.80915
▁민간	-9.80917
▁조정	-9.81021
충	-9.81097
▁불안	-9.81138
하길	-9.81192
▁공원	-9.81241
빙	-9.81383
춘	-9.81389
▁37	-9.81398
▁둔	-9.81402
▁목사	-9.81417
행위	-9.8142
▁높다	-9.81434
▁일어난	-9.81435
▁무가베	-9.81435
▁cia	-9.81457
월까지	-9.81493
▁개입	-9.81493
▁위기에	-9.81505
▁날씨	-9.81518
▁블로그에	-9.81538
▁기반	-9.81576
해지	-9.81582
▁고속도로	-9.81602
▁보안관	-9.81661
▁실종	-9.81665
▁부인했다	-9.8169
었고	-9.81737
▁발생할	-9.81755
▁이혼	-9.81811
z	-9.8182
전에	-9.81849
▁보이지	-9.81854
▁월드컵	-9.8196
▁힘들	-9.81983
▁해당	-9.82012
▁받기	-9.82152
▁후보에	-9.82212
▁찾기	-9.82247
▁중이다	-9.8231
트리	-9.82319
▁상황에서	-9.82321
▁예산	-9.82341
▁치안	-9.82446
인들이	-9.82472
녀	-9.82476
▁이미지	-9.8263
▁150	-9.8263
베이	-9.8274
▁그중	-9.82806
▁36	-9.82838
퇴	-9.82878
▁범인	-9.82883
▁수백명	-9.82947
▁진정	-9.82988
di	-9.83001
▁말하고	-9.83011
▁의원이	-9.8303
id	-9.83061
렉	-9.83067
▁네덜란드	-9.83067
▁펜실베이니아	-9.83067
▁스티브	-9.83068
▁먼저	-9.83076
▁그에게	-9.83147
fi	-9.83157
다른	-9.83269
▁부르	-9.83279
스카	-9.83351
▁니	-9.83401
▁속에	-9.83402
▁보낸	-9.83542
▁않겠다	-9.83592
▁경찰과	-9.83639
kg	-9.83683
▁제외	-9.83764
▁구성된	-9.83767
▁수가	-9.83789
ma	-9.83872
▁희생	-9.83874
▁쿠르드	-9.83884
▁하워드	-9.83911
▁엄마	-9.83916
▁어려	-9.83919
▁돌아	-9.83922
▁프라이머리	-9.83962
▁기후	-9.83996
▁ht	-9.84002
▁위험한	-9.84028
▁교황	-9.84046
▁기자회견	-9.84047
▁법적	-9.84065
▁증가했다	-9.8411
▁후반	-9.84172
▁약속했다	-9.84216
▁손상	-9.84216
▁참	-9.84332
9	-9.84376
주년	-9.84406
헤	-9.84473
▁재정	-9.8449
▁고든	-9.84497
▁방해	-9.84524
위로	-9.84574
▁이용해	-9.84582
셔	-9.84697
▁나섰다	-9.84727
젠	-9.84727
▁규제	-9.84732
▁네팔	-9.84735
▁asp	-9.84765
▁파악	-9.84766
▁보험	-9.84768
▁숙	-9.8478
▁추방	-9.84793
▁대표팀	-9.8481
▁조종사	-9.84816
▁사례	-9.84821
▁연루	-9.84837
라도	-9.84882
▁원유	-9.84887
▁박사	-9.84924
▁지급	-9.84937
▁사용하는	-9.84978
▁벨	-9.8502
▁빅	-9.85026
▁보이	-9.8509
▁어린	-9.85125
관리	-9.85213
▁알아	-9.85282
▁증명	-9.85305
▁이행	-9.85329
▁휴가	-9.85344
▁중국이	-9.85399
하려고	-9.85403
▁장애	-9.8544
▁찾는	-9.85567
▁확정	-9.85567
▁태풍	-9.85577
▁노대통령	-9.85577
▁준	-9.85598
치는	-9.85629
객	-9.85644
▁대표단	-9.85758
▁대체	-9.85805
▁다수	-9.85827
▁대가	-9.85856
▁38	-9.85878
▁대단	-9.85911
▁남성이	-9.85935
▁참석한	-9.85946
▁다쳤다	-9.85965
겠	-9.86019
존	-9.86043
▁시점	-9.86057
스와	-9.86181
▁후보로	-9.86204
암	-9.86207
▁왔	-9.86223
▁헬	-9.86335
닝	-9.8638
▁못할	-9.8638
▁승	-9.86396
▁진술	-9.86399
▁north	-9.86415
▁캠프	-9.86415
▁스티븐	-9.86415
▁침체	-9.86416
▁블랙	-9.86417
▁알려져	-9.86423
위에	-9.86427
▁배럴	-9.86434
▁1999	-9.86445
▁진입	-9.86455
▁철회	-9.86469
▁ch	-9.86479
▁교체	-9.86498
▁현장에	-9.86504
▁크기	-9.86568
ts	-9.86577
▁흔들	-9.86614
▁트	-9.8665
▁영향력	-9.86655
▁인식	-9.86662
▁충분	-9.86695
▁충	-9.86695
줬다	-9.86721
▁최소한	-9.86723
▁쉬	-9.86795
▁연구진	-9.86797
▁대통령에게	-9.86856
극	-9.86868
▁홍수	-9.86891
▁증언	-9.87011
▁의한	-9.87167
웰	-9.87264
컨	-9.87269
▁모하메드	-9.87269
▁마이크	-9.87278
▁실시한	-9.87321
▁아바스	-9.87332
▁머	-9.87354
▁킹	-9.87409
버그	-9.87422
▁명단	-9.87485
달하는	-9.87488
▁신용	-9.87572
▁있는데	-9.87586
▁긴	-9.87586
웠다	-9.87626
▁기타	-9.8763
▁주에서	-9.87667
ai	-9.87711
스코	-9.87739
▁요구한	-9.87741
▁웹사이트에	-9.87763
ies	-9.8778
▁시작됐다	-9.87794
으려	-9.8787
귀	-9.87961
▁환	-9.87968
▁태도	-9.87973
▁아부	-9.88017
징	-9.88066
▁장난감	-9.88132
▁부동산	-9.88132
▁분위기	-9.88132
▁구글	-9.88182
▁만드는	-9.88214
▁해변	-9.88215
▁예방	-9.88324
▁토니	-9.88355
상태	-9.88525
▁니콜라	-9.88564
필드	-9.88823
탕	-9.88895
40	-9.8894
▁휴전	-9.88982
▁farc	-9.89001
▁정확한	-9.89001
렛	-9.89001
▁자살폭탄테러	-9.89005
▁질병	-9.8904
▁점령	-9.89042
▁지도부	-9.89063
▁응	-9.89071
▁여성들	-9.89098
ac	-9.89101
▁없습니다	-9.89103
▁소방	-9.89114
▁손실	-9.89118
▁며칠	-9.89167
▁얻었다	-9.89173
▁벌인	-9.89208
▁테러로	-9.89326
▁색	-9.89361
▁시리즈	-9.89464
▁지하	-9.89466
▁확신	-9.89589
착	-9.89643
▁실제로	-9.89651
왕	-9.897
▁생명	-9.89721
▁마르	-9.89724
틴	-9.89786
▁저녁	-9.89878
팅	-9.89878
쯤	-9.89878
▁쉽게	-9.8988
▁국왕	-9.89887
▁하락했다	-9.89901
▁피터	-9.89915
▁혼	-9.89919
▁무시	-9.8995
▁당선자	-9.90011
▁이웃	-9.90016
▁추정되	-9.90034
▁인정했다	-9.90051
▁42	-9.90098
갔	-9.90133
ut	-9.9018
▁들었다	-9.90182
▁의문	-9.902
▁방어	-9.90236
▁con	-9.90309
염	-9.90364
▁경찰서	-9.9037
▁대상	-9.90386
▁복	-9.90402
둔	-9.90517
펠	-9.90632
▁승무원	-9.90671
▁48	-9.90674
어야	-9.90719
▁south	-9.90763
▁아르헨티나	-9.90763
▁김정일	-9.90764
▁테이프	-9.90765
▁특사	-9.90767
▁남북한	-9.90832
▁말라	-9.91029
▁시민들	-9.91073
▁통치	-9.91109
▁자신들이	-9.91165
▁말한	-9.91248
▁잔	-9.91267
▁못했	-9.9129
▁파타	-9.91516
▁미국인들	-9.91524
ist	-9.91545
힐	-9.91576
항공	-9.91607
▁하며	-9.91621
▁함	-9.91638
▁토요일	-9.91657
▁콘돌	-9.91661
▁부활	-9.91682
▁선거운동	-9.91694
제를	-9.91695
0	-9.91706
▁결론	-9.91709
▁가격이	-9.91715
▁역사적	-9.91717
▁직면	-9.91748
▁강도	-9.9192
▁중요하다	-9.91984
▁문제로	-9.92035
▁법정	-9.9207
▁사용할	-9.92136
▁떨어졌다	-9.92144
▁재산	-9.9216
▁끼	-9.92204
▁면	-9.92285
스키	-9.92339
쓰	-9.92492
숙	-9.92497
2008	-9.92513
▁서명	-9.92521
▁주로	-9.92548
▁with	-9.92557
씬	-9.92557
▁나타내	-9.92557
▁활용	-9.92558
▁침해	-9.92563
▁타격	-9.92633
▁신속	-9.92713
▁반발	-9.92766
▁근처	-9.9278
개월간	-9.92818
▁입국	-9.92829
▁바이	-9.92852
▁살해한	-9.92854
▁상황에	-9.92949
▁음	-9.93028
▁만들었다	-9.93037
났다	-9.93044
▁도착했다	-9.93113
▁한번	-9.93131
▁한국과	-9.93212
▁오하이오	-9.93246
▁없다는	-9.93323
▁가족들	-9.93416
▁등이	-9.9343
▁지휘	-9.93435
▁징역	-9.93443
▁당한	-9.93504
정책	-9.93516
조치	-9.93521
▁연락	-9.93523
op	-9.93571
ight	-9.93639
▁추측	-9.93642
▁통화	-9.93643
▁웹	-9.9366
▁지출	-9.93673
▁짐	-9.9374
▁우주선	-9.93743
▁시위자들	-9.93769
▁민주	-9.93884
▁바라	-9.94199
ca	-9.94209
슨은	-9.94211
▁이곳에서	-9.94342
폐	-9.94343
▁않으면	-9.94376
픽	-9.94379
▁엘리자베스	-9.94384
▁드라마	-9.94386
▁살아	-9.94429
▁화산	-9.94439
▁기준	-9.94449
▁검색어	-9.94456
▁축제	-9.94461
▁결혼식	-9.94486
▁영국군	-9.94561
▁연관	-9.9457
▁신경	-9.94578
주간	-9.94605
▁우선	-9.94627
▁장치	-9.94645
▁자산	-9.94675
혔다	-9.94741
▁구제	-9.94761
60	-9.94825
ter	-9.94874
대표	-9.94948
pe	-9.94998
▁혹	-9.95005
▁매장	-9.9504
이라	-9.95069
▁복제	-9.95085
▁근거	-9.95162
궁	-9.95288
▁토론	-9.95299
텐	-9.95306
▁1997	-9.95309
▁긍정적	-9.95309
▁협조	-9.95309
▁페르베	-9.95317
▁내린	-9.95323
▁fta	-9.95338
▁유럽연합	-9.95343
▁복용	-9.95356
▁대북	-9.95382
▁감행	-9.95388
ial	-9.95389
▁주고	-9.95403
▁형성	-9.95448
▁상품	-9.95463
▁모른다	-9.95463
▁의도	-9.95609
도시	-9.95609
▁놀	-9.95652
니아	-9.95772
▁지적	-9.95848
린다	-9.95855
▁휘	-9.95887
안에	-9.95906
▁돼	-9.95971
▁75	-9.96144
▁끌어	-9.9619
▁해고	-9.96197
풍	-9.96223
▁기독교	-9.96244
▁소프트웨어	-9.96244
▁열린우리당	-9.96244
▁페일린	-9.96244
▁끝난	-9.96285
▁영국에서	-9.9631
▁일환	-9.96382
▁요구하는	-9.96402
▁공화당의	-9.96415
▁대출	-9.96421
▁진행되	-9.96461
들어	-9.96499
▁기구	-9.96883
▁속에서	-9.96919
▁방식	-9.96945
치를	-9.96972
선수	-9.97127
▁일본은	-9.97187
▁매들린	-9.97187
▁잭슨	-9.97187
▁iraq	-9.97188
▁리버풀	-9.97188
▁언제	-9.97195
▁어린이들	-9.972
▁벌금	-9.97213
▁갖추	-9.97214
▁가져	-9.97228
률	-9.97244
▁귀국	-9.97304
번째로	-9.97369
▁동맹	-9.97381
ig	-9.97396
▁현장에서	-9.97403
ld	-9.97436
▁대기	-9.97523
▁체포된	-9.97644
▁스테	-9.9772
▁유리	-9.97765
▁관광객들	-9.97819
당한	-9.97977
▁포함되어	-9.98055
da	-9.98095
▁싱가포르	-9.9814
▁핵실험	-9.9814
▁사이클론	-9.98149
ir	-9.98179
▁변경	-9.98219
몰	-9.98237
▁자격	-9.98264
▁동물원	-9.98322
▁걸어	-9.98401
자들에게	-9.98539
▁지켜	-9.9859
▁국장	-9.98622
▁지지자	-9.9864
으	-9.98738
국인	-9.98741
▁느	-9.98759
▁이틀	-9.98843
▁총선에서	-9.98877
학교	-9.99028
덕	-9.99096
꺼	-9.991
▁우라늄	-9.99101
▁케네디	-9.99101
▁론스타	-9.99102
▁cbs	-9.99118
▁ex	-9.99131
▁ceo	-9.9914
▁통합	-9.99142
▁미국에	-9.99199
▁의료진	-9.99204
▁33	-9.99244
▁공식적으로	-9.99263
잔	-9.99266
▁나달	-9.99268
▁이것이	-9.99273
▁지연	-9.9937
▁무력	-9.99389
▁이사	-9.99396
우스	-9.99405
▁헌	-9.99473
est	-9.99486
▁성화	-9.9951
▁되면	-9.99529
▁금리	-9.99537
▁250	-9.99556
▁조사하고	-9.99606
▁그래	-9.99764
니스	-9.99794
▁투자자들	-9.99858
송	-9.99894
법원	-9.9999
닐	-10.0001
만에	-10.0003
▁1998	-10.0007
▁뉴질랜드	-10.0007
▁베트남	-10.0007
▁캠페인	-10.0007
▁헤럴드	-10.0007
▁루이스	-10.0008
▁에이즈	-10.0009
막	-10.0014
▁압둘라	-10.0017
▁실행	-10.002
▁수용소	-10.002
칸	-10.0023
▁설	-10.0024
사인	-10.0025
82	-10.0028
▁아래	-10.003
▁내놓	-10.0037
▁빛	-10.0037
▁터키군	-10.0042
▁지지하는	-10.0044
▁심슨	-10.0046
▁상점	-10.0052
▁경매	-10.006
▁지도	-10.0083
되면	-10.0083
man	-10.0085
▁이들이	-10.0086
딩	-10.0104
▁맨체스터	-10.0105
▁일으키	-10.0105
▁포르투갈	-10.0105
▁600	-10.0106
▁1990	-10.0109
필	-10.0109
▁1980	-10.011
▁힘든	-10.0111
▁이르는	-10.0115
▁관여	-10.0117
▁조각	-10.0118
▁행진	-10.012
▁강경	-10.0122
▁인하	-10.0126
▁중이라고	-10.0131
▁해결하기	-10.0155
▁중요	-10.0162
▁안보리	-10.0164
조사	-10.0167
▁ma	-10.0167
▁지진으로	-10.0175
▁지시	-10.0196
브라	-10.0199
om	-10.02
▁드러났다	-10.0204
▁외곽	-10.0204
▁이끌어	-10.0204
▁휘발유	-10.0204
▁반기문	-10.0204
▁육군	-10.0209
▁민주화	-10.021
age	-10.0214
▁벗어나	-10.0214
tv	-10.022
▁주인	-10.022
▁올렸다	-10.0221
공격	-10.0229
▁해산	-10.0233
▁당선인은	-10.0236
▁길이	-10.0237
개발	-10.0246
제도	-10.0247
▁좋아	-10.026
▁달성	-10.0264
▁중국과	-10.0272
▁포드	-10.0273
▁영화제	-10.0274
대에	-10.0275
▁실망	-10.0276
▁남아	-10.0281
▁하다	-10.0292
▁44	-10.0298
▁무엇	-10.0301
대학	-10.0301
혜	-10.0304
▁ppp	-10.0304
▁믿고	-10.0304
켄	-10.0304
▁첼시	-10.0305
▁로봇	-10.0305
▁나쁜	-10.0306
▁향후	-10.0306
▁주인공	-10.0307
▁학살	-10.0308
▁차관보	-10.0309
▁폭행	-10.0309
▁리비아	-10.0311
▁화학	-10.0319
▁02	-10.0319
산업	-10.0321
▁즐기	-10.0324
77	-10.0327
▁감정	-10.0327
웨	-10.0328
▁한국군	-10.0329
▁가입	-10.0334
리오	-10.0335
▁학대	-10.0337
▁의무	-10.034
려고	-10.0341
▁소개	-10.0344
▁성공했다	-10.0353
▁주석	-10.0357
▁일반적	-10.0361
▁시드	-10.0365
한영	-10.0371
▁워싱턴에서	-10.0374
▁좋지	-10.0388
균	-10.04
멘	-10.0404
▁경선에서	-10.0404
▁얘기	-10.0405
몽	-10.0405
▁답변	-10.0406
▁음반	-10.0408
▁입양	-10.0412
상의	-10.0413
▁테러가	-10.0415
▁경기에	-10.0428
ci	-10.0428
▁등장	-10.0434
만큼	-10.0434
생활	-10.0435
▁외부	-10.0438
▁수백만	-10.044
되며	-10.0441
주에서	-10.0444
▁고객	-10.0445
▁포함해	-10.0449
▁총리와	-10.0455
▁경기장	-10.0458
▁기본	-10.0463
▁노동자	-10.0474
▁유가	-10.0476
▁회담에	-10.0478
▁무대	-10.0483
▁아카데미	-10.0497
웨이	-10.0503
▁해리포터	-10.0507
훨	-10.0507
▁국제유가	-10.0508
▁벌어진	-10.0508
▁덮	-10.0509
▁불참	-10.0511
▁노벨	-10.0512
▁음모	-10.0512
▁웨스트	-10.0512
▁전면	-10.0521
▁반정부	-10.0522
해주	-10.0523
▁곳으로	-10.0524
▁장식	-10.0528
▁잔해	-10.0529
▁예비	-10.0531
참	-10.0534
▁내용이	-10.0542
대회	-10.0546
▁맞서	-10.0547
cm	-10.0547
▁린	-10.0561
▁편지	-10.0562
▁학생들이	-10.0564
one	-10.057
▁중에는	-10.0573
▁거절	-10.0576
25	-10.0577
▁집에	-10.0583
▁수영	-10.0584
네스	-10.0585
▁여기	-10.059
▁mi	-10.0594
▁샌프란시스코	-10.061
▁랭킹	-10.061
▁콘서트	-10.061
▁운항	-10.0611
▁목격	-10.0611
▁앨범	-10.0611
▁질환	-10.0613
▁dna	-10.0613
▁방침	-10.0613
▁소니	-10.0614
▁행복	-10.0615
▁가득	-10.062
▁신체	-10.0634
▁잡지	-10.0634
▁선물	-10.0636
80	-10.064
겼	-10.0641
계획	-10.0647
▁장비	-10.0649
▁폐지	-10.066
▁클	-10.0663
명에	-10.0666
▁전해	-10.0667
▁존슨	-10.0671
q	-10.0678
▁이하	-10.068
▁희생자들	-10.0681
▁회담이	-10.0681
▁광장	-10.0685
▁속도	-10.0688
▁su	-10.0688
▁정부군	-10.0693
▁분리	-10.0693
▁회원국	-10.0694
▁풍	-10.0697
군이	-10.0697
▁공개했다	-10.0703
▁유치	-10.0708
▁조사에서	-10.0709
▁중국에서	-10.0709
▁궁	-10.0713
죠	-10.0715
▁얼음	-10.0716
▁국제적	-10.0718
▁51	-10.072
▁소환	-10.072
▁중부	-10.0722
▁성향	-10.0722
▁영토	-10.0723
▁추적	-10.0735
▁용의자들	-10.0741
▁생존자	-10.0742
▁체니	-10.0743
육	-10.0744
▁병사들	-10.0745
푸	-10.0746
느	-10.0748
▁포인트	-10.0748
웠	-10.0751
▁목격자	-10.0752
듯	-10.0753
▁레이스	-10.0755
▁협회	-10.0766
▁34	-10.0775
▁요구하고	-10.0776
▁방법으로	-10.0781
▁세대	-10.0784
▁언급하지	-10.0787
▁지정	-10.0789
▁충분한	-10.0791
▁탐	-10.0793
▁중재	-10.0795
▁수집	-10.081
럴	-10.0817
▁무릎	-10.082
▁붉은	-10.082
▁페더러	-10.082
▁묘사	-10.082
▁맨유	-10.0823
▁진행된	-10.0823
▁who	-10.0825
▁토론회	-10.0825
▁야생	-10.0826
▁밀란	-10.0826
▁기능	-10.0828
▁주장하는	-10.0829
▁평화적	-10.0832
▁것보다	-10.0835
▁지목	-10.0836
▁시절	-10.084
▁콘	-10.0842
▁주간	-10.0842
▁특정	-10.0845
완	-10.0858
▁솔	-10.0864
▁거주하는	-10.0866
▁블	-10.0868
검사	-10.087
소를	-10.0872
▁멜	-10.0889
찰	-10.0895
▁보상	-10.0908
▁바그다드에서	-10.091
스톤	-10.0911
▁이익	-10.0913
켈	-10.0926
▁모스크바	-10.0926
▁획득	-10.0926
▁특파원	-10.0926
▁다르푸르	-10.0926
▁대다수	-10.0927
▁이메일	-10.0927
▁이르	-10.0929
▁접속	-10.093
려는	-10.093
▁작동	-10.0931
▁방문할	-10.0939
▁대결	-10.0939
▁밑	-10.094
▁시작한	-10.0947
-3	-10.0953
▁행성	-10.0957
tor	-10.096
▁te	-10.0963
국장	-10.0963
▁방지	-10.0964
이션	-10.0967
▁목격자들	-10.0969
▁치르	-10.097
쳤	-10.097
어진	-10.0988
▁철도	-10.099
▁프레	-10.1008
▁이스라엘과	-10.101
▁사용되	-10.1017
탁	-10.1025
▁주는	-10.1029
ba	-10.103
드라	-10.1032
롬	-10.1033
▁다이아몬드	-10.1034
▁밖으로	-10.1034
▁세계대전	-10.1034
지역에서	-10.1035
▁다니	-10.1035
▁생존	-10.1036
▁리콜	-10.1036
▁측근	-10.1036
▁영변	-10.1037
▁둘러	-10.1038
▁폭우	-10.1043
▁주식시장	-10.1047
▁성과	-10.1055
▁공중	-10.1057
▁어디	-10.1068
▁적절한	-10.1071
▁잃었다	-10.1076
폰	-10.1078
알	-10.1079
▁즐	-10.108
▁05	-10.1086
▁원하는	-10.1088
▁니콜	-10.1089
▁자기	-10.109
▁생각하고	-10.1095
▁주문	-10.1098
▁도달	-10.1108
▁모습이	-10.1112
te	-10.1115
므로	-10.1116
▁전개	-10.1116
bs	-10.1118
▁협상이	-10.1121
진다	-10.1125
▁에드	-10.1129
조직	-10.1135
▁president	-10.1142
▁알래스카	-10.1142
▁온난화	-10.1142
▁멸종	-10.1142
▁아일랜드	-10.1143
▁plan	-10.1143
▁금요일	-10.1143
▁will	-10.1144
▁허락	-10.1145
▁저항	-10.1148
▁사살	-10.1151
▁지키	-10.1154
▁모양	-10.1154
▁진실	-10.1157
▁46	-10.1161
▁밖에서	-10.1164
▁출시	-10.1168
▁주목	-10.117
▁잠시	-10.1178
더라	-10.1182
▁교사	-10.1186
▁계획에	-10.1187
▁후임	-10.119
▁취할	-10.1205
▁다우	-10.1216
▁폭발물	-10.1222
▁이스라엘군	-10.1228
▁상어	-10.1229
pa	-10.1234
옥	-10.1238
드로	-10.1249
end	-10.1251
▁헤즈볼라	-10.1252
▁현지시각	-10.1252
▁아이오와	-10.1252
▁nbc	-10.1253
된다고	-10.1253
▁아이들이	-10.1254
▁카페	-10.1259
▁마틴	-10.1259
▁발표된	-10.126
▁시청	-10.1264
▁윤	-10.1264
▁윌	-10.1266
▁심문	-10.1266
▁버마	-10.1272
▁방문했다	-10.1282
▁말합니다	-10.1289
▁나서	-10.1297
어질	-10.1298
▁부근	-10.1301
▁se	-10.1303
▁바라고	-10.1312
▁논란	-10.1315
um	-10.1319
▁봉	-10.132
▁올랐	-10.132
사항	-10.133
▁보였	-10.1342
경제	-10.1353
▁차드	-10.1355
▁내전	-10.1357
덴	-10.1359
▁마시	-10.136
▁이번주	-10.136
▁보면	-10.1361
▁챔피언	-10.1363
▁옮겨	-10.1363
▁유나이티드	-10.1363
▁쿠데타	-10.1363
▁갑자	-10.1364
▁봄	-10.1365
짜리	-10.1367
▁세상	-10.1367
▁체결	-10.1371
▁친구들	-10.1373
▁식당	-10.1373
▁美	-10.1375
▁52	-10.1381
▁서방	-10.1382
십	-10.1385
▁경찰서장	-10.1386
▁예상했다	-10.1394
놓	-10.1395
▁경보	-10.1406
결과	-10.1411
니는	-10.1413
러스	-10.1413
▁대통령에	-10.142
▁사건과	-10.1421
▁v	-10.1434
주일	-10.1434
업자	-10.1435
뉴스	-10.144
▁좋	-10.1447
po	-10.1455
ff	-10.1455
없이	-10.1458
▁기상	-10.1464
▁전투기	-10.1464
켓	-10.1468
ry	-10.1472
▁go	-10.1475
첸	-10.1476
▁여자친구	-10.1476
▁찾고	-10.1476
롱	-10.1476
컬	-10.1476
▁바꾸	-10.1478
▁핵시설	-10.1481
▁담당자	-10.1486
▁800	-10.1487
▁일주일	-10.1489
ine	-10.1489
▁사건으로	-10.1492
▁보통	-10.1494
▁물건	-10.1497
▁기도	-10.1499
▁장악	-10.1507
▁파티	-10.151
▁중독	-10.1513
▁소비자들	-10.1519
▁달라	-10.1521
쪽	-10.1521
▁중대	-10.1524
▁절대	-10.1527
작업	-10.153
▁의식	-10.1531
▁수요	-10.1534
달러에	-10.1538
▁향하	-10.1565
▁가까이	-10.1575
념	-10.1578
▁현재까지	-10.1579
▁대부분이	-10.1585
ang	-10.1587
▁달라이라마	-10.1589
▁떨어지	-10.1589
▁이렇게	-10.1589
▁장례식	-10.1589
▁훌륭	-10.1589
▁겨울	-10.1591
▁북극	-10.1591
▁사실상	-10.1593
▁수감자	-10.1594
▁복구	-10.1595
▁커피	-10.1597
▁명예	-10.1597
▁만날	-10.1598
▁격차	-10.1598
▁일리노이주	-10.1603
조차	-10.1607
▁장관이	-10.1612
영화	-10.1613
▁요원	-10.1613
▁불과	-10.1619
▁원제	-10.162
▁sp	-10.1627
▁답	-10.1628
▁열리	-10.164
▁55	-10.1642
력이	-10.1649
▁케이	-10.1656
▁줄어들	-10.1658
장치	-10.1677
▁강타	-10.1678
▁트리	-10.168
▁보고했다	-10.1681
▁둘	-10.1691
▁사인	-10.1693
▁43	-10.1694
▁제도	-10.1704
탑	-10.1704
▁흡연	-10.1704
▁나이지리아	-10.1704
▁예상되	-10.1704
▁카르자이	-10.1705
혼	-10.1708
▁교환	-10.1708
▁07	-10.1711
▁걸릴	-10.1711
▁행정	-10.1714
▁수상자	-10.1714
▁나누	-10.1714
▁추산	-10.1715
▁배출	-10.1715
▁최선	-10.1717
▁동반	-10.1717
▁치러진	-10.1718
▁몰아	-10.1722
났	-10.1727
▁신임	-10.1729
▁교도소	-10.173
▁파산	-10.1735
▁업계	-10.174
▁벽	-10.1745
▁신호	-10.1756
자리	-10.1766
칭	-10.1767
▁싸	-10.1773
불어	-10.1794
▁검색	-10.1812
▁내에	-10.1815
▁의회의	-10.1816
▁광산	-10.1817
▁증권	-10.1819
▁아메리칸	-10.1821
▁다우존스	-10.1821
▁스리랑카	-10.1821
▁얻어	-10.1821
▁에드워즈	-10.1821
▁쇼핑	-10.1821
▁재무장관	-10.1821
▁설득	-10.1821
im	-10.1823
▁폭락	-10.1824
▁된다고	-10.1825
▁합동	-10.1826
▁폭동	-10.1827
▁오염	-10.1828
▁탐사	-10.1835
▁투어	-10.1836
▁떠	-10.1837
▁인류	-10.1839
▁세워	-10.1842
▁외교적	-10.1843
▁각국	-10.1845
▁요인	-10.1852
득	-10.1869
치고	-10.1869
▁so	-10.1875
▁sh	-10.1877
▁말했	-10.1884
되어야	-10.1885
▁재건	-10.1886
▁제안했다	-10.1887
▁이송	-10.189
▁있어서	-10.189
▁구조대	-10.1894
택	-10.1895
싱	-10.1897
해왔	-10.1903
▁가자	-10.1911
▁국회의원	-10.1912
▁원한다	-10.1913
스티	-10.192
▁회원	-10.1933
ns	-10.1934
닉	-10.1938
정보	-10.1938
▁노스캐롤라이나	-10.1938
▁덴마크	-10.1938
▁오스트리아	-10.1938
▁복잡	-10.1939
▁발굴	-10.194
▁단순	-10.1942
▁일본에서	-10.1943
▁공격이	-10.1949
▁해양	-10.1953
▁강요	-10.1956
▁인종	-10.1962
▁기업들	-10.1965
▁지상	-10.1969
▁스키	-10.1971
▁폐기	-10.1974
▁테러리스트	-10.1977
▁호세	-10.1988
▁오브	-10.1992
▁노력하고	-10.1992
▁지점	-10.1993
▁no	-10.1996
사의	-10.2007
프레	-10.2008
차전	-10.2012
▁본사	-10.2015
▁소수	-10.2015
▁입었	-10.2016
펜	-10.202
▁일본이	-10.2021
▁망	-10.2022
▁결승	-10.2038
▁청소년	-10.2039
▁목적으로	-10.2051
묘	-10.2056
▁누군가	-10.2057
닷컴	-10.2058
▁지진이	-10.2059
▁식품	-10.2062
▁출석	-10.2063
▁기존	-10.2063
▁성관계	-10.2063
▁부담	-10.2066
▁매각	-10.2068
▁셀	-10.2068
▁소설	-10.2076
▁북측	-10.2079
▁nation	-10.208
▁방영	-10.208
▁삼성	-10.208
▁그것이	-10.2084
물이	-10.2087
▁태평양	-10.2092
전에서	-10.2093
▁움직이	-10.2094
▁보유	-10.2096
리그	-10.2097
▁실시되	-10.2099
쟁	-10.21
▁아동	-10.21
▁노동자들	-10.2101
시키려	-10.2104
▁시장에서	-10.2112
▁늘어	-10.2114
▁연주	-10.2116
▁잇	-10.2121
▁tr	-10.2122
▁로한	-10.2126
어스	-10.2127
▁되기	-10.213
▁책임자	-10.2134
걸	-10.214
경찰	-10.2143
▁야기	-10.2145
▁꾸	-10.2145
년이	-10.2148
조원	-10.2149
▁웃	-10.2153
▁계속되고	-10.2156
ap	-10.2166
▁회사들	-10.2167
했음	-10.2174
▁방글라데시	-10.2178
▁주한미군	-10.2178
▁훼손	-10.2178
떼	-10.2178
렐	-10.2178
▁고등학교	-10.2178
▁마카오	-10.2178
▁공산당	-10.2178
▁칠레	-10.2178
▁엄청	-10.2179
▁새끼	-10.218
▁넓	-10.218
▁농축	-10.218
▁하늘	-10.218
▁합류	-10.2182
▁취재	-10.2183
▁대답	-10.2186
▁의존	-10.2186
▁시드니	-10.2186
▁도입	-10.2191
▁측정	-10.2195
▁비율	-10.2196
▁피난	-10.2197
▁거두	-10.2197
후드	-10.2198
했기	-10.2199
았던	-10.2206
▁연구원	-10.2212
▁당신이	-10.2216
빠진	-10.2217
▁수송	-10.2219
▁골드	-10.2222
▁시위에	-10.2227
▁내릴	-10.2228
▁홈	-10.223
▁생물	-10.2246
▁부근에서	-10.2258
▁카드	-10.2261
엄	-10.2266
▁이루	-10.2273
▁베르	-10.2277
ard	-10.228
▁서울에서	-10.2281
▁모인	-10.2287
▁로비	-10.2292
닥	-10.2292
▁나아	-10.2293
부대	-10.2296
▁맞이	-10.2297
님	-10.2298
▁스웨덴	-10.23
▁인디애나	-10.23
튜	-10.23
▁검거	-10.23
연맹	-10.2301
▁관람	-10.2302
▁남아공	-10.2303
▁건축	-10.2303
이기	-10.2303
▁순방	-10.2306
▁화물	-10.2309
▁사담	-10.231
▁발병	-10.2312
▁현실	-10.2315
▁상처	-10.2316
▁따라서	-10.2318
▁의학	-10.2321
▁후원	-10.233
▁만화	-10.2332
pr	-10.2342
▁그림	-10.2343
▁세우	-10.2344
▁부여	-10.2351
900	-10.2358
주는	-10.2366
▁낸	-10.2366
▁본선	-10.2368
▁벌였	-10.2372
▁하이	-10.2372
로스	-10.2373
▁의지	-10.2375
▁북쪽	-10.2382
▁표시	-10.2386
▁조성	-10.2388
▁전날	-10.2392
ong	-10.2393
그룹	-10.2393
▁상승했다	-10.2394
량이	-10.24
▁됩니다	-10.24
▁조사에	-10.2406
▁순찰	-10.2408
▁든	-10.2413
▁왕세자	-10.2417
▁플레이	-10.2417
▁맡	-10.2419
▁해병대	-10.2421
멸	-10.2423
▁네트워크	-10.2423
▁봉쇄	-10.2423
▁혜택	-10.2423
▁습격	-10.2423
▁카스트로	-10.2423
▁49	-10.2427
▁극복	-10.2427
▁대항	-10.2433
400	-10.2434
▁그래서	-10.2435
▁즉각적	-10.2435
데이	-10.2437
▁증가하고	-10.2439
▁결정은	-10.2439
▁전통적	-10.244
▁분명히	-10.2441
▁나갈	-10.2441
▁보복	-10.2441
▁이뤄지	-10.2443
▁개방	-10.2445
▁일간	-10.2449
▁유감	-10.2451
▁방화	-10.2453
장으로	-10.2463
▁보관	-10.2463
06	-10.2464
▁경쟁자	-10.2465
▁53	-10.2475
▁자리에서	-10.2477
들로부터	-10.2479
▁시내	-10.248
▁기다리고	-10.2481
▁부과	-10.2482
▁털	-10.2487
▁공항에서	-10.2492
▁사드르	-10.25
새	-10.2517
▁워	-10.2518
콘	-10.2521
홀	-10.2524
▁그와	-10.2532
객들	-10.2545
훈	-10.2548
▁ioc	-10.2548
▁uefa	-10.2548
▁명확	-10.2548
▁얻기	-10.2548
▁챔피언스리그	-10.2548
▁펼치	-10.2548
▁예루살렘	-10.2548
▁디즈니	-10.2548
▁이재민	-10.2548
▁다니엘	-10.2549
▁목록	-10.2551
▁출판	-10.2553
▁2010	-10.2557
ain	-10.256
▁페루	-10.2561
▁가옥	-10.2561
▁무료	-10.2564
▁모색	-10.2565
▁구출	-10.2565
90	-10.2565
▁많다	-10.2565
▁말까지	-10.2566
▁클라	-10.2566
보호	-10.2568
▁대량	-10.2572
▁항소	-10.258
▁환자들	-10.2586
▁주제	-10.259
800	-10.2597
▁올린	-10.2598
건의	-10.2602
국이	-10.2607
▁피트	-10.2612
하고자	-10.2612
▁승리했다	-10.2621
램	-10.2621
▁의회에	-10.2629
▁국경지역	-10.2634
▁사전	-10.2636
▁이민	-10.2641
킹	-10.2647
맥	-10.2651
▁다이	-10.2653
삼	-10.2654
▁그동안	-10.2655
▁못하는	-10.2667
잉	-10.267
▁원문기사	-10.2675
▁그렇지	-10.2675
▁정확히	-10.2675
릿	-10.2675
▁japan	-10.2675
▁외교통상부	-10.2675
▁2-0	-10.2675
▁북동부	-10.2675
▁파예드	-10.2675
▁운송	-10.2675
▁완벽	-10.2675
▁고발	-10.2677
▁출동	-10.2681
측이	-10.2681
▁노예	-10.2684
점이	-10.2687
▁반군이	-10.2692
져야	-10.2702
▁동성애자	-10.2723
▁불러	-10.2723
해줄	-10.2724
드시	-10.2727
▁분석가	-10.2729
▁열대	-10.273
▁군인들	-10.2732
99	-10.2734
▁초점	-10.2738
▁체제	-10.2738
▁앨	-10.274
▁예수	-10.2741
▁의회에서	-10.2747
분의	-10.2748
▁소식이	-10.2766
▁외교관	-10.2767
▁권한	-10.2768
타르	-10.2769
▁봉사	-10.2769
입어	-10.2777
준다	-10.2784
▁경영	-10.2789
▁03	-10.2795
▁주한	-10.2801
▁주최	-10.2802
▁거뒀다	-10.2803
▁크루즈	-10.2803
▁숫자	-10.2803
▁심지어	-10.2803
▁합병	-10.2807
▁철저	-10.2807
▁과격	-10.2808
▁민감	-10.2808
▁자극	-10.281
▁베이징에서	-10.2823
▁고소	-10.2824
▁진전	-10.2825
▁골프	-10.2827
▁가졌	-10.2828
▁유력	-10.2832
▁수감자들	-10.2835
▁달려	-10.2838
▁유전자	-10.2847
▁형태	-10.2847
▁풀어	-10.2848
▁선언했다	-10.2851
세력	-10.2859
▁진화	-10.2861
78	-10.2861
▁탈출	-10.2864
▁상업	-10.2865
▁있다면	-10.287
▁41	-10.2875
대사	-10.2882
▁지속	-10.289
▁제공하는	-10.2897
▁it	-10.2902
장의	-10.2904
▁이중	-10.2905
▁고향	-10.2907
접	-10.2909
du	-10.2915
2009	-10.2918
▁메이	-10.2926
▁공화국	-10.2931
▁패션	-10.2932
넬	-10.2933
▁마찬가지	-10.2933
밍	-10.2933
▁frb	-10.2933
▁nato	-10.2933
▁폴란드	-10.2933
▁말리키	-10.2935
▁레알	-10.2935
▁응급	-10.2936
▁커플	-10.2936
▁빙하	-10.2941
▁분열	-10.2941
▁입증	-10.2942
▁철군	-10.2942
▁소매	-10.2943
▁체계	-10.2945
아야	-10.2948
▁현금	-10.2949
▁시작했	-10.2949
▁만일	-10.2958
▁보석	-10.2959
▁차관	-10.2964
▁거부했다	-10.2965
▁세포	-10.2967
▁크레	-10.2981
▁돼지	-10.2988
▁64	-10.2995
▁델	-10.2996
우드	-10.3009
▁확실	-10.3009
슬리	-10.3015
▁실패했다	-10.3022
▁주지	-10.3026
▁방향	-10.3027
▁축	-10.3031
셀	-10.3036
▁군정	-10.3038
▁54	-10.3038
▁보고서에서	-10.3039
윈	-10.305
▁pc	-10.3051
▁수퍼	-10.3053
▁보인다고	-10.3053
▁말해	-10.3056
핑	-10.3059
▁po	-10.306
▁dis	-10.3063
▁과학자	-10.3063
꾼	-10.3064
▁사우디아라비아	-10.3064
▁성화봉송	-10.3064
▁청문회	-10.3064
웬	-10.3064
▁에어버스	-10.3065
▁싸움	-10.3065
▁보여줬다	-10.3065
▁민족	-10.3066
▁혁명	-10.3067
▁장착	-10.3068
▁보잉	-10.3069
▁임금	-10.3069
▁윈	-10.3074
트라	-10.3075
▁무죄	-10.3076
▁만난	-10.3079
▁다가	-10.308
▁배경	-10.3082
▁선발	-10.3082
▁소요	-10.3083
▁서신	-10.3088
▁공포	-10.309
▁생각하는	-10.309
▁제조업체	-10.3091
ni	-10.3093
ke	-10.3093
me	-10.3095
▁견해	-10.3095
▁공유	-10.3096
▁위조	-10.31
▁이주	-10.3101
600	-10.3107
▁낙	-10.311
▁보안군	-10.3112
사와	-10.3114
시티	-10.3116
스타인	-10.3116
co	-10.3121
▁인사들	-10.3127
-2	-10.3127
▁캘리포니아주	-10.3128
▁56	-10.3131
▁월드	-10.3132
▁공격에	-10.3134
▁대선에서	-10.3136
장인	-10.3142
▁73	-10.3143
▁이양	-10.3153
측에	-10.3156
▁폭탄이	-10.3161
▁뼈	-10.3162
▁폭격	-10.3169
▁모르	-10.3187
▁영장	-10.3187
값	-10.3191
▁납치된	-10.3193
께	-10.3194
촌	-10.3196
▁태양	-10.3197
넷	-10.3198
▁잃은	-10.3198
▁크라이슬러	-10.3198
▁남동부	-10.3198
▁토마스	-10.3198
▁멀	-10.3199
▁아이디어	-10.3199
▁관찰	-10.32
▁코커스	-10.32
됐었다	-10.3204
▁출산	-10.3206
▁연행	-10.3212
▁테러범	-10.3214
▁따르	-10.3217
달라고	-10.3221
▁이곳에	-10.3224
▁실종된	-10.3224
▁신발	-10.3226
가격	-10.3236
▁발간	-10.3241
▁영국인	-10.3242
▁하면	-10.325
▁클레	-10.3254
▁gm	-10.3261
ga	-10.3271
▁뉴욕에서	-10.328
▁피해가	-10.3282
전문	-10.3287
▁기대하고	-10.329
79	-10.3294
기지	-10.3301
▁결정에	-10.3302
뿐	-10.3307
▁착용	-10.3314
▁방송국	-10.3316
▁발생하지	-10.3317
▁중지	-10.3317
효	-10.3321
얼	-10.3324
▁성공적	-10.3326
▁승객들	-10.3327
▁대회에서	-10.3333
▁맞춰	-10.3333
▁동티모르	-10.3333
▁라스베이거스	-10.3333
▁협박	-10.3333
▁활주로	-10.3333
▁쓰나미	-10.3333
▁리조트	-10.3333
▁삭제	-10.3333
▁타이틀	-10.3334
▁콩고	-10.3335
▁빈곤	-10.3335
▁생긴	-10.334
테러	-10.334
6000	-10.3341
▁부서	-10.3345
▁청구	-10.3346
분간	-10.3346
▁런던에서	-10.3347
▁세계은행	-10.3347
▁인생	-10.3351
적이고	-10.3351
▁받아야	-10.3352
▁수업	-10.3353
▁고립	-10.3353
ity	-10.3354
명에게	-10.3356
▁중순	-10.3363
수록	-10.337
▁재단	-10.3374
▁펜	-10.3375
rt	-10.3379
▁듀	-10.3382
어져	-10.3385
▁이사회	-10.3388
▁무선	-10.34
▁고대	-10.3418
천만	-10.3428
▁라이트	-10.3433
회담	-10.3435
▁죄	-10.3437
▁수상했다	-10.3437
▁안전한	-10.3439
▁알라	-10.3449
ational	-10.3452
▁일리노이	-10.3454
▁것이고	-10.3461
▁주기	-10.3467
웅	-10.3469
▁바르셀로나	-10.347
▁김대중	-10.347
▁파트너	-10.347
▁논평	-10.3471
느냐	-10.3471
▁엄격	-10.3471
▁하원의원	-10.3471
▁빼	-10.3472
연구소	-10.3472
▁모기지	-10.3474
▁복무	-10.3474
▁39	-10.3475
▁회동	-10.3476
▁보낼	-10.3477
▁은퇴	-10.3477
▁값	-10.3477
▁돌아오	-10.3477
▁두바이	-10.3478
▁형제	-10.3485
▁시장에	-10.3486
디스	-10.3488
▁pro	-10.3489
▁구금	-10.3493
▁시각	-10.3494
▁예전	-10.3494
▁총격전	-10.3497
▁기금	-10.3499
행사	-10.3499
▁높아지	-10.3503
▁첫번째	-10.3504
▁프	-10.3506
▁갖게	-10.3507
▁만족	-10.3515
▁이루어지	-10.3518
ear	-10.3518
▁한때	-10.3521
▁케리	-10.3522
▁실적	-10.353
▁난사	-10.3539
되자	-10.3541
▁한국에서	-10.3545
▁신부	-10.3547
▁봤다	-10.3548
▁누리	-10.3561
▁vi	-10.3582
▁선거에	-10.3586
세로	-10.3589
▁중간	-10.359
ant	-10.3591
▁전반적	-10.3602
▁쏟아	-10.3609
▁태어난	-10.3609
▁베를린	-10.3609
▁헨리	-10.3609
▁우리나라	-10.361
▁케이블	-10.361
▁시작되	-10.3611
▁주차	-10.3611
▁1994	-10.3612
▁채택	-10.3612
▁2012	-10.3613
▁디자인	-10.3614
▁데이터	-10.3614
▁하와이	-10.3615
▁카불	-10.3617
▁부정적	-10.3619
시대	-10.3621
▁단속	-10.3623
▁책임이	-10.3624
▁항구	-10.3625
▁불편	-10.3627
▁거쳐	-10.3628
▁지역으로	-10.3628
ure	-10.3629
▁회의에서	-10.3629
▁전역	-10.3633
▁안에서	-10.3637
▁보유하고	-10.3641
▁점차	-10.3644
▁불길	-10.3645
▁표했다	-10.3648
▁운영하	-10.3654
플레	-10.3655
▁61	-10.3656
▁승리한	-10.3657
▁처해	-10.3659
▁만들어진	-10.3662
▁코트	-10.3663
▁치러	-10.3668
▁사용한	-10.367
으면서	-10.367
▁같	-10.3673
▁시티	-10.3684
mon	-10.3686
▁지시했다	-10.3697
ea	-10.3698
▁me	-10.37
▁대학교	-10.37
▁이스라엘이	-10.3718
짜	-10.3721
시위	-10.3733
▁클린턴이	-10.3734
▁사회적	-10.3734
다시	-10.3738
▁보트	-10.3741
▁앞에	-10.3741
▁의미한다	-10.3741
시에	-10.3745
▁요르단	-10.3748
▁3000	-10.3749
콤	-10.375
▁스코틀랜드	-10.375
▁앓고	-10.375
▁애리조나	-10.375
▁휴대전화	-10.375
▁흥분	-10.375
▁섹스	-10.375
클리	-10.375
▁외환은행	-10.375
▁바스라	-10.375
▁면담	-10.3751
▁abc	-10.3752
▁필립	-10.3752
▁실질적	-10.3753
▁해결책	-10.3755
폴	-10.3755
▁작용	-10.376
▁오늘날	-10.3762
▁마쳤다	-10.3764
▁州	-10.3764
▁트레	-10.3765
▁개표	-10.3766
▁공약	-10.3766
▁초래	-10.3768
▁맛	-10.3768
▁유출	-10.3771
타운	-10.3771
▁응답자	-10.3773
▁에어	-10.3773
▁재난	-10.3776
▁유전	-10.3777
뿐만	-10.3777
▁유발	-10.3778
▁신중	-10.3782
▁간단	-10.3785
▁뿐만	-10.3786
▁호텔에서	-10.3796
▁기계	-10.3798
▁여성의	-10.3802
▁않기	-10.3817
▁리그	-10.3817
▁불구	-10.3829
금지	-10.383
▁지켜보	-10.383
▁곡	-10.3839
▁공간	-10.3842
▁요리	-10.3847
▁조합	-10.3853
▁이라크와	-10.3859
▁초대	-10.3863
▁맨	-10.3868
▁전사	-10.3869
▁감독이	-10.387
▁경제에	-10.3872
▁발생하는	-10.3874
▁과도	-10.3876
닌	-10.3881
▁도시에서	-10.3885
과정	-10.3888
룬	-10.3888
핀	-10.3892
▁콜로라도	-10.3893
▁펼쳐	-10.3893
끈	-10.3893
춤	-10.3893
▁불능화	-10.3893
▁천주교	-10.3893
▁격렬	-10.3893
▁급등	-10.3895
▁상태에	-10.3898
▁his	-10.3899
▁경영진	-10.3899
▁do	-10.39
▁백인	-10.39
더스	-10.3901
▁1970	-10.3902
팔	-10.3902
둘	-10.3903
라스	-10.3903
카운티	-10.3904
칼	-10.3904
▁비교	-10.3906
▁중심부	-10.3907
세인	-10.3912
▁여권	-10.3915
담당	-10.3915
▁북미	-10.3918
▁존중	-10.392
▁발전소	-10.3922
▁추정된다	-10.3928
▁상호	-10.393
▁사법	-10.3935
사태	-10.3936
▁크리스티	-10.394
▁달러에	-10.3941
▁하던	-10.3946
▁계속되	-10.3948
▁특수	-10.3949
▁국민들에게	-10.3951
▁사용자	-10.3955
tu	-10.3957
▁논란이	-10.3957
디아	-10.396
▁유대인	-10.3961
비치	-10.3963
바이	-10.3969
브레	-10.3971
▁빚	-10.3981
▁간주	-10.3991
▁자원	-10.4001
▁방법이	-10.4005
▁우리당	-10.4014
▁비용이	-10.4015
▁엘리	-10.4018
세가	-10.4019
▁전쟁에	-10.4021
▁칼리	-10.4021
국으로	-10.4023
▁-	-10.4023
▁65	-10.4023
리스트	-10.4026
혁	-10.4027
▁130	-10.4031
컴	-10.4036
라인	-10.4036
짝	-10.4037
▁일으킨	-10.4037
큐	-10.4037
▁구제금융	-10.4038
▁와인하우스	-10.4038
▁여학생	-10.4039
▁송환	-10.4039
▁저지른	-10.404
▁슈퍼	-10.404
▁당수	-10.4045
▁기밀	-10.4046
▁바닥	-10.4046
▁참석했다	-10.405
▁프로그램에	-10.4051
▁나올	-10.4052
▁낸시	-10.4052
▁펼쳤다	-10.4052
▁것이었다	-10.4062
▁벗	-10.4063
▁싶어	-10.4065
▁over	-10.4068
▁59	-10.407
15	-10.4071
상황	-10.4071
▁녹	-10.4073
▁자문	-10.4078
▁미국측	-10.4079
▁의석	-10.4085
▁요소	-10.4088
▁못한다	-10.409
▁표명	-10.409
▁고객들	-10.4091
어로	-10.4093
연대	-10.4094
▁폭스	-10.4101
▁주장에	-10.4106
련	-10.4107
▁이후로	-10.411
작전	-10.4116
▁죽은	-10.4126
▁불가능	-10.4133
▁62	-10.4135
▁위로	-10.4142
▁법원에	-10.4148
▁회견	-10.4151
▁우주비행사	-10.4156
▁마비	-10.4159
▁ad	-10.4169
▁국방	-10.4173
▁리처드	-10.4175
콩	-10.4182
▁코미디	-10.4183
룰	-10.4184
▁곤잘레스	-10.4185
▁레스토랑	-10.4185
▁블라고예비치	-10.4185
▁블라디미	-10.4185
▁얻을	-10.4185
▁오사마빈라덴	-10.4185
킬로미터	-10.4185
ice	-10.4186
▁이루어졌다	-10.4186
▁못해	-10.4186
▁고위관리	-10.4187
▁자유롭	-10.4187
▁출입	-10.4188
안보	-10.4189
▁테스트	-10.4191
▁검은	-10.4194
▁종류	-10.4195
▁가구	-10.4196
▁체중	-10.4197
농	-10.4203
파운드	-10.4203
▁쓴	-10.4204
캐	-10.4204
100	-10.4205
▁돌파	-10.4208
▁벌어지	-10.4214
our	-10.4214
▁혐의에	-10.422
▁예술	-10.4221
▁사망자수	-10.4222
▁전원	-10.4229
돼있다	-10.4229
▁답했다	-10.4237
▁지질	-10.425
▁물가	-10.4259
마르	-10.426
본부	-10.4265
▁정전	-10.4278
▁제기했다	-10.4284
▁시기에	-10.4291
포트	-10.4292
▁높아	-10.4296
▁고어	-10.4301
▁마감했다	-10.4304
없는	-10.4306
▁개장	-10.4307
mb	-10.4309
▁지속적	-10.4315
▁집으로	-10.4319
뜨	-10.4332
촉	-10.4333
랭	-10.4334
▁선거캠프	-10.4334
▁월스트리트	-10.4334
틱	-10.4334
▁북서부	-10.4334
▁탄핵	-10.4334
▁방콕	-10.4334
▁숀	-10.4336
▁화장실	-10.4336
▁블루	-10.4338
▁받아들이	-10.4338
▁사막	-10.4342
▁산림	-10.4344
8000	-10.4344
▁아르	-10.4345
▁중국에	-10.4346
▁노동당	-10.4347
▁성격	-10.4349
▁도망	-10.4349
▁파손	-10.4355
▁상공	-10.4364
위원장	-10.4373
▁다루	-10.4374
▁만났다	-10.4377
75	-10.4383
▁화해	-10.4385
▁후보자	-10.439
av	-10.439
▁전환	-10.4394
▁이내	-10.4409
▁보호하기	-10.4418
냈	-10.4419
▁계획은	-10.4425
▁생일	-10.443
▁독도	-10.4431
같은	-10.444
▁700	-10.444
▁58	-10.4441
버렸다	-10.4446
▁총장은	-10.4453
▁보지	-10.4454
▁프레스	-10.4459
▁이라크군	-10.446
▁비판했다	-10.4464
▁압둘	-10.447
▁즉각	-10.4476
ot	-10.448
끄	-10.4484
▁from	-10.4485
▁샤라포바	-10.4485
▁나스닥	-10.4485
▁리차드	-10.4485
▁침입	-10.4485
▁스탠	-10.4486
▁패트릭	-10.4486
▁핵프로그램	-10.4487
▁직업	-10.4489
바르	-10.4489
and	-10.449
▁다윈	-10.449
▁강풍	-10.449
▁맞추	-10.4492
▁진영	-10.4495
▁아프가니스탄에서	-10.4495
▁뇌물	-10.4496
▁구축	-10.4497
히려	-10.4497
▁적극적	-10.4498
포드	-10.4498
▁왕실	-10.4498
▁연금	-10.4501
▁전세계적으로	-10.4503
▁화면	-10.4504
▁돌려	-10.4505
▁언어	-10.4506
기록	-10.4509
콜	-10.451
됩니다	-10.4514
특	-10.4514
▁들어갔다	-10.4514
▁직전	-10.4517
▁해임	-10.4518
▁발언에	-10.452
be	-10.4522
▁차단	-10.4523
▁시민들이	-10.4524
▁미술	-10.4531
▁mar	-10.4532
▁선전	-10.4535
▁해적	-10.4538
▁120	-10.4539
해질	-10.4542
▁아니었다	-10.4546
▁편집	-10.456
▁두번째	-10.4571
세트	-10.4574
▁록	-10.4575
▁짓	-10.458
▁여러분	-10.4591
▁개시	-10.4602
▁리드	-10.4605
▁백악관에서	-10.4612
피트	-10.4615
▁자제	-10.4626
유로	-10.4627
▁경비	-10.4629
▁조기	-10.4633
▁전역에	-10.4638
▁government	-10.4639
▁캄보디아	-10.4639
▁미시시피	-10.4639
▁남서부	-10.4639
▁촉발	-10.4639
▁받아들일	-10.4639
▁둘러싸	-10.464
▁성직자	-10.464
▁영웅	-10.4641
▁케빈	-10.4641
▁붙잡	-10.4641
▁포로	-10.4642
▁농장	-10.4642
▁소득	-10.4643
▁법무부	-10.4643
▁근로자	-10.4644
200	-10.4646
뉴	-10.4647
▁축소	-10.4648
▁걸리	-10.4648
▁하게	-10.4649
▁끝내	-10.465
▁물러	-10.4658
▁자사	-10.4662
법안	-10.4664
▁공개적으로	-10.4666
▁맡은	-10.4668
▁완전한	-10.4671
놀	-10.4674
▁산타	-10.4675
영한	-10.4675
▁스타일	-10.4676
▁가는	-10.4676
명도	-10.4679
▁레드	-10.4684
▁공모	-10.4686
간에	-10.4689
점으로	-10.469
▁생각했다	-10.4695
▁자랑	-10.4705
▁법안이	-10.4707
▁논의하기	-10.4711
▁47	-10.4715
▁가능하다	-10.4717
▁자신에게	-10.4718
▁일어났	-10.472
▁로스	-10.4726
▁사무	-10.473
보기	-10.4739
▁숨졌	-10.4763
로우	-10.4765
▁공개된	-10.4766
▁대치	-10.4777
▁열어	-10.4783
▁유럽의	-10.4786
▁올려	-10.4787
▁가택연금	-10.4795
▁궤도	-10.4795
▁마이애미	-10.4795
▁유튜브	-10.4795
▁이끌었	-10.4795
됨	-10.4795
룸	-10.4795
▁알코올	-10.4795
▁비타민	-10.4795
한글뉴스	-10.4795
▁활약	-10.4795
▁중앙일보	-10.4795
▁리치	-10.4795
▁호랑이	-10.4795
▁봉송	-10.4796
▁압수	-10.4796
▁거듭	-10.4796
▁상하이	-10.4796
▁라이벌	-10.4797
▁다우지수	-10.4797
▁자치정부	-10.4797
▁state	-10.4797
▁원칙	-10.4797
▁새벽	-10.4797
▁산사태	-10.4798
▁대륙	-10.4798
▁급증	-10.4799
▁황금	-10.48
▁비치	-10.4802
▁환호	-10.4803
▁진술했다	-10.4804
▁취임식	-10.4804
▁게재	-10.4806
▁천재	-10.4806
▁감금	-10.4808
▁만들고	-10.481
▁그리	-10.4816
▁감지	-10.4817
▁거리에	-10.482
▁들여	-10.482
▁쌀	-10.482
▁우리에게	-10.4821
▁떠났다	-10.4823
▁조류	-10.4824
▁가했다	-10.4827
▁선보	-10.4829
▁애도	-10.483
▁논	-10.4832
휴	-10.4832
봤	-10.4837
▁ra	-10.4839
▁57	-10.485
▁연안	-10.485
원들이	-10.4853
▁날아	-10.4857
▁맥주	-10.4857
▁전부터	-10.486
▁소문	-10.486
▁지내	-10.4873
▁인원	-10.488
▁회사가	-10.4881
▁무리	-10.4887
▁감염된	-10.489
▁단어	-10.4903
▁들어있	-10.4904
▁오바마와	-10.4914
▁평가했다	-10.4916
▁시장이	-10.492
▁인근에	-10.4926
▁직장	-10.4927
원인	-10.4935
▁공항에	-10.4937
▁한국에	-10.4939
▁앉아	-10.4944
▁디지털	-10.4954
▁쌍둥이	-10.4954
▁토네이도	-10.4954
▁minister	-10.4954
▁뉴저지	-10.4954
▁아름다	-10.4954
▁위안부	-10.4954
▁치열한	-10.4954
▁천연가스	-10.4954
▁겨냥	-10.4954
▁화이트	-10.4955
▁법무장관	-10.4955
▁로이터	-10.4955
▁수석대표	-10.4955
▁근육	-10.4955
베나	-10.4956
▁증가한	-10.4959
▁무엇보다	-10.4961
▁벨기에	-10.4961
rd	-10.4961
▁관영	-10.4962
▁사생활	-10.4963
▁공정	-10.4963
▁결심	-10.4966
▁잡고	-10.4968
▁폭파	-10.4969
▁체코	-10.4972
▁연구팀	-10.4974
▁초반	-10.4976
▁시사	-10.4977
▁향상	-10.4978
▁묵	-10.4979
▁나토군	-10.498
▁것인가	-10.4981
▁증상	-10.4983
▁마무	-10.499
▁도착한	-10.4991
▁타임스	-10.4992
벤	-10.4998
▁정신적	-10.5
폭탄	-10.5001
▁언	-10.5006
▁다르	-10.5006
cc	-10.5007
▁에도	-10.5009
▁sc	-10.5016
▁형사	-10.5018
조합	-10.5022
스케	-10.5025
▁이론	-10.5028
▁위대	-10.5035
▁동쪽	-10.5038
▁노인	-10.5039
▁여행객	-10.504
▁주연	-10.5041
▁딕	-10.5049
▁나에게	-10.5049
▁상태로	-10.505
▁공사	-10.5058
디오	-10.5064
▁일제	-10.5071
▁가족과	-10.5075
▁나왔	-10.5076
300	-10.5076
제품	-10.5084
▁호수	-10.5087
▁국민들이	-10.5094
총리	-10.5099
▁키스	-10.5106
안전	-10.5109
▁주었다	-10.5109
▁걸린	-10.5111
▁가상	-10.5113
슐	-10.5115
▁nuclear	-10.5115
▁결선투표	-10.5115
▁뿌리	-10.5115
▁쓰촨성	-10.5115
▁은신처	-10.5115
▁원숭이	-10.5115
▁보스턴	-10.5115
▁침몰	-10.5115
▁가즈니	-10.5116
▁흥미	-10.5116
▁합법적	-10.5116
▁다섯	-10.5116
▁지하철	-10.5117
▁사찰단	-10.5117
▁대상이	-10.5117
▁채널	-10.5118
▁소련	-10.5119
▁겨	-10.5119
▁재무부	-10.512
▁영양	-10.5122
▁종합	-10.5122
▁눈에	-10.5124
▁엔진	-10.513
▁물품	-10.5134
▁부채	-10.5134
▁밴드	-10.5134
▁들어오	-10.5138
▁뛰	-10.5141
▁서쪽	-10.5143
▁카터	-10.5149
▁동기	-10.5152
▁미칠	-10.5153
▁겸	-10.5155
▁약화	-10.5155
▁가해	-10.5156
▁악어	-10.5157
▁변호인	-10.5157
답	-10.5159
▁조약	-10.5162
▁경력	-10.5165
장소	-10.5174
▁칭	-10.5178
▁알카에다와	-10.5179
돼야	-10.5181
▁던지	-10.5187
▁떨어졌	-10.519
▁사람에게	-10.5191
▁세계적	-10.5193
▁정치인	-10.5198
700	-10.5199
▁범	-10.5211
받았다	-10.5214
▁경험이	-10.5217
▁하락세	-10.5217
인데	-10.5226
▁자치	-10.5228
air	-10.5233
▁상승세	-10.5238
▁결승전	-10.524
art	-10.5248
활	-10.5255
▁제대	-10.5264
▁최저	-10.5264
럭	-10.5276
넨	-10.5279
▁pkk	-10.5279
▁늦게	-10.5279
▁마이크로소프트	-10.5279
▁브라이언	-10.5279
▁비핵화	-10.5279
▁아메리카	-10.5279
▁알렉산더	-10.5279
▁왼쪽	-10.5279
▁이산화탄소	-10.5279
왓	-10.5279
▁키바키	-10.5279
▁할머니	-10.5279
▁리히터	-10.5279
▁오딩가	-10.5279
▁거짓말	-10.528
▁날짜	-10.5282
▁남극	-10.5283
▁급격	-10.5283
▁아이폰	-10.5284
▁1996	-10.5284
▁국가안보	-10.5285
▁돌입	-10.5286
▁영업	-10.5287
▁경호	-10.5288
▁이루어	-10.5289
▁벗어	-10.529
▁한국이	-10.529
▁분류	-10.5293
▁포경	-10.5295
▁구조대원들	-10.5295
▁젊은이들	-10.5299
▁초청	-10.53
▁자본	-10.5301
▁기각	-10.5301
▁대립	-10.5303
▁살아있	-10.5308
▁플라	-10.5309
ee	-10.5313
▁밥	-10.532
해야만	-10.5329
rs	-10.533
싸	-10.5331
논	-10.5336
▁투표에서	-10.5338
▁원화	-10.5341
미터	-10.5344
▁주위	-10.5344
▁시한	-10.5344
▁노선	-10.5345
장과	-10.5349
▁공기	-10.5359
렌스	-10.5364
▁기다리	-10.537
기업	-10.5372
▁입법	-10.5375
▁참여한	-10.5378
▁미국인들이	-10.5386
▁장면이	-10.5386
▁가동	-10.5388
▁총상	-10.5389
▁out	-10.5391
▁아프간에서	-10.5392
지역에	-10.5399
▁보내는	-10.5402
▁이란과	-10.5409
▁상상	-10.5411
▁와인	-10.5421
▁전용	-10.5437
차량	-10.5445
흘	-10.5445
▁world	-10.5446
▁뉴햄프셔	-10.5446
▁몸에	-10.5446
▁인플레이션	-10.5446
▁필라델피아	-10.5446
▁스캔들	-10.5446
▁통일부	-10.5446
▁택시	-10.5446
▁테니스	-10.5448
▁라이언	-10.5449
▁탄압	-10.5449
▁사냥	-10.5449
▁부총리	-10.5451
▁만남	-10.5453
▁신문사	-10.5453
▁호소	-10.5456
▁미디어	-10.5458
▁다음날	-10.5458
▁소집	-10.546
▁그대로	-10.5464
min	-10.5467
▁이뤄졌다	-10.5471
▁에릭	-10.5473
▁반복	-10.5473
▁양국간	-10.5479
▁화재로	-10.5481
▁좋다	-10.5497
▁정지	-10.5498
▁2-1	-10.5499
멜	-10.5505
▁일간지	-10.5505
햄	-10.5505
▁위에	-10.5509
▁급속	-10.5512
▁나오지	-10.5515
▁차량에	-10.5519
▁방식으로	-10.5522
스럽게	-10.5528
▁반영	-10.5538
▁홍수로	-10.554
널	-10.5546
▁투쟁	-10.5547
▁만들기	-10.5551
라드	-10.5551
ill	-10.5558
▁것임	-10.5561
▁88	-10.5561
▁당국자	-10.5569
정도	-10.5571
▁소위	-10.5572
▁전복	-10.5579
▁월요일에	-10.5581
▁기록한	-10.5585
▁95	-10.5586
▁가족들이	-10.5587
▁입수	-10.5589
▁문제의	-10.5591
▁해병	-10.5597
09	-10.5604
▁차량이	-10.5605
퀴	-10.5608
▁통계	-10.561
▁메일	-10.561
얀	-10.5611
▁근로자들	-10.5612
▁권고	-10.5614
랙	-10.5615
▁china	-10.5615
▁골키퍼	-10.5615
쌍	-10.5615
톱	-10.5615
▁남자친구	-10.5616
▁에베레스트	-10.5616
▁이슬라마바드	-10.5616
▁구멍	-10.5617
▁단어장	-10.562
▁포럼	-10.5621
▁소탕	-10.5621
▁폭설	-10.5623
▁지휘관	-10.5623
▁주최측	-10.5624
▁코스	-10.5626
▁수상한	-10.5627
▁여론조사에서	-10.5629
▁관중	-10.563
▁브랜드	-10.563
▁물러나	-10.5633
▁x	-10.5636
ction	-10.5636
▁or	-10.5637
▁음주	-10.5639
84	-10.5639
▁비행사	-10.5639
▁진단	-10.5641
▁소형	-10.5642
▁되찾	-10.5643
▁들어간	-10.5645
▁뒤에	-10.5647
▁재임	-10.5648
▁로저	-10.5655
▁예를들	-10.5659
▁연구에	-10.5659
슬러	-10.566
후보	-10.5662
시킨다	-10.5663
▁극장	-10.5664
▁셰	-10.5666
끼	-10.5672
▁쓸	-10.5672
▁유대	-10.5672
▁부산	-10.5674
▁군사적	-10.5675
짓	-10.5677
물질	-10.5686
베리	-10.5688
▁사람들과	-10.569
▁날개	-10.5691
▁66	-10.5697
▁기대한다	-10.5697
▁알려	-10.5698
▁표명했다	-10.5699
▁이식	-10.5699
▁not	-10.5704
페이스	-10.571
▁문제들	-10.571
▁언론에	-10.5711
▁일치	-10.5716
▁미군과	-10.5726
▁브리	-10.5738
▁세력이	-10.5738
ish	-10.5738
▁프라	-10.5743
▁일본과	-10.5745
▁미니	-10.5754
▁제공할	-10.5765
요원	-10.5774
▁공대	-10.5778
▁부상으로	-10.5779
▁먼	-10.578
둥	-10.5784
비용	-10.5788
▁사우스캐롤라이나	-10.5788
▁코끼리	-10.5788
▁후진타오	-10.5788
▁균형	-10.5788
▁펀드	-10.5788
▁hiv	-10.5788
▁감옥	-10.5791
▁순례	-10.5791
▁카라	-10.5791
▁1995	-10.5791
립니다	-10.5791
▁징역형	-10.5792
▁출생	-10.5794
▁종결	-10.5795
▁라덴	-10.5795
▁배후	-10.58
▁결함	-10.5801
▁가리	-10.5813
▁비교적	-10.5816
▁성장률	-10.5816
▁보여준다	-10.5818
▁주장한	-10.582
▁기온	-10.582
▁정치인들	-10.5823
▁순위	-10.5832
▁마리아	-10.5834
▁up	-10.5841
▁토지	-10.5843
▁시체	-10.5843
▁아난	-10.5844
▁게시	-10.5845
▁관계에	-10.5849
▁기소됐다	-10.585
▁정식	-10.5851
▁사태에	-10.5852
동맹	-10.5861
▁피랍	-10.5865
▁이에따라	-10.5865
규모	-10.5865
투표	-10.5867
▁보는	-10.5869
96	-10.587
기술	-10.5878
▁04	-10.588
커스	-10.5888
▁피해자들	-10.5891
▁맡고	-10.5895
▁받는다	-10.59
▁기원	-10.5902
▁자신과	-10.5903
▁물이	-10.5904
▁초안	-10.5917
라이트	-10.5917
▁제작한	-10.5918
▁진행자	-10.5922
▁하나로	-10.5924
한번	-10.5925
사업	-10.5925
tri	-10.5935
▁했었다	-10.5937
▁용기	-10.5937
전쟁	-10.5939
▁중이었다	-10.5944
▁show	-10.5963
▁무슬림	-10.5963
▁뭄바이	-10.5963
▁쿠웨이트	-10.5963
렘	-10.5963
▁섭취	-10.5963
▁줄리아니	-10.5963
▁선관위	-10.5963
▁쓰레기	-10.5963
▁옹호	-10.5963
▁테일러	-10.5963
▁플래	-10.5964
▁승려들	-10.5964
레나	-10.5965
▁국제공항	-10.5965
▁국무	-10.5965
▁인권단체	-10.5969
병원	-10.5971
ty	-10.5972
▁스턴	-10.5976
위인	-10.5977
▁케이트	-10.598
▁관측	-10.5984
▁틀	-10.5989
▁제목	-10.599
▁보일	-10.5991
▁인민	-10.5992
▁가담	-10.5994
▁화상	-10.5996
버스	-10.5998
▁데에	-10.6002
▁일으켰다	-10.6003
▁출연한	-10.6005
▁년간	-10.6008
▁생기	-10.601
▁신사	-10.6021
마자	-10.6023
나무	-10.6025
저널	-10.6025
재판소	-10.6027
▁경호원	-10.6028
스탄	-10.6031
ary	-10.6035
▁많아	-10.6037
▁피부	-10.6038
▁필요성	-10.6046
▁일어났다	-10.6049
▁확인됐다	-10.6053
속도로	-10.6059
▁보고서에	-10.6061
▁수사관	-10.6065
▁테러와	-10.6067
▁time	-10.6068
▁폭발이	-10.6074
▁올라가	-10.6075
▁조명	-10.6078
▁스톤	-10.6079
분에	-10.608
▁자택	-10.608
▁구역	-10.608
▁가게	-10.6093
▁적절	-10.6097
학과	-10.6099
▁남쪽	-10.6102
카드	-10.6103
▁근처에서	-10.6103
▁가방	-10.6117
겠습니다	-10.612
첼	-10.6125
▁진행되는	-10.613
화된	-10.6133
▁버리	-10.6135
만개	-10.6137
▁모아	-10.6138
쇠	-10.614
흥	-10.6141
▁광범위	-10.6142
▁다큐멘터리	-10.6142
▁식료품	-10.6142
▁에콰도르	-10.6142
▁재검토	-10.6142
▁탱크	-10.6142
▁펠로시	-10.6142
안토니오	-10.6142
▁기쁘다	-10.6142
▁1993	-10.6142
▁전당대회	-10.6142
▁마라톤	-10.6142
▁탈북자	-10.6142
▁돌고래	-10.6142
▁스트레스	-10.6142
▁교통사고	-10.6142
▁해도	-10.6143
▁데일리	-10.6143
▁가벼	-10.6144
▁nba	-10.6145
▁예멘	-10.6145
▁지붕	-10.6145
▁억제	-10.6145
▁소규모	-10.6145
▁사용해	-10.6146
▁농업	-10.6147
▁탑승객	-10.6148
▁방송사	-10.6149
▁관계당국	-10.615
▁보존	-10.615
▁범행	-10.6151
▁화려	-10.6155
▁감바리	-10.6157
▁실업	-10.6159
to	-10.616
▁동생	-10.616
▁갑작스	-10.616
▁종식	-10.6166
▁치명적인	-10.6166
▁재판관	-10.6166
▁적발	-10.6168
▁가족이	-10.6178
▁하나인	-10.6178
▁투르	-10.6179
▁72	-10.6179
▁발생하고	-10.618
▁자행	-10.6182
▁수위	-10.6201
▁결과에	-10.6201
▁북쪽으로	-10.6205
▁비난하는	-10.6206
▁부실	-10.6207
▁조용	-10.6209
▁착수	-10.6211
쪽으로	-10.6212
▁군은	-10.6213
▁기차	-10.6222
▁위협이	-10.6224
ance	-10.6224
▁이란에	-10.6224
▁총회	-10.6229
털	-10.623
▁낼	-10.6242
▁you	-10.6244
▁선포했다	-10.6247
▁수사관들	-10.6249
구역	-10.6253
베르	-10.6258
▁브로	-10.626
▁제정	-10.6267
▁수리	-10.6267
▁파도	-10.6268
▁여성들이	-10.6273
▁밴	-10.6275
▁참석할	-10.6277
▁남부에서	-10.6284
▁국적	-10.6285
bur	-10.6286
▁내렸	-10.6288
380	-10.6297
▁세계적으로	-10.6298
켜	-10.6298
흉	-10.6315
▁선원	-10.6316
븐	-10.6324
▁1991	-10.6324
▁dvd	-10.6324
▁국제원자력기구	-10.6324
▁돕기	-10.6324
▁듣고	-10.6324
▁샌디에이고	-10.6324
▁캐릭터	-10.6324
▁협약	-10.6324
헐	-10.6324
▁과반수	-10.6324
▁받아들여	-10.6324
▁횡령	-10.6324
week	-10.6324
▁일어날	-10.6324
▁파나마	-10.6324
way	-10.6324
▁침공	-10.6324
▁롬니	-10.6324
▁수립	-10.6325
▁계좌	-10.6325
▁뉴욕시	-10.6326
▁무게	-10.6327
▁이름이	-10.6327
▁표준	-10.6329
▁검문소	-10.633
▁레이건	-10.6332
국민	-10.6333
▁1960	-10.6333
▁일련	-10.6334
▁차별	-10.6336
▁거부권	-10.6336
▁신규	-10.6337
▁개정안	-10.6338
▁센	-10.634
▁이용하는	-10.6341
▁숲	-10.6342
▁판정	-10.6343
▁늘어나	-10.6348
▁경관	-10.636
▁월가	-10.636
▁마친	-10.6361
▁이륙	-10.6361
▁배가	-10.6362
▁불어	-10.6367
▁반박	-10.6368
▁원주민	-10.6369
ger	-10.637
▁정상화	-10.6371
▁day	-10.638
▁대피했다	-10.6384
리트	-10.6384
▁퀸	-10.6384
▁성당	-10.6395
▁보여주고	-10.6395
▁차지하고	-10.6396
▁쓰고	-10.6408
시스템	-10.6417
▁세부	-10.6424
▁기부	-10.6432
▁보냈	-10.6432
률이	-10.6438
▁근거로	-10.6439
▁지점에서	-10.6441
▁md	-10.645
▁테러리스트들	-10.6452
▁실시할	-10.6457
조건	-10.646
호가	-10.6461
▁주장한다	-10.6462
▁운명	-10.6467
▁사용하지	-10.6467
▁car	-10.6474
▁적십자	-10.6475
▁갔다	-10.6478
학생	-10.6479
▁수십명	-10.6483
▁후보들	-10.6486
▁intern	-10.6492
쉽	-10.6498
▁충돌이	-10.6499
괴	-10.65
▁신조	-10.6502
첨	-10.6506
▁메르켈	-10.6509
▁안전보장이사회	-10.6509
▁확장	-10.6509
슛	-10.6509
얄	-10.6509
▁데이비스	-10.6509
▁홈페이지	-10.6509
▁발휘	-10.651
▁녹음	-10.6511
▁영화배우	-10.6512
▁래리	-10.6512
▁용납	-10.6512
축구연맹	-10.6513
▁특징	-10.6513
▁출두	-10.6515
▁싸우	-10.6516
▁저희	-10.6516
▁회계	-10.652
▁척	-10.6521
▁요금	-10.6521
▁조지아주	-10.6523
▁war	-10.6524
▁당초	-10.6525
▁조언	-10.6527
▁해안에서	-10.6532
▁상영	-10.6534
oo	-10.6536
▁정책에	-10.6537
▁news	-10.6539
▁서울시	-10.6542
▁모임	-10.6543
▁운영하고	-10.6546
▁모건	-10.6546
▁누르	-10.6547
▁사용했다	-10.6547
▁진보	-10.6551
▁제출했다	-10.6551
▁미치는	-10.6553
▁운전자	-10.6553
▁오하이오주	-10.6554
▁나이트	-10.6555
▁2500	-10.6559
등급	-10.6563
▁팀이	-10.6563
▁품	-10.6565
▁서안	-10.6565
▁있어야	-10.6566
89	-10.6567
에게서	-10.6568
▁혼자	-10.6569
▁모리	-10.6572
▁생산량	-10.6573
▁수배	-10.6573
12	-10.6578
▁달러화	-10.6595
▁운전사	-10.6597
▁하미	-10.66
▁여지	-10.6601
▁손에	-10.6605
7000	-10.6608
▁투명	-10.661
전선	-10.6617
▁지원할	-10.6618
▁않았던	-10.6623
▁계속될	-10.6627
▁한국인들	-10.6632
스테	-10.6633
▁달린	-10.6634
▁발견한	-10.6638
▁통신이	-10.6642
64	-10.6642
▁동맹국	-10.6643
▁보조	-10.665
▁확신한다	-10.6656
▁69	-10.6657
자들과	-10.666
▁유럽에서	-10.666
▁물에	-10.6662
▁실종자	-10.6662
▁지분	-10.6667
▁얼	-10.6679
▁보게	-10.669
▁예정인	-10.6692
닷	-10.6697
▁obama	-10.6698
▁낮추	-10.6698
▁매니저	-10.6698
▁애완견	-10.6698
▁어렵다	-10.6698
▁줄기세포	-10.6698
▁프랭크	-10.6698
▁항공우주국	-10.6698
왈	-10.6698
▁앤드류	-10.6698
▁퇴임	-10.6698
▁공산주의	-10.6698
▁난민촌	-10.6698
▁침대	-10.6699
▁축출	-10.67
▁완료	-10.6701
▁귀환	-10.6701
▁쿠퍼	-10.6704
▁탄생	-10.6704
▁쉽지	-10.6706
▁음성	-10.6718
▁스타디움에서	-10.6719
▁원래	-10.6719
▁부위	-10.672
▁선임	-10.6723
카르	-10.6724
타임	-10.6726
▁밝혀진	-10.6727
▁매체	-10.6728
분만에	-10.6732
▁ro	-10.6742
hi	-10.6746
버린	-10.6756
▁회원국들	-10.6757
사회	-10.6762
▁텍사스주	-10.6768
▁없게	-10.6782
▁다르다	-10.6782
▁최고치	-10.6786
▁사용된	-10.6788
▁중단할	-10.6797
▁추세	-10.6798
ls	-10.6798
▁상태에서	-10.68
▁증세	-10.6801
솔	-10.6803
홍	-10.6803
▁폰	-10.6805
풀	-10.6806
▁깊이	-10.6809
▁정원	-10.6826
▁합의한	-10.6831
▁했습니다	-10.6832
▁생각하지	-10.6836
워드	-10.6846
▁행사에	-10.6848
▁교황은	-10.6854
▁페이지	-10.6858
있었다	-10.6858
▁무어	-10.686
▁결과로	-10.6871
▁스파이	-10.6872
▁수면	-10.6873
▁딸이	-10.6877
봐	-10.6884
템	-10.689
▁foreign	-10.689
▁얻고	-10.689
▁플라스틱	-10.689
쿨	-10.689
▁자카르타	-10.689
▁마흐디	-10.689
▁샘플	-10.689
▁옐친	-10.689
▁침략	-10.689
▁나타난	-10.689
▁롤링	-10.689
▁경기부양책	-10.689
▁졸업	-10.689
▁예비선거	-10.689
▁어깨	-10.689
▁득표율	-10.6891
▁졸리	-10.6891
▁헌법재판소	-10.6891
▁하락한	-10.6892
었는지	-10.6892
▁옆	-10.6893
▁떠난	-10.6894
▁복역	-10.6894
▁급락	-10.6894
▁다국적군	-10.6895
▁옆에	-10.6895
▁솔직	-10.6896
▁끝날	-10.6896
▁창출	-10.6896
데스	-10.6902
▁리처드슨	-10.6902
▁방출	-10.6904
▁68	-10.6907
▁화요일에	-10.6908
▁부상당	-10.6909
▁틸	-10.691
▁일본인	-10.6912
▁취하	-10.6915
▁최저치	-10.6915
▁키우	-10.6915
▁발포	-10.6916
▁교도소에	-10.6917
▁중단했다	-10.6919
▁바르	-10.6922
▁후보와	-10.6923
▁제약	-10.6925
▁소식통이	-10.6929
▁발견되었다	-10.6929
▁1500	-10.694
지원	-10.6945
방위	-10.695
▁예정이었다	-10.695
▁부유	-10.695
▁하루에	-10.6952
▁계속된	-10.6953
단계	-10.6957
▁기여	-10.6961
▁창문	-10.6969
▁인력	-10.6974
▁조건으로	-10.6996
▁문제와	-10.7
▁촬영한	-10.7004
않	-10.7005
▁공개됐다	-10.7009
줬	-10.7014
▁작업에	-10.7022
▁치러지	-10.7024
▁청사	-10.7027
▁있으	-10.7027
시오	-10.7028
▁아들이	-10.7032
▁최근에	-10.7032
▁뉴욕주	-10.7033
▁늘리	-10.7048
▁단체들	-10.7054
▁are	-10.7055
▁식사	-10.7059
▁해상	-10.7062
▁협상에	-10.7069
▁63	-10.7075
rea	-10.7084
딜	-10.7085
냉	-10.7086
▁뮤지컬	-10.7086
▁윔블던	-10.7086
▁일으킬	-10.7086
▁중동평화	-10.7086
▁프리미어리그	-10.7086
▁노르웨이	-10.7086
▁퍼거슨	-10.7086
▁외무성	-10.7086
▁알렉스	-10.7086
▁여겨지	-10.7086
▁빠질	-10.7086
▁좌절	-10.7086
▁검증	-10.7086
▁유혈사태	-10.7086
▁브리핑	-10.7086
▁데이빗	-10.7086
▁탐험	-10.7087
▁낙태	-10.7088
▁로딕	-10.7089
▁상륙	-10.7089
▁빌딩	-10.7089
▁동일한	-10.7089
▁생방송	-10.709
▁mu	-10.709
▁전부	-10.709
▁인근에서	-10.709
▁드러냈다	-10.7093
▁오마르	-10.7093
▁남겨	-10.7094
▁실업률	-10.7094
▁번역	-10.7097
▁백신	-10.7097
▁이뤄진	-10.7098
▁몰려	-10.71
에이커	-10.71
▁분량	-10.71
▁서양	-10.7101
▁무장대원	-10.7102
▁매달	-10.7103
▁본토	-10.7106
▁분석가들은	-10.7106
▁접전	-10.7111
티스	-10.7113
▁발행	-10.7118
▁알렸다	-10.7119
▁측면	-10.7121
▁포함돼	-10.7126
니까	-10.7129
▁잡아	-10.713
▁홍	-10.7134
▁의사들	-10.7137
▁촉구하	-10.7143
▁바라는	-10.7148
▁싱	-10.7154
▁건물이	-10.7156
▁해주	-10.716
▁자택에서	-10.7162
▁학교에	-10.7164
▁않기로	-10.7176
▁방문하는	-10.718
▁거절했다	-10.7181
18	-10.7182
land	-10.7183
▁냈다	-10.7194
▁정권이	-10.7194
월드	-10.7195
▁살았	-10.7203
▁댄	-10.7207
앤	-10.7208
4000	-10.7208
▁후보인	-10.721
밤	-10.7211
교육	-10.7213
▁햄	-10.7215
▁잡스	-10.7226
▁자리에	-10.7229
▁포장	-10.7232
▁동의했다	-10.7242
▁가르	-10.7248
▁지지자들이	-10.7265
내용	-10.727
▁수여	-10.727
헨	-10.7286
덩	-10.7286
▁멤버	-10.7286
▁에티오피아	-10.7286
▁오토바이	-10.7286
▁파바로티	-10.7286
▁피라미드	-10.7286
▁휩쓸	-10.7286
넌	-10.7286
▁카트리나	-10.7286
▁게릴라	-10.7286
▁느낄	-10.7286
▁배터리	-10.7286
▁보이콧	-10.7286
▁징계	-10.7286
▁암컷	-10.7286
▁여섯	-10.7287
▁라파엘	-10.7287
▁정거장	-10.7287
▁빠지	-10.7287
▁mbc	-10.7287
▁음료	-10.7289
▁착	-10.729
▁오른쪽	-10.7291
▁포착	-10.7291
▁외환	-10.7294
▁표결	-10.7294
▁상대방	-10.7296
▁통증	-10.7296
▁처방	-10.7298
▁국기	-10.73
▁히트	-10.7301
▁이슬람교	-10.7305
▁멀리	-10.731
▁않는다면	-10.731
공사	-10.7312
▁모금	-10.732
▁국가에서	-10.7326
년만	-10.7326
▁발표됐다	-10.733
▁유산	-10.7341
▁사설	-10.7343
▁해당하는	-10.7343
▁레바논군	-10.7345
▁전달했다	-10.7346
▁대리	-10.7353
▁타임	-10.7354
▁제리	-10.7356
▁상원의원과	-10.7357
업자들	-10.7366
▁카리	-10.7368
▁소유하고	-10.737
▁법원에서	-10.737
▁플로리다주	-10.737
▁지원하는	-10.739
▁세트	-10.7393
▁서장	-10.7394
어서	-10.7394
ting	-10.74
▁노리	-10.741
벽	-10.7411
▁참여할	-10.7412
굴	-10.7412
▁알지	-10.742
▁전해지	-10.7422
▁움직	-10.7425
▁단체인	-10.7426
▁외치	-10.7428
▁청년	-10.7439
▁기울이	-10.744
소리	-10.7442
ted	-10.7447
▁지대	-10.7448
▁유도	-10.7449
▁외국인들	-10.7449
리언	-10.7452
▁파운드	-10.7465
여행	-10.747
▁140	-10.748
▁연구원들	-10.7483
▁배심원	-10.7486
텍	-10.749
툴	-10.749
▁again	-10.749
▁관타나모	-10.749
▁루이지애나	-10.749
▁펜실베니아	-10.749
팩	-10.749
▁마돈나	-10.749
▁비틀즈	-10.749
▁1992	-10.749
▁앤더슨	-10.749
▁원자력	-10.749
▁imf	-10.749
▁잇따	-10.749
▁득점	-10.749
▁서식지	-10.749
▁객실	-10.749
▁불가리아	-10.749
스틴	-10.7491
▁의뢰	-10.7491
▁떠올	-10.7492
▁fda	-10.7495
▁화합	-10.7495
fc	-10.7497
▁테러조직	-10.7497
▁산책	-10.7498
▁내려졌다	-10.7499
▁76	-10.7499
▁종료	-10.75
▁대학생	-10.7501
▁콜린	-10.7502
▁온도	-10.7504
▁오스카	-10.7504
▁통행	-10.7506
▁전국적으로	-10.7509
▁개편	-10.7509
▁승무원들	-10.7512
▁군복	-10.7516
사무소	-10.752
▁보급	-10.7525
▁회의에	-10.7528
▁열렸다	-10.7529
세계	-10.753
▁불행	-10.7531
▁인터	-10.7532
▁엄	-10.7533
▁마을에서	-10.7535
▁도심	-10.7539
▁자동	-10.7539
▁기술자	-10.7539
▁재직	-10.754
▁막아	-10.7545
▁방향으로	-10.7556
▁조지아	-10.7561
당했다	-10.757
47	-10.7573
죄	-10.7574
▁군인들이	-10.7574
▁위원	-10.7582
▁화장	-10.7582
▁판다	-10.7584
▁다음주	-10.7587
▁처한	-10.7591
▁계기	-10.7599
▁몰고	-10.76
▁제시했다	-10.7612
늘	-10.7617
▁sk	-10.7621
확실한	-10.7624
1000	-10.7631
자동차	-10.7633
빛	-10.7634
▁범인이	-10.7636
▁실시했다	-10.7645
▁지지한다	-10.7647
▁해소	-10.7661
수술	-10.7665
신문	-10.7672
▁중심가	-10.7672
▁프라이머리에서	-10.7681
▁커지	-10.7691
▁대학에서	-10.7693
엇	-10.7694
▁talks	-10.7698
▁visit	-10.7698
▁work	-10.7698
▁경기침체	-10.7698
▁끔찍	-10.7698
▁자유무역협정	-10.7698
▁히틀러	-10.7698
▁아테네	-10.7698
▁자선단체	-10.7698
킴	-10.7698
▁준결승	-10.7698
▁take	-10.7698
▁중남미	-10.7698
▁벽돌	-10.7699
▁공룡	-10.77
▁살아남	-10.77
▁탄광	-10.7702
▁거짓	-10.7703
분께	-10.7703
▁금액	-10.7704
▁탈락	-10.7704
▁점검	-10.7706
▁세웠다	-10.7708
않게	-10.7711
▁이틀간	-10.7711
▁아마디	-10.7713
▁american	-10.7713
▁nk	-10.7715
▁잠재적	-10.7717
▁자신감	-10.772
▁매출	-10.7721
▁중요성	-10.7723
▁야구	-10.7728
▁촉진	-10.773
▁한국은행	-10.7731
▁제출한	-10.7731
▁강행	-10.7731
▁포함하여	-10.7732
▁남용	-10.7732
▁피살	-10.7733
▁접수	-10.7733
▁소식에	-10.7735
▁존경	-10.7735
▁인형	-10.7737
▁실린	-10.7738
▁군함	-10.774
▁밀어	-10.7742
▁좋아하는	-10.7747
mm	-10.7753
▁상승한	-10.7761
▁67	-10.7779
▁4000	-10.7782
업계	-10.7796
▁7000	-10.78
위원	-10.7804
▁남편이	-10.7805
vs	-10.7826
▁all	-10.7827
▁잃었	-10.7828
혔	-10.7828
▁클로	-10.7831
▁74	-10.7837
짐	-10.7839
▁고급	-10.7839
▁사용하고	-10.7839
셰	-10.7848
▁각자	-10.7848
서비스	-10.7849
태평양	-10.7849
▁손해	-10.7849
▁제보	-10.785
day	-10.7855
감독	-10.786
▁160	-10.786
진압	-10.7874
때까지	-10.7879
대책	-10.788
▁부모들	-10.7881
▁유인	-10.7881
▁기소된	-10.7882
연방	-10.7885
▁건너	-10.7885
노동	-10.789
tt	-10.7898
▁수행하	-10.7899
돼있	-10.79
덤	-10.7907
▁줄리	-10.7908
▁opec	-10.7911
▁seoul	-10.7911
▁루아얄	-10.7911
▁우주왕복선	-10.7911
▁울포위츠	-10.7911
▁허커비	-10.7911
社	-10.7911
▁드러내	-10.7911
▁지지선언	-10.7911
▁center	-10.7911
▁소행성	-10.7911
▁징후	-10.7911
▁시라크	-10.7911
▁벌써	-10.7912
▁막대한	-10.7912
▁매춘	-10.7912
▁재미있	-10.7912
▁본격적	-10.7913
▁세인트	-10.7913
▁떠날	-10.7914
▁술집	-10.7915
▁디스크	-10.7916
통제	-10.7916
▁넘겨	-10.7916
▁사이클	-10.7918
▁새롭	-10.7918
▁함유	-10.7919
▁풀려	-10.7922
▁통과시켰다	-10.7922
▁카르	-10.7924
▁조항	-10.7925
▁매매	-10.7926
▁집권당	-10.7926
▁형식	-10.7927
▁플레이어	-10.7927
▁승부	-10.7928
▁범위	-10.7929
▁국방성	-10.793
▁염	-10.7931
▁아담	-10.7932
▁갈라	-10.7933
▁놓여	-10.7933
▁암호	-10.7934
▁준수	-10.7935
▁서류	-10.7935
▁실무	-10.7943
▁도청	-10.7945
▁얼마전	-10.7945
▁강세	-10.7947
▁벌어졌다	-10.7948
▁연계	-10.7948
▁실직	-10.7949
▁로브	-10.795
▁흔	-10.7953
▁탄소	-10.7955
▁정기적	-10.7961
▁표면	-10.7963
▁우즈	-10.7965
▁운동가들	-10.7966
▁라이브	-10.7968
▁연간	-10.7968
▁호소했다	-10.797
▁학생이	-10.7973
▁있었습니다	-10.7978
▁정계	-10.7987
tic	-10.799
▁임원	-10.7994
▁기울	-10.7998
▁취한	-10.7999
다란	-10.8002
▁동성	-10.801
직원	-10.8012
▁국가들이	-10.8016
▁내려진	-10.8019
▁포함됐다	-10.8026
ner	-10.8026
▁본다	-10.803
14	-10.8039
▁포함된	-10.8041
▁대통령직	-10.8049
▁나선	-10.805
▁곰	-10.8051
▁전역에서	-10.8052
▁au	-10.8054
▁참가자들	-10.806
▁포트	-10.806
▁취해	-10.8067
하우스	-10.8069
94	-10.8102
▁약세	-10.8105
▁동료들	-10.8105
▁내정	-10.811
이라면	-10.8115
▁부족하다	-10.8121
▁대전	-10.8124
쾌	-10.8125
▁기분	-10.8126
▁경사	-10.8126
뒀	-10.8129
▁디자이너	-10.8129
▁베네딕	-10.8129
▁싶지	-10.8129
▁옮기	-10.8129
▁우울증	-10.8129
▁조승희	-10.8129
랩	-10.8129
셨	-10.8129
톨	-10.8129
▁고이즈미	-10.8129
▁쇠고기	-10.8129
▁글로벌	-10.8129
▁포르노	-10.8129
▁흘러	-10.8129
▁퇴원	-10.8129
▁저항세력	-10.8129
▁교섭	-10.813
▁cdc	-10.8132
▁용의자로	-10.8132
강전에서	-10.8132
▁more	-10.8132
▁필요로	-10.8132
▁1989	-10.8134
코프	-10.8134
▁다룬	-10.8135
▁지역사회	-10.8135
베르토	-10.8136
▁핵개발	-10.8137
▁양곤	-10.8137
▁경향	-10.8138
▁정착	-10.8139
▁계산	-10.8139
▁왕세자비	-10.814
▁상담	-10.8141
▁개인적	-10.8146
▁쏘	-10.8151
▁장교	-10.8152
▁ge	-10.8156
▁대대적	-10.8158
▁조절	-10.816
▁물체	-10.8161
▁뿐이다	-10.8161
▁경비원	-10.8165
▁공판	-10.8167
▁소동	-10.8168
▁메리	-10.817
▁부당	-10.817
▁통보	-10.8171
▁인공	-10.8171
▁여기에	-10.8174
대원들	-10.818
▁챔피언십	-10.819
▁게리	-10.8192
▁점거	-10.8195
▁사체	-10.8199
▁신분	-10.8211
▁악화되	-10.8218
▁제공한	-10.8218
▁결승전에서	-10.8221
선거	-10.8224
▁승인했다	-10.8225
▁gu	-10.8228
▁지식	-10.8236
▁여행객들	-10.824
▁경매에	-10.8241
▁정보부	-10.8242
▁양성	-10.8244
▁서서	-10.8245
▁있을지	-10.8245
▁고려하고	-10.8246
▁모르는	-10.8249
▁71	-10.8251
▁희망한다	-10.8254
▁가족들과	-10.8256
▁탄도	-10.8271
68	-10.8271
▁탈레반측	-10.8274
▁공안	-10.8282
▁감소했다	-10.8285
▁아프	-10.8288
▁기아	-10.829
▁85	-10.8296
▁두려워	-10.8305
▁도시인	-10.8309
범죄	-10.8322
tion	-10.8322
▁공무원	-10.8338
스런	-10.8339
픈	-10.8341
▁대법원장	-10.8344
▁덧붙	-10.8348
졸	-10.8349
겁	-10.835
▁high	-10.8351
▁party	-10.8351
▁금메달	-10.8351
▁뉴올리언스	-10.8351
▁비서실장	-10.8351
▁아닙니다	-10.8351
▁압바스	-10.8351
▁온실가스	-10.8351
▁최첨단	-10.8351
▁톰슨	-10.8351
▁노트북	-10.8351
▁두려움	-10.8351
▁심장마비	-10.8351
▁멈추	-10.8351
head	-10.8351
▁open	-10.8351
▁윈도우	-10.8351
▁우간다	-10.8351
▁무너지	-10.8351
▁스크린	-10.8351
▁오프라	-10.8351
▁알바니아	-10.8351
▁이자율	-10.8352
▁동물들	-10.8352
▁win	-10.8353
▁개막	-10.8353
▁부사장	-10.8353
▁기상청	-10.8354
▁구호단체	-10.8355
▁받아왔다	-10.8356
라이브	-10.8356
▁워터	-10.8356
▁갈등	-10.8357
▁고유가	-10.8357
▁has	-10.8358
버트	-10.8359
▁타밀	-10.836
▁연례	-10.8361
▁러드	-10.8362
▁붙여	-10.8363
▁구름	-10.8364
▁풍부	-10.8365
▁가짜	-10.8368
천명	-10.8371
▁미첼	-10.8371
▁테러단체	-10.8372
▁보건부	-10.8374
▁발급	-10.8375
▁my	-10.8376
▁휴대	-10.8377
▁by	-10.838
▁열심	-10.838
▁발발	-10.8381
▁모래	-10.8381
▁기증	-10.8382
▁문구	-10.8385
▁무슨	-10.8389
▁지위	-10.8389
▁명성	-10.8394
▁모터	-10.8397
▁스토	-10.8398
▁참석하지	-10.8399
▁남측	-10.84
▁진지	-10.8402
몬드	-10.8408
▁의상	-10.8412
▁주립	-10.8415
자료	-10.8415
▁파리에서	-10.8417
▁달간	-10.842
조사에따르면	-10.8422
over	-10.8422
▁흔적	-10.8424
▁확산되고	-10.8427
▁맹	-10.8431
내내	-10.844
63	-10.8452
bar	-10.8452
▁신화	-10.8462
▁바위	-10.8469
▁농민들	-10.8475
▁점수	-10.8485
리안	-10.8487
티아	-10.8488
구조	-10.8491
▁동성애	-10.8493
bi	-10.8494
▁결정적인	-10.8499
▁가중	-10.8499
▁캔	-10.8523
▁명백	-10.8531
사령관	-10.8531
▁이어지	-10.8536
호프	-10.8536
▁테리	-10.8536
va	-10.8538
aw	-10.8559
어요	-10.8562
▁추구하	-10.8565
▁살해했다	-10.8565
▁거부하	-10.8569
ny	-10.8574
▁벌여	-10.8576
▁troop	-10.8578
▁그렇다	-10.8578
▁로드리게스	-10.8578
▁빅토리아	-10.8578
▁오클라호마	-10.8578
▁위스콘신	-10.8578
▁이브라힘	-10.8578
▁잃어버	-10.8578
▁찾지	-10.8578
▁펼친	-10.8578
▁평화유지군	-10.8578
▁플루토늄	-10.8578
▁브래드	-10.8578
▁의약품	-10.8578
▁house	-10.8578
▁도요타	-10.8578
▁대서양	-10.8578
▁허드슨	-10.8578
▁적합한	-10.8578
▁아마디네자드	-10.8578
▁해수면	-10.8578
▁빼앗	-10.8578
▁금융위기	-10.8578
▁인터폴	-10.8578
▁야생동물	-10.8578
▁교착상태	-10.8579
▁압도적	-10.8579
▁남아프리카	-10.8579
▁터널	-10.8579
able	-10.858
▁품목	-10.858
▁남학생	-10.858
▁무덤	-10.8582
▁체포됐	-10.8583
▁되며	-10.8584
널리	-10.8584
▁머무	-10.8586
▁세탁	-10.8586
▁취급	-10.8586
▁들어갈	-10.8587
▁박탈	-10.8587
▁채취	-10.8587
▁부탁	-10.8588
▁예약	-10.8589
▁학교에서	-10.859
▁모욕	-10.859
▁끌어들	-10.8591
▁모술	-10.8592
▁이루어진	-10.8593
▁고위급	-10.8593
▁플로	-10.8593
▁법무	-10.8595
▁밀려	-10.8598
▁패스	-10.86
▁시인했다	-10.86
▁양쪽	-10.8603
bc	-10.8603
▁완성	-10.8605
▁단행	-10.8605
▁당해	-10.8606
▁포터	-10.861
ah	-10.8611
▁군사력	-10.8611
▁빠졌다	-10.8611
▁구류	-10.8613
19	-10.8614
▁유통	-10.8615
주전	-10.8616
야드	-10.8618
▁봤	-10.8618
▁배제	-10.862
▁유행	-10.8622
▁회수	-10.8623
▁거론	-10.8623
▁준비하고	-10.8625
▁신도들	-10.8625
▁파키스탄군	-10.8626
▁선거법	-10.8626
▁임대	-10.8626
▁언론과	-10.8627
▁경쟁력	-10.863
▁도살	-10.8631
▁해체	-10.8633
use	-10.8634
▁제작사	-10.8635
▁취했다	-10.8641
roh	-10.8645
▁cas	-10.8653
▁he	-10.8655
▁파월	-10.8657
▁양보	-10.8664
ber	-10.8672
▁너무나	-10.8673
회전	-10.8682
부장	-10.8685
▁반전	-10.8687
▁턱	-10.8694
▁모자	-10.8711
머스	-10.8716
▁총장	-10.8721
해달라	-10.8727
▁변호	-10.8729
▁당국자들	-10.8729
했었	-10.8731
▁저자	-10.8735
▁미래에	-10.8743
▁사면	-10.8743
▁노스	-10.8751
▁따뜻	-10.8752
▁유기	-10.8753
응	-10.8753
▁81	-10.8754
▁법정에서	-10.8755
기위해	-10.8755
▁예술가	-10.876
▁입지	-10.8764
▁나타났	-10.8768
착륙	-10.8768
▁불확실	-10.8769
▁위험성	-10.877
▁폴리	-10.8771
▁코치	-10.8774
▁발리	-10.8781
▁신장	-10.8791
▁넘기	-10.8793
디어	-10.8798
▁향한	-10.8799
▁휩싸	-10.8807
낭	-10.881
뷰	-10.881
깃	-10.8811
▁washington	-10.8811
▁york	-10.8811
▁나눴다	-10.8811
▁낮아	-10.8811
▁망원경	-10.8811
▁메릴랜드	-10.8811
▁성추행	-10.8811
▁스타벅스	-10.8811
▁자르다리	-10.8811
▁저질렀다	-10.8811
▁토크쇼	-10.8811
▁파파라치	-10.8811
▁확률	-10.8811
샬	-10.8811
찌	-10.8811
칩	-10.8811
▁최우선	-10.8811
▁무승부	-10.8811
▁시나리오	-10.8811
▁기숙사	-10.8811
▁수류탄	-10.8811
▁삭감	-10.8811
▁활발	-10.8811
▁에드워드	-10.8811
▁태어났	-10.8811
▁당부했다	-10.8811
▁맥캔	-10.8811
▁친환경	-10.8812
▁긴밀	-10.8813
▁남자아이	-10.8813
▁머레이	-10.8814
▁물고기	-10.8814
▁워너	-10.8815
▁국정원	-10.8816
▁정리	-10.8816
▁사라졌다	-10.8816
▁인접	-10.8817
▁송금	-10.8817
▁델타	-10.8819
▁추격	-10.8819
▁하원의장	-10.882
▁정찰	-10.882
▁사육	-10.8822
▁교외	-10.8823
▁실현	-10.8824
▁오리	-10.8824
▁정밀	-10.8825
연패	-10.8826
▁체류	-10.8826
▁밝혀내	-10.8826
▁바탕	-10.8831
▁경비대	-10.8836
▁포스트	-10.8836
▁총통	-10.884
▁경영자	-10.8843
▁해저	-10.8846
블리	-10.8847
▁맡았다	-10.8847
▁위하여	-10.8853
▁상금	-10.8853
▁차질	-10.8863
관련	-10.8865
▁개인적으로	-10.8885
▁일기	-10.8889
▁반지	-10.8908
▁해적들	-10.8909
▁이득	-10.8918
▁조선	-10.8925
▁써	-10.8927
▁우세	-10.8928
▁중심지	-10.8935
▁암시	-10.8939
▁절도	-10.894
▁엠	-10.8943
▁이름으로	-10.8946
▁부검	-10.8947
▁관객	-10.8951
▁뿐이라	-10.8953
▁수행할	-10.8954
▁독재	-10.8959
리어	-10.8961
▁상세	-10.8963
에르	-10.8964
▁pre	-10.8964
▁요원들	-10.8965
▁경로	-10.8966
번호	-10.8967
▁착수했다	-10.8969
최	-10.897
▁남아있는	-10.8983
달라	-10.8984
▁생각해	-10.8996
▁베리	-10.9003
업체들	-10.9009
▁모른다고	-10.9009
돈	-10.9012
▁실종됐다	-10.9013
▁기적	-10.902
▁나치	-10.9021
자르	-10.9033
축구	-10.9034
랍	-10.9039
▁힘들다	-10.9044
조약	-10.9045
연구	-10.9046
옹	-10.9046
▁분야에서	-10.9046
샘	-10.9049
▁1987	-10.9049
▁bush	-10.9049
▁국가비상사태	-10.9049
▁높게	-10.9049
▁뉴델리	-10.9049
▁똑같	-10.9049
▁메드베데프	-10.9049
▁서브프라임	-10.9049
▁아웅산수치	-10.9049
▁유죄판결	-10.9049
▁자원봉사	-10.9049
▁정확하	-10.9049
▁활성화	-10.9049
▁국립공원	-10.9049
▁미성년자	-10.9049
▁세속주의	-10.9049
▁출구조사	-10.9049
▁카를로스	-10.9049
▁say	-10.9049
▁가난한	-10.905
▁데뷔	-10.905
▁수색작업	-10.905
▁포셋	-10.9051
▁중앙은행	-10.9052
▁환율	-10.9052
▁재활용	-10.9052
▁강진이	-10.9052
▁염려	-10.9053
▁출연했다	-10.9055
▁연구결과	-10.9056
▁증강	-10.9057
▁aig	-10.9059
ition	-10.906
▁단독	-10.9061
▁예배	-10.9064
▁체포되었다	-10.9067
▁달아	-10.9067
시장에서	-10.9067
▁후송	-10.9069
▁진전이	-10.9069
▁연출	-10.9069
▁복원	-10.9069
▁방문해	-10.907
▁업적	-10.9072
▁its	-10.9075
▁여러번	-10.9081
년전	-10.9086
▁불교	-10.909
▁부처	-10.9091
▁펄	-10.9094
▁고조되	-10.9096
▁달한다	-10.91
▁부품	-10.9101
▁실려	-10.9101
▁제작자	-10.9102
▁주거	-10.9103
프랑	-10.9108
▁정체	-10.911
▁남아있다	-10.9113
▁종교적	-10.9117
▁일대	-10.9118
▁남부지역	-10.9118
▁정상들	-10.9119
벨리	-10.9124
▁일원	-10.9126
▁도구	-10.9139
▁공정한	-10.9144
▁안내	-10.9145
▁주류	-10.9152
졌습니다	-10.9152
▁관객들	-10.9154
▁도디	-10.9155
▁대리인	-10.9157
▁기분이	-10.916
▁루니	-10.9164
▁크다	-10.9167
▁부지	-10.9169
▁상당수	-10.917
▁매력	-10.9203
emi	-10.9205
▁웨인	-10.9213
ney	-10.9214
▁이슈	-10.9229
▁알바	-10.923
▁주권	-10.9231
▁선고했다	-10.9231
▁도착할	-10.9231
▁사용자들	-10.9243
▁출신으로	-10.9243
버리	-10.9246
레이크	-10.9247
line	-10.9248
▁응답	-10.9253
▁제시한	-10.9254
▁열었다	-10.9258
▁당황	-10.9259
2000	-10.9263
▁업체들	-10.9278
▁발견됐	-10.9287
섭	-10.9288
칙	-10.929
생산	-10.9293
▁ibm	-10.9293
▁부양책	-10.9293
▁선거관리위원회	-10.9293
▁앞섰다	-10.9293
▁얻게	-10.9293
▁최루탄	-10.9293
▁하이브리드	-10.9293
눌	-10.9293
▁fifa	-10.9293
▁국세청	-10.9293
▁무장괴한	-10.9293
▁윈프리	-10.9293
▁자전거	-10.9293
▁섹시	-10.9293
▁주유소	-10.9293
▁개체수	-10.9293
▁첩보	-10.9293
▁티벳	-10.9293
▁유명인사	-10.9293
▁바꿀	-10.9293
▁켈리	-10.9294
▁아마존	-10.9295
▁이뤄질	-10.9295
▁앨런	-10.9296
▁권총	-10.9296
▁메이저	-10.9296
▁돌아갈	-10.9296
▁급습	-10.9296
▁bda	-10.9297
▁개막식	-10.9297
▁교착	-10.9297
▁mdc	-10.9297
▁호송	-10.9298
▁드레스	-10.9301
▁각료	-10.9302
▁재배치	-10.9303
▁설계	-10.9303
▁서식하	-10.9304
iz	-10.9305
▁독감	-10.9305
▁줄이기	-10.9306
▁데리고	-10.9306
▁뚫	-10.9311
▁추모	-10.9314
▁가택	-10.9316
▁심판	-10.9316
▁1950	-10.9317
▁증진	-10.9321
▁던진	-10.9321
▁보증	-10.9324
▁않았습니다	-10.9326
동물	-10.9329
▁윌슨	-10.9329
▁aid	-10.933
▁인정하지	-10.9333
▁둔화	-10.9333
▁cd	-10.9336
▁장려	-10.9342
▁여파	-10.9343
▁서브	-10.9343
▁도난	-10.9348
▁해석	-10.9349
▁상관	-10.9349
▁목격했다	-10.9357
퍼스	-10.936
▁명백한	-10.936
▁정유	-10.9363
ung	-10.9363
que	-10.9365
같	-10.9366
▁산하	-10.9372
▁공개하지	-10.9377
▁확인되	-10.9384
pt	-10.9386
▁맡았	-10.9389
▁출장	-10.9393
▁권고했다	-10.9394
▁대우	-10.9407
▁발견되지	-10.9407
▁꽃	-10.9411
라데	-10.9415
▁제공했다	-10.9427
65	-10.9436
▁사과했다	-10.9438
▁분석했다	-10.9439
▁외상	-10.944
▁모두에게	-10.9448
▁주장했	-10.9451
▁전격	-10.9451
ence	-10.9453
▁피하기	-10.9456
▁사라지	-10.9457
▁휴일	-10.9458
▁판매량	-10.9461
▁아미	-10.947
▁재정적	-10.9471
13	-10.9475
▁리버	-10.9485
룩	-10.9488
▁거리에서	-10.9489
▁얻었	-10.9493
▁물어	-10.9496
▁김치	-10.9498
17	-10.9503
▁수감된	-10.9513
▁차지하는	-10.9513
윤	-10.9513
▁이라크내	-10.9515
됐는지	-10.9515
틸	-10.9516
州	-10.9517
▁대변	-10.9521
▁네바다	-10.9526
즘	-10.9541
놈	-10.9541
빗	-10.9542
own	-10.9542
▁first	-10.9543
▁military	-10.9543
▁아랍에미리트	-10.9543
▁호나우두	-10.9543
닛	-10.9543
닭	-10.9543
둑	-10.9543
팜	-10.9543
▁국제우주정거장	-10.9543
▁맨해튼	-10.9543
▁바티칸	-10.9543
▁스탈린	-10.9543
▁유람선	-10.9543
▁깨끗	-10.9543
▁아스날	-10.9543
▁좌석	-10.9543
▁국무총리	-10.9543
▁퇴진	-10.9543
▁시티그룹	-10.9543
▁언덕	-10.9543
▁치솟	-10.9543
▁행렬	-10.9544
▁요즘	-10.9544
▁미주리	-10.9544
▁사안	-10.9544
▁왜곡	-10.9545
▁국민투표	-10.9545
▁자동차업계	-10.9545
▁보조금	-10.9546
▁존스턴	-10.9547
▁유괴	-10.9548
▁자발적	-10.9548
▁그랜드	-10.9548
▁가끔	-10.9548
▁절약	-10.9548
▁연극	-10.9549
▁동참	-10.9549
▁만능	-10.9552
▁창설	-10.9552
▁카라치	-10.9553
▁역임	-10.9554
▁발매	-10.9558
▁연방정부	-10.9559
▁수컷	-10.9559
▁불안정	-10.956
▁약혼	-10.9561
▁피랍된	-10.9566
▁모집	-10.9566
▁위생	-10.9569
▁시골	-10.9571
▁영구	-10.9571
▁연임	-10.9572
▁inter	-10.9572
▁코너	-10.9573
▁거부한	-10.9578
▁상병	-10.9579
▁합의문	-10.958
▁전형적	-10.9582
▁종파	-10.9584
▁재무	-10.9588
▁지원금	-10.9589
분야	-10.9592
▁눈물	-10.9593
▁양자	-10.9594
▁부속	-10.9596
▁지속되	-10.9604
▁출전하지	-10.9604
▁간부	-10.9623
▁스카이	-10.9625
연승	-10.9626
▁자라	-10.9631
▁불가능하다	-10.9632
레오	-10.9635
▁광부	-10.9638
▁thi	-10.9652
▁학생들에게	-10.9653
▁돌아와	-10.9653
rate	-10.9658
여부	-10.9659
▁성전	-10.9671
ron	-10.9683
▁기본적	-10.9687
▁전범	-10.9688
▁유물	-10.9698
▁매수	-10.9703
▁개성	-10.9705
체제	-10.9721
▁의제	-10.9725
▁본드	-10.9729
노조	-10.9735
부분	-10.9742
▁세운	-10.9745
▁경주	-10.9745
▁석방됐다	-10.9747
▁하락했	-10.9758
48	-10.9763
푸르	-10.9766
▁취하고	-10.9779
김	-10.9781
힘	-10.9782
▁산악	-10.9783
보좌관	-10.9784
▁별도	-10.9787
95	-10.979
꼬	-10.9799
멈	-10.9799
▁1986	-10.9799
▁people	-10.9799
▁가즈프롬	-10.9799
▁개발도상국	-10.9799
▁내무장관	-10.9799
▁디트로이트	-10.9799
▁러닝메이트	-10.9799
▁럼스펠드	-10.9799
▁마이스페이스	-10.9799
▁믿는다	-10.9799
▁박격포	-10.9799
▁억만장자	-10.9799
▁인명피해	-10.9799
▁창기라이	-10.9799
▁켄터키	-10.9799
▁피츠버그	-10.9799
▁후지모리	-10.9799
렁	-10.9799
뤘	-10.9799
쉐	-10.9799
▁음주운전	-10.9799
▁apec	-10.9799
▁버몬트	-10.9799
▁비공식	-10.9799
▁아라비아	-10.9799
▁모니터	-10.9799
space	-10.9799
▁라호르	-10.9799
▁하버드	-10.9799
▁코카인	-10.9799
▁국방위원장	-10.98
▁알제리	-10.98
▁press	-10.98
▁가져올	-10.9801
▁돌아올	-10.9802
▁구조작업	-10.9802
▁워렌	-10.9802
▁안드레	-10.9803
▁던졌다	-10.9803
▁굿	-10.9803
▁산맥	-10.9804
▁아빠	-10.9804
▁참배	-10.9805
▁미셸	-10.9805
▁없애	-10.9805
▁로켓포	-10.9808
▁걸렸다	-10.9808
▁개헌안	-10.9809
▁의심되는	-10.981
▁연령	-10.981
▁연말	-10.9811
▁발령	-10.9812
▁클라크	-10.9813
▁치매	-10.9814
▁투표율	-10.9816
▁시민권	-10.9816
▁매입	-10.9818
▁우편	-10.9819
▁찾아내	-10.9822
▁유입	-10.9825
▁확산되	-10.9827
해준	-10.9828
▁부결	-10.983
▁않습니다	-10.9831
▁비극	-10.9841
▁돌아왔다	-10.9843
▁약탈	-10.9851
▁83	-10.9852
45	-10.9852
▁진행될	-10.9857
분경	-10.9861
▁스노	-10.9861
▁공직	-10.9864
▁해방	-10.9868
▁생성	-10.987
▁파커	-10.9884
▁실패한	-10.9887
세포	-10.9889
▁덜	-10.9893
▁강간	-10.9898
▁준장	-10.9899
죄로	-10.99
▁시작됐	-10.9901
▁토대	-10.9909
▁평화상	-10.9915
▁진행중	-10.9916
▁불과하다	-10.9917
▁캐리	-10.9921
트릭	-10.9926
▁상위	-10.9927
▁유해	-10.9935
▁배상	-10.9935
▁인정받	-10.9954
▁하비	-10.9962
▁교도소에서	-10.9966
▁일단	-10.9975
레즈	-10.9989
ft	-10.9998
▁예정이었	-10.9999
륙	-10.9999
▁나갔	-11
▁참가한	-11.0011
ever	-11.0014
▁지냈	-11.0018
극적으로	-11.0044
▁프린	-11.0044
city	-11.0046
▁열기	-11.0048
까요	-11.0049
빨	-11.005
▁테러범들	-11.0054
▁수락	-11.0056
냥	-11.0056
렬	-11.0059
▁associat	-11.0062
▁갤런	-11.0062
▁괜찮	-11.0062
▁뒷받침	-11.0062
▁엘리베이터	-11.0062
▁찾았다	-11.0062
▁최고경영자	-11.0062
껏	-11.0062
섞	-11.0062
연방준비제도이사회	-11.0062
캄	-11.0062
캘	-11.0062
▁secretary	-11.0062
▁남아프리카공화국	-11.0062
▁돌아다니	-11.0062
▁라모스	-11.0062
▁북극곰	-11.0062
▁떠오르	-11.0063
▁넬슨	-11.0063
▁포획	-11.0064
▁터뜨	-11.0064
▁캐롤	-11.0065
▁기획	-11.0065
ef	-11.0066
▁배심원단	-11.0067
▁시민단체	-11.0068
▁가혹	-11.0069
▁포경선	-11.0071
▁대테러	-11.0072
▁결합	-11.0072
▁다가오	-11.0072
▁그곳에서	-11.0074
▁처형	-11.0075
▁마찰	-11.0076
▁진료	-11.0076
놨다	-11.0077
▁만료	-11.0078
대학교	-11.0079
▁설정	-11.0079
되었는데	-11.008
▁청소	-11.008
▁lg	-11.0081
▁유혈	-11.0082
▁때문이라	-11.0083
▁위치해	-11.0084
▁응원	-11.0084
▁예선	-11.0084
▁밀러	-11.0089
▁재배	-11.0089
▁배급	-11.009
▁사이버	-11.0092
▁넣었다	-11.0092
▁반등	-11.0093
▁쉬운	-11.0093
▁필수	-11.0094
▁미셀	-11.0095
▁파편	-11.0095
▁배포	-11.0096
▁던져	-11.0099
▁전시회	-11.01
▁환수	-11.0101
▁거친	-11.0104
하겠	-11.0106
▁사회당	-11.0109
▁leader	-11.0116
방식	-11.0116
▁피신	-11.0118
▁항의하	-11.0119
▁소유주	-11.0119
▁효과적	-11.0121
▁맞았다	-11.0122
▁먼지	-11.0123
▁일시적	-11.0127
▁사라진	-11.0131
우주	-11.0132
▁버지니아주	-11.0132
▁피고인	-11.0138
▁걸려	-11.0142
ick	-11.0147
▁석방된	-11.0148
ock	-11.0148
▁대비해	-11.0153
문서	-11.0158
▁조국	-11.0158
▁정부군과	-11.0174
▁독재자	-11.0175
▁성분	-11.0177
ite	-11.018
▁제공하기	-11.0181
▁리비	-11.0187
생물학	-11.0207
하러	-11.0208
미국	-11.0227
▁확인하기	-11.0228
▁베어	-11.0228
장비	-11.0231
▁표시했다	-11.0259
▁중점	-11.0264
▁만났	-11.0266
▁보유한	-11.0279
대통령	-11.0304
▁상자	-11.0311
▁경찰청	-11.0318
76	-11.0322
ian	-11.0325
말리키	-11.0328
쥐	-11.0329
겔	-11.0332
▁해수욕장	-11.0332
▁human	-11.0332
▁굉장	-11.0332
▁느낀다	-11.0332
▁시애틀	-11.0332
▁애완동물	-11.0332
▁엉덩이	-11.0332
풋	-11.0332
▁고등법원	-11.0332
▁브루니	-11.0332
▁그린피스	-11.0332
▁무소속	-11.0332
▁근본주의	-11.0332
▁크레이그	-11.0333
▁다행히	-11.0333
▁have	-11.0333
▁대한민국	-11.0333
▁바하마	-11.0333
▁덴버	-11.0333
▁느껴	-11.0333
▁낭비	-11.0333
▁카지노	-11.0333
▁기다려	-11.0333
▁기뻐	-11.0333
▁좌파	-11.0333
▁텐트	-11.0333
▁스콧	-11.0333
▁침수	-11.0333
▁브레이크	-11.0333
▁슈퍼볼	-11.0334
▁면접	-11.0334
▁투데이	-11.0335
▁장벽	-11.0336
▁오늘밤	-11.0336
▁밝혀냈다	-11.0336
▁동굴	-11.0336
▁복합	-11.0337
▁소방대원	-11.0337
▁군중들	-11.0337
▁돌아온	-11.0339
▁생명체	-11.0341
▁통근	-11.0341
▁생겨	-11.0342
▁시청자들	-11.0343
▁외쳤다	-11.0344
▁절감	-11.0344
▁추천	-11.0346
▁불황	-11.0346
▁금속	-11.0347
▁휴식	-11.0347
▁치른	-11.0349
▁위축	-11.0349
▁네바다주	-11.035
▁기름	-11.0353
▁창조	-11.0353
▁승점	-11.0354
▁유골	-11.0354
▁보수당	-11.0354
▁한달	-11.0355
▁반환	-11.0355
▁기념식	-11.0355
▁이어졌다	-11.0356
▁김씨	-11.036
▁케이시	-11.0361
오르	-11.0368
▁usa	-11.0368
▁교내	-11.0372
▁문제점	-11.0372
▁당연	-11.0377
▁군중	-11.0384
▁단식	-11.0385
▁상사	-11.0389
시키지	-11.0392
▁구단	-11.0395
▁과제	-11.0395
▁남미	-11.0396
▁지지자들에게	-11.0397
▁받아들이지	-11.0397
▁남쪽으로	-11.04
▁화제	-11.0408
▁인도분	-11.041
▁출연해	-11.0411
▁아민	-11.0412
24	-11.042
▁나체	-11.042
▁좋아한다	-11.0424
관계자	-11.0435
▁소유한	-11.0436
▁소화	-11.0438
▁위장	-11.0438
35	-11.0439
▁남자들	-11.0442
받아	-11.0445
▁산소	-11.0446
▁페리	-11.0456
44	-11.046
▁경제학자	-11.0464
▁라파	-11.0466
▁농민	-11.0467
▁장성	-11.0468
▁원치	-11.0468
▁거래됐다	-11.047
29	-11.0474
▁총리직	-11.0477
▁대안	-11.048
▁강타한	-11.0482
▁이민자들	-11.0488
사이트	-11.0494
사단	-11.05
▁지불하	-11.0501
▁입수한	-11.0501
▁헤어	-11.0501
71	-11.0501
▁최고위	-11.0506
아웃	-11.051
▁법적으로	-11.0527
▁연예	-11.0558
▁발견했	-11.0565
▁성명서	-11.0569
▁철수시키	-11.0571
ame	-11.0572
▁아기들	-11.059
▁브랜	-11.0597
▁차지한	-11.06
▁내셔널	-11.061
▁england	-11.061
▁two	-11.061
▁기준금리	-11.061
▁머리카락	-11.061
▁버냉키	-11.061
▁스튜디오	-11.061
▁원자바오	-11.061
▁침묵	-11.061
▁텔레비전	-11.061
▁트라볼타	-11.061
▁헬리콥터	-11.061
▁호날두	-11.061
뚜	-11.061
인플루엔자	-11.061
잎	-11.061
▁휴스턴	-11.061
▁규칙	-11.061
▁멸종위기	-11.061
▁유수프	-11.061
▁딜러	-11.061
▁year	-11.061
▁얼룩	-11.061
▁미시건	-11.0611
▁나눠	-11.0611
▁바바라	-11.0611
▁신용카드	-11.0611
▁놀랄	-11.0612
▁끝났다	-11.0613
▁화염	-11.0613
▁대선주자	-11.0614
공화국	-11.0614
▁요르단강	-11.0614
▁이른다	-11.0614
무라	-11.0615
3000	-11.0615
▁반체제	-11.0615
▁논문	-11.0615
▁숨겨	-11.0616
▁남녀	-11.0616
▁레이저	-11.0618
봐야	-11.0618
▁금융시장	-11.0618
▁구호품	-11.0619
▁도핑	-11.0619
▁모험	-11.0623
▁대기업	-11.0623
▁탐사선	-11.0623
▁화석	-11.0623
▁소총	-11.0624
▁복장	-11.0629
연구원	-11.0629
▁br	-11.0631
▁감바	-11.0638
▁급진	-11.0639
▁조직원	-11.0639
▁첫날	-11.0639
▁170	-11.0641
▁출국	-11.0644
▁입력	-11.0645
▁밝히기	-11.065
▁개설	-11.065
▁일어나지	-11.0651
▁bl	-11.0651
▁코피	-11.0653
▁교육부	-11.0657
▁지나치	-11.0657
▁역대	-11.0659
▁라울	-11.066
▁폴슨	-11.0661
▁구경	-11.0662
▁조씨	-11.0664
▁열려	-11.0665
▁취소했다	-11.0668
폴리스	-11.0668
▁여기서	-11.0672
▁사살했다	-11.0674
▁피어	-11.0674
체계	-11.0674
▁호전	-11.0677
▁가족들에게	-11.0685
벨트	-11.0691
▁유명하다	-11.0693
▁무산	-11.0695
▁이르기	-11.0698
스트라	-11.0701
▁구타	-11.0706
▁들어왔	-11.0713
▁시작될	-11.0716
▁약품	-11.0717
▁복지	-11.0717
▁심화	-11.0729
ash	-11.0734
▁반미	-11.0756
교회	-11.076
▁단장	-11.0763
▁포기하	-11.0778
▁아파	-11.0778
엑	-11.0779
▁제프	-11.078
▁중반	-11.0784
▁선택했다	-11.0792
▁들었	-11.0793
▁180	-11.0795
▁괴한	-11.0803
▁제치	-11.0803
▁형태로	-11.0803
감시	-11.0811
▁남아있	-11.0814
▁재선	-11.0818
▁선적	-11.0827
▁투기	-11.0833
해져	-11.0835
▁남성들	-11.0848
▁은행들	-11.0849
티드	-11.085
▁원장	-11.0851
▁선출된	-11.0856
▁난민들	-11.0856
▁참여했다	-11.0867
▁못하다	-11.087
▁취하지	-11.0877
브리지	-11.088
up	-11.0886
▁관리자	-11.0887
▁그곳에	-11.0891
훔	-11.0893
스러워	-11.0895
▁몸값	-11.0896
▁뮌헨	-11.0896
▁산타클로스	-11.0896
▁애니메이션	-11.0896
▁애틀랜타	-11.0896
▁엔지니어	-11.0896
▁칸다하르	-11.0896
▁크로아티아	-11.0896
붐	-11.0896
빵	-11.0896
셜	-11.0896
▁court	-11.0896
▁받아들였다	-11.0896
▁식민지	-11.0896
▁맥케인	-11.0896
▁공학	-11.0896
▁관점에서	-11.0896
▁브루스	-11.0896
▁태우고	-11.0896
▁인도주의적	-11.0896
▁히드로	-11.0897
▁차원에서	-11.0897
▁마사지	-11.0897
▁군사작전	-11.0899
▁적응	-11.0899
▁집필	-11.0902
▁무효	-11.0905
▁가죽	-11.0906
▁하더라	-11.0908
▁장거리	-11.091
▁정치범	-11.0911
▁소유권	-11.0912
시즌	-11.0912
▁새겨	-11.0912
▁나와즈	-11.0915
▁추문	-11.0918
▁마침	-11.0919
▁베스트	-11.092
▁대폭	-11.092
▁다이애나비	-11.0922
▁대령	-11.0924
▁편안	-11.0926
▁예선전	-11.0927
▁상관없	-11.0931
▁모았다	-11.0934
▁복수	-11.094
▁신병	-11.0941
▁해역	-11.0941
▁예정되어	-11.0944
imp	-11.0944
▁장기간	-11.0947
▁알렌	-11.0948
▁리더	-11.095
16	-11.095
▁버진	-11.0956
▁주주들	-11.0959
▁녹화	-11.0959
치료	-11.096
려진	-11.0961
포르	-11.0962
▁여야	-11.0965
현정	-11.0967
▁권위	-11.097
▁우승자	-11.097
여금	-11.0978
▁적극	-11.0982
▁중단됐다	-11.0989
▁증언했다	-11.099
▁제외하고	-11.0993
▁민간인들	-11.0994
▁특별히	-11.0995
▁여아	-11.0995
전략	-11.0996
▁발달	-11.0997
▁개최된	-11.1006
▁칼라	-11.1011
▁레이더	-11.1013
▁시계	-11.1024
▁참사	-11.1027
▁모으	-11.1028
▁def	-11.1032
▁연예인	-11.1041
lin	-11.1043
▁데비	-11.1043
▁자정	-11.1052
▁확신했다	-11.1056
▁발견되	-11.1066
세트에서	-11.1086
36	-11.1086
▁확인된	-11.1102
▁자녀들	-11.1123
▁제조업	-11.1125
최지	-11.1129
뤄	-11.1132
예프	-11.1147
▁top	-11.1165
▁선원들	-11.1165
▁열렸	-11.1166
▁이송됐다	-11.1171
▁금연	-11.1178
▁대답했다	-11.118
39	-11.118
삭	-11.1188
펴	-11.119
긋	-11.119
▁securit	-11.119
▁겪었다	-11.119
▁끊임없	-11.119
▁끌려	-11.119
▁느꼈다	-11.119
▁되돌아	-11.119
▁떨어질	-11.119
▁마케팅	-11.119
▁맥도날드	-11.119
▁베어스턴스	-11.119
▁베탕쿠르	-11.119
▁에르도간	-11.119
▁에스토니아	-11.119
▁오케스트라	-11.119
▁테러지원국	-11.119
▁펭귄	-11.119
뚱	-11.119
맘	-11.119
셈	-11.119
홉	-11.119
▁1988	-11.119
▁브리트니	-11.119
▁비즈니스	-11.119
▁아칸소	-11.119
덩어리	-11.119
▁부적절	-11.119
▁1-0	-11.119
▁캔자스	-11.119
스프링스	-11.119
▁오렌지	-11.119
▁퇴역	-11.119
▁간호사	-11.119
▁소탕작전	-11.1191
▁election	-11.1191
▁풀려났다	-11.1191
▁prim	-11.1191
9000	-11.1191
▁고릴라	-11.1192
▁meet	-11.1192
▁재활	-11.1192
▁kill	-11.1193
▁미치지	-11.1193
없	-11.1195
▁코스피	-11.1195
▁조짐	-11.1196
▁저택	-11.1197
▁개념	-11.1197
▁월터	-11.1198
▁영광	-11.1199
▁당사자	-11.1199
▁버튼	-11.1199
▁잡았다	-11.1204
▁잔디	-11.1206
▁공무원들	-11.1207
▁사우스	-11.1207
▁들어온	-11.1209
▁타결	-11.1212
▁영감	-11.1212
탐	-11.1213
▁서약	-11.1214
▁줄이는	-11.1224
▁평소	-11.1225
문화	-11.1226
▁저지르	-11.1232
▁식수	-11.1237
▁여단	-11.124
▁추구	-11.124
▁적십자사	-11.1244
▁입구	-11.1245
▁앞선	-11.1248
증권	-11.1249
▁선제	-11.1258
▁파문	-11.1259
회견에서	-11.1259
▁제작된	-11.126
▁가져다	-11.1265
▁회원들	-11.1268
▁여유	-11.127
▁하산	-11.1281
▁친척	-11.1283
▁포위	-11.1285
▁붕괴된	-11.1285
교수	-11.1288
▁유용	-11.1294
▁버전	-11.1294
▁부상자들	-11.1296
▁지원하기	-11.1296
수준	-11.1297
▁세관	-11.1299
▁싶어한다	-11.1299
▁보좌관들	-11.1302
▁공조	-11.1303
▁명령했다	-11.1313
▁말하면서	-11.1337
▁관광지	-11.1346
보드	-11.136
어지고	-11.1363
▁아바	-11.1364
부르크	-11.1364
베스	-11.1365
▁사정	-11.1389
▁건수	-11.1397
달간	-11.1419
아누	-11.1429
▁파손됐다	-11.1435
▁벌어졌	-11.1441
빠	-11.1471
첩	-11.149
셋	-11.1491
▁득표	-11.1492
뮤	-11.1493
▁골든글로브	-11.1493
▁구호물품	-11.1493
▁다운로드	-11.1493
▁동유럽	-11.1493
▁모가디슈	-11.1493
▁야스쿠니	-11.1493
▁유니세프	-11.1493
▁일으켜	-11.1493
▁침팬지	-11.1493
▁티셔츠	-11.1493
▁포괄적	-11.1493
▁황우석	-11.1493
▁흰색	-11.1493
륜	-11.1493
쉴	-11.1493
톡	-11.1493
▁뉴욕타임스	-11.1493
▁미끄러	-11.1493
▁슈퍼대의원	-11.1493
▁실업수당	-11.1493
▁항생제	-11.1493
▁2011	-11.1493
▁덕분에	-11.1493
▁어두운	-11.1493
▁유조선	-11.1493
▁크로커	-11.1493
▁니케이	-11.1493
▁트로피	-11.1493
▁상반기	-11.1493
▁혈액	-11.1493
▁양키스	-11.1493
사령부	-11.1494
▁모로코	-11.1494
▁유적지	-11.1494
▁바꿔	-11.1494
▁착취	-11.1494
▁묘지	-11.1496
▁요새	-11.1496
▁운반	-11.1496
▁bank	-11.1497
▁녹색	-11.1497
▁kim	-11.1497
▁대략	-11.1498
▁wto	-11.1498
▁현지경찰	-11.1498
▁발효	-11.1499
▁출범	-11.15
▁폭등	-11.15
▁하얀	-11.1501
▁명칭	-11.1501
▁패리스	-11.1501
▁설문	-11.1503
▁근교	-11.1504
▁아이돌	-11.1505
▁볼튼	-11.1506
▁복권	-11.1507
▁참모	-11.1507
▁거둔	-11.1508
▁풍선	-11.1509
▁스텔	-11.1509
▁law	-11.1512
▁물었다	-11.1512
▁can	-11.1512
▁면제	-11.1513
돌프	-11.1516
▁천연	-11.1516
▁지낸	-11.1517
▁모르겠다	-11.1518
▁엘바	-11.1521
▁ban	-11.1522
▁좋게	-11.1523
▁알려주	-11.1524
눈	-11.1525
이슬람	-11.1525
▁제프리	-11.1527
▁예상보다	-11.153
▁뒤집	-11.1534
▁분실	-11.1537
▁갖기	-11.1537
58	-11.1539
▁통신사	-11.1542
hot	-11.1542
▁주장했지만	-11.1543
시키는데	-11.1547
▁조속	-11.1549
▁소란	-11.155
net	-11.155
▁타이어	-11.1553
▁영원	-11.1554
이라크	-11.1555
▁심사	-11.156
▁유지하기	-11.156
▁채권	-11.1562
▁전염	-11.1566
▁폭격기	-11.1568
▁효율적	-11.1568
▁시판	-11.1573
▁줄여	-11.1574
▁중령	-11.1584
▁과시	-11.159
▁방문객들	-11.1594
▁기권	-11.1596
투어	-11.1607
▁제방	-11.1612
▁죽어	-11.1612
방안	-11.1619
▁사용하기	-11.1621
▁죽었다	-11.1626
공장	-11.1633
▁보낸다	-11.1641
▁입학	-11.1642
22	-11.1659
ze	-11.1668
▁감시단	-11.1669
▁민주적	-11.167
▁경제학자들	-11.1682
▁소방관	-11.1696
▁동맹국들	-11.1699
▁설치된	-11.1699
fa	-11.1707
▁나빠	-11.1715
▁정보국	-11.1718
26	-11.1737
▁입원했다	-11.174
light	-11.1745
▁과장	-11.1747
52	-11.1772
tter	-11.1779
데르	-11.1788
▁피닉스	-11.1797
쁘	-11.18
▁불러일으	-11.1803
핏	-11.1806
▁london	-11.1806
▁lpga	-11.1806
▁nfl	-11.1806
▁국회의사당	-11.1806
▁기후변화	-11.1806
▁로스앤젤레스	-11.1806
▁불렀다	-11.1806
▁스튜어트	-11.1806
▁시달리고	-11.1806
▁평화협상	-11.1806
돋	-11.1806
▁wfp	-11.1806
▁베이루트	-11.1806
▁수퍼대의원	-11.1806
▁afp	-11.1806
▁클루니	-11.1806
▁제니퍼	-11.1806
▁3-0	-11.1806
▁되풀이	-11.1806
▁마라도나	-11.1806
▁페이스북	-11.1806
▁가속화	-11.1806
▁흐름	-11.1806
▁침범	-11.1806
▁린제이	-11.1806
▁닉슨	-11.1806
▁정해지지	-11.1806
▁잔혹	-11.1806
▁교과서	-11.1806
▁여자아이	-11.1806
▁칭찬	-11.1807
▁진흙	-11.1807
▁도와주	-11.1808
▁취득	-11.1808
▁충족	-11.1809
▁호킹	-11.1811
▁비교해	-11.1811
▁선고받	-11.1812
▁같습니다	-11.1812
▁담겨	-11.1815
▁점프하	-11.1817
▁병역	-11.1817
former	-11.1819
▁극단주의자들	-11.1819
▁추출	-11.1821
학회	-11.1823
69	-11.1824
▁식물	-11.1825
▁줄이고	-11.1826
▁선장	-11.1829
▁불평	-11.183
▁전대통령	-11.1831
▁현행	-11.1831
▁기습	-11.1833
▁외출	-11.1834
▁사용한다	-11.1835
▁죄수	-11.1836
▁98	-11.1837
▁학위	-11.1837
▁회부	-11.184
시켜야	-11.184
▁테마	-11.1843
보고서	-11.1851
▁우방	-11.1852
밴	-11.1853
개혁	-11.1859
▁우리베	-11.186
▁정교	-11.1861
▁참여하지	-11.1862
▁인체	-11.1871
중국	-11.1874
▁이룩	-11.1874
▁장기적	-11.1879
ical	-11.1879
▁안된다	-11.1879
▁일상적	-11.1881
▁격리	-11.1881
▁아이티	-11.1882
▁가축	-11.1887
▁호화	-11.1894
▁인계	-11.1896
▁동전	-11.1905
▁지문	-11.1922
54	-11.1929
▁비유	-11.1933
▁정오	-11.1941
▁싶어하	-11.1948
▁성공회	-11.1952
46	-11.1953
킨스	-11.1959
▁전략적	-11.1978
머리	-11.1982
▁의원들에게	-11.1986
▁주교	-11.1988
▁실력	-11.1995
▁선정됐다	-11.2
▁확실하지	-11.2008
lee	-11.201
▁광부들	-11.2034
▁효율	-11.2049
버릴	-11.2066
said	-11.2077
건설	-11.2099
▁이뤄	-11.211
셉	-11.2124
퓨	-11.2128
▁protest	-11.2128
▁url	-11.2128
▁광우병	-11.2128
▁글래스고	-11.2128
▁뉴캐슬	-11.2128
▁몸무게	-11.2128
▁이르렀다	-11.2128
▁재확인	-11.2128
▁카자흐스탄	-11.2128
▁할아버지	-11.2128
믹	-11.2128
▁동북아	-11.2128
▁무너져	-11.2128
▁브리티시	-11.2128
▁왕복선	-11.2128
▁집무실	-11.2128
▁1981	-11.2128
▁당나귀	-11.2128
▁매머드	-11.2128
▁앵커	-11.2128
▁계열사	-11.2128
book	-11.2128
▁예언자	-11.2128
▁중산층	-11.2128
마누엘	-11.2128
▁대주교	-11.2128
▁국가주석	-11.2128
▁세비야	-11.2128
▁무너진	-11.2128
▁지중해	-11.2128
▁냉전	-11.2128
▁영부인	-11.2128
▁김선일	-11.2129
▁축구팬	-11.2129
▁효력	-11.2129
▁퇴치	-11.2129
▁힌두교	-11.2129
▁쇼핑몰	-11.2129
▁맞붙	-11.213
▁벌어들	-11.213
▁공군기지	-11.213
▁둘째	-11.213
▁bill	-11.2131
▁레논	-11.2132
▁농담	-11.2132
▁높아졌다	-11.2132
▁밤새	-11.2132
▁연휴	-11.2133
▁허블	-11.2134
▁선데이	-11.2135
▁취약	-11.2137
▁피닉스호	-11.2137
▁유효	-11.2137
▁회색	-11.2138
▁헌신	-11.2139
▁몰래	-11.214
▁정상회의	-11.2141
▁may	-11.2142
▁천문학자들	-11.2142
▁사법부	-11.2143
▁종양	-11.2144
▁지속될	-11.2145
▁다녀	-11.2146
▁폐기물	-11.2146
con	-11.2148
▁라이프	-11.2154
▁wh	-11.2154
▁공백	-11.2155
▁제패	-11.2156
▁있었는지	-11.2161
▁난동	-11.2161
▁파손되	-11.2161
▁감량	-11.2162
▁노동부	-11.2164
▁책정	-11.2164
죽	-11.2167
▁부른	-11.2169
▁우연	-11.2171
▁이례적	-11.2172
▁1200	-11.2173
▁전설적	-11.2176
▁드물	-11.2185
▁강연	-11.2187
음악	-11.2188
▁성경	-11.2189
▁내정자	-11.2189
▁재발	-11.2191
6-4	-11.2193
▁ak	-11.2195
▁전송	-11.2201
▁국회의원들	-11.2204
▁지키기	-11.2207
▁허위	-11.221
▁누드	-11.2212
▁참석하기	-11.2212
▁광대	-11.2212
▁방치	-11.2213
▁감원	-11.2214
▁추락했다	-11.2216
▁채우	-11.2217
▁페르	-11.222
▁가결	-11.2221
▁호위	-11.2225
배우	-11.2229
▁시작되었다	-11.2231
▁피의자	-11.2236
▁나란	-11.2236
▁서명했다	-11.2237
▁선거전	-11.2239
▁한쪽	-11.2243
베키	-11.2255
▁국정	-11.2261
▁엑스	-11.2262
▁현안	-11.2265
▁면적	-11.2271
군데	-11.2278
▁kt	-11.2282
▁개최되	-11.229
▁넣어	-11.2294
▁sun	-11.2312
베라	-11.2323
▁팔려	-11.2324
략	-11.2333
▁걸었다	-11.234
▁승자	-11.2363
▁협상단	-11.2369
▁생존자들	-11.2373
▁수십억	-11.238
▁본국	-11.2393
▁불가피	-11.2416
ncy	-11.2434
▁무장대원들	-11.2436
융	-11.2457
▁attack	-11.2462
▁group	-11.2462
▁그루지아	-11.2462
▁마흐무드	-11.2462
▁미네소타	-11.2462
▁상파울루	-11.2462
▁세계보건기구	-11.2462
▁양육권	-11.2462
▁우주정거장	-11.2462
▁커뮤니티	-11.2462
돔	-11.2462
랫	-11.2462
엽	-11.2462
윗	-11.2462
▁pml	-11.2462
▁도널드	-11.2462
▁빠뜨	-11.2462
▁인디아나	-11.2462
▁인종차별	-11.2462
▁촛불	-11.2462
▁control	-11.2462
▁벤자민	-11.2462
▁호르몬	-11.2462
▁부작용	-11.2462
▁피아노	-11.2462
▁안락사	-11.2462
▁블로거	-11.2462
▁침투	-11.2462
▁첨단	-11.2462
▁닥터	-11.2462
▁일축했다	-11.2462
▁퇴직	-11.2462
▁자서전	-11.2462
▁office	-11.2462
▁수하물	-11.2463
▁퇴장	-11.2463
▁두뇌	-11.2463
▁수비수	-11.2463
▁지뢰	-11.2463
▁타이완	-11.2463
▁여배우	-11.2464
▁활기	-11.2464
▁당혹	-11.2464
▁불쾌	-11.2465
▁쿠르드족	-11.2466
▁조셉	-11.2466
▁물리치	-11.2466
▁필리스	-11.2466
줘야	-11.2467
▁연방법원	-11.2468
urge	-11.2469
▁언제든	-11.2469
▁풍경	-11.247
ator	-11.247
▁면역	-11.2471
▁해킹	-11.2472
▁토론토	-11.2472
▁아끼	-11.2474
▁임박	-11.2474
▁지닌	-11.2475
▁정보기관	-11.2476
▁재벌	-11.2478
▁토양	-11.2478
▁지연되	-11.248
▁통역	-11.2482
▁구단주	-11.2482
▁유예	-11.249
▁차림	-11.2491
▁과실	-11.2493
▁비평	-11.2494
▁후퇴	-11.2495
▁프린스	-11.2497
▁비준	-11.2497
▁부장관	-11.2499
▁문신	-11.2503
▁복사	-11.2505
▁조종	-11.2506
▁기초	-11.2506
▁지하드	-11.2515
▁구형	-11.2521
붙	-11.2522
아프리카	-11.2524
넣	-11.2525
페이지	-11.2527
▁결장	-11.2528
▁get	-11.2536
▁확실하다	-11.2541
▁알았다	-11.2542
장애	-11.2544
▁교량	-11.2545
▁감면	-11.2546
▁청소년들	-11.2556
부족	-11.258
▁사회주의	-11.2587
▁적당	-11.259
▁sup	-11.2593
웃	-11.2594
▁제공한다	-11.26
▁군부대	-11.2605
버렸	-11.2614
▁홀리	-11.2621
59	-11.263
ank	-11.2642
▁탈출했다	-11.2654
▁과학적	-11.2675
▁포함된다	-11.2692
62	-11.2717
ern	-11.2739
글리	-11.2757
▁cl	-11.2786
천억	-11.2791
▁매사추세츠	-11.2793
▁북부지역	-11.2795
붕	-11.2801
줘	-11.2801
탔	-11.2804
▁death	-11.2806
▁police	-11.2806
▁research	-11.2806
▁그루지야	-11.2806
▁냄새	-11.2806
▁동계올림픽	-11.2806
▁매코맥	-11.2806
▁맥코맥	-11.2806
▁메사추세츠	-11.2806
▁몸집	-11.2806
▁무하메드	-11.2806
▁미드필더	-11.2806
▁박테리아	-11.2806
▁블룸버그	-11.2806
▁수하르토	-11.2806
▁슈워제네거	-11.2806
▁악영향	-11.2806
▁암스트롱	-11.2806
▁오키나와	-11.2806
▁재정경제부	-11.2806
▁종신형	-11.2806
▁캠벨	-11.2806
▁케르비엘	-11.2806
▁프로듀서	-11.2806
넥	-11.2806
놔	-11.2806
둬	-11.2806
쿼	-11.2806
팽	-11.2806
▁방사능	-11.2806
▁스피처	-11.2806
▁이스탄불	-11.2806
▁8226	-11.2806
▁아스널	-11.2806
▁총기난사	-11.2806
▁친선경기	-11.2806
▁바쿠바	-11.2806
▁오징어	-11.2806
▁침착	-11.2806
▁흥행	-11.2806
▁787	-11.2806
▁셰이크	-11.2807
ious	-11.2807
▁속옷	-11.2807
▁꼬리	-11.2807
▁중서부	-11.2807
▁도덕적	-11.2807
▁크라우	-11.2807
▁페트로	-11.2807
▁납치범들	-11.2807
▁제트기	-11.2808
▁도미니카	-11.2808
▁중앙정보	-11.2809
▁패널	-11.2809
▁탔다	-11.2809
▁뒤따	-11.2809
▁알자와히리	-11.2809
▁계곡	-11.281
▁면밀	-11.281
▁심사위원	-11.281
▁태양열	-11.281
▁대피령	-11.2811
▁같았다	-11.2811
▁환경보호	-11.2811
▁품질	-11.2814
▁생겼다	-11.2815
▁총알	-11.2816
▁만찬	-11.2816
▁불안감	-11.2818
▁존드로	-11.2818
▁피셔	-11.2819
▁맹세	-11.2819
공항	-11.282
▁배제하지	-11.282
▁요격	-11.282
▁외교관계	-11.2821
▁곡물	-11.2821
▁성행위	-11.2821
▁항복	-11.2823
▁적대적	-11.2825
▁바이오	-11.2826
▁격려	-11.2826
roll	-11.2827
▁참전	-11.2827
▁소령	-11.2828
▁아닐	-11.2828
▁남았다	-11.283
▁쓰여	-11.2832
▁일방적	-11.2834
▁지침	-11.2835
▁원격	-11.2837
▁관료	-11.2838
▁산악지역	-11.2839
▁아카데미상	-11.284
▁주어진	-11.2841
▁얼리	-11.2842
▁교토	-11.2845
▁크리스티나	-11.2846
천억원	-11.2846
▁대학살	-11.2853
▁채워	-11.2853
▁구제안	-11.2854
▁off	-11.2856
펠드	-11.2856
▁시범	-11.2857
▁가르치	-11.286
7-5	-11.2865
▁정통	-11.2871
▁운하	-11.2882
책임자	-11.2882
▁취소됐다	-11.2887
▁손님	-11.292
▁포기하지	-11.2927
▁만들었	-11.293
ki	-11.293
사람	-11.2932
▁pi	-11.2948
▁지속된	-11.2953
▁중국인들	-11.2975
▁집안	-11.2982
▁돌보	-11.2983
만여명	-11.3017
▁동부지역	-11.3052
▁진행됐다	-11.3071
21	-11.3073
▁근무하	-11.3077
▁일으켰	-11.3083
pf	-11.3087
▁걸려있	-11.3096
사이드	-11.3128
▁잠재	-11.3143
흙	-11.3162
▁제너럴	-11.3163
▁agree	-11.3163
▁economic	-11.3163
▁issue	-11.3163
▁구스마오	-11.3163
▁놀랐다	-11.3163
▁뉴멕시코	-11.3163
▁만장일치	-11.3163
▁모하마드	-11.3163
▁벨몬트	-11.3163
▁사형집행	-11.3163
▁애틀란타	-11.3163
▁자메이카	-11.3163
▁캠퍼스	-11.3163
▁캥거루	-11.3163
▁클리블랜드	-11.3163
▁탈라바니	-11.3163
▁터미널	-11.3163
▁퍼트레이어스	-11.3163
▁펼칠	-11.3163
▁피추시킨	-11.3163
팍	-11.3163
▁bmw	-11.3163
▁united	-11.3163
▁승용차	-11.3163
뻔	-11.3163
▁나타낸	-11.3163
▁생중계	-11.3163
▁월마트	-11.3163
▁크누트	-11.3163
▁구조조정	-11.3163
▁김계관	-11.3163
▁북동쪽	-11.3164
▁검찰총장	-11.3164
▁깃발	-11.3164
▁비영리	-11.3164
▁냉동	-11.3164
▁앗아	-11.3164
▁월드시리즈	-11.3164
▁빈민가	-11.3164
▁북서쪽	-11.3164
▁러셀	-11.3164
▁뜨거	-11.3164
▁사마라	-11.3164
▁유니버	-11.3164
▁미망인	-11.3164
▁노왁	-11.3165
▁흐르	-11.3165
▁전염병	-11.3166
▁펠리	-11.3166
▁제이미	-11.3167
▁염두	-11.3167
▁무엇인지	-11.3167
▁외교정책	-11.3167
▁공략	-11.3168
▁국영방송	-11.3168
▁메뉴	-11.3168
▁간섭	-11.3168
▁페리노	-11.3168
▁나쁘	-11.317
▁보석금	-11.317
▁face	-11.317
▁격추	-11.317
▁다짐	-11.3171
▁교황청	-11.3171
▁보상금	-11.3171
▁평범	-11.3172
▁want	-11.3172
▁범죄자들	-11.3173
▁어려워	-11.3173
▁eta	-11.3173
▁주치의	-11.3173
▁탄약	-11.3173
▁밀림	-11.3175
▁방북	-11.3175
▁완공	-11.3175
▁ka	-11.3176
▁머피	-11.3176
▁왔습니다	-11.3177
▁건립	-11.3177
▁세균	-11.3177
▁제라드	-11.3177
▁감추	-11.318
▁즐거	-11.3183
▁번영	-11.3183
▁폭풍우	-11.3183
▁악재	-11.3184
▁메달	-11.3185
▁국토	-11.3185
▁발목	-11.3188
▁중단하라	-11.3188
▁피플	-11.3189
▁행방	-11.319
▁레저	-11.3191
▁타입	-11.3191
▁것이냐	-11.3192
▁750	-11.3193
▁야심	-11.3196
▁공개되지	-11.3196
▁스파이스	-11.3199
ster	-11.3199
▁안겨	-11.3201
▁대피소	-11.3207
▁순찰대	-11.321
▁서버	-11.3211
▁장관급	-11.3216
▁경신	-11.3217
▁십대	-11.3219
▁대도시	-11.3236
캔	-11.3249
폭탄테러	-11.3252
흔	-11.3255
대사관	-11.3266
▁was	-11.3273
▁참가하	-11.3283
주택	-11.3285
▁환영한다	-11.333
방법	-11.3355
▁피해지역	-11.3359
▁편집자	-11.3363
요원들	-11.3377
병력	-11.338
985	-11.3418
▁고고학자들	-11.3434
밀리에	-11.3453
▁블로그	-11.3486
▁제조사	-11.3502
▁중단시키	-11.3507
▁사진들	-11.3512
멍	-11.353
▁반대한다	-11.3531
▁개헌	-11.3532
옐	-11.3534
▁오피니언	-11.3534
▁chief	-11.3534
▁chinese	-11.3534
▁consumer	-11.3534
▁peace	-11.3534
▁넘어섰다	-11.3534
▁댈러스	-11.3534
▁브로드웨이	-11.3534
▁웨스트버지니아	-11.3534
▁초등학교	-11.3534
▁호흡기	-11.3534
궈	-11.3534
띠	-11.3534
푼	-11.3534
헴	-11.3534
▁under	-11.3534
▁무책임	-11.3534
갓	-11.3534
깜	-11.3534
듬	-11.3534
▁market	-11.3534
▁빨간색	-11.3534
▁세실리아	-11.3534
▁에탄올	-11.3534
▁여동생	-11.3534
▁올바른	-11.3534
▁따돌리	-11.3534
▁저작권	-11.3534
▁겁니다	-11.3534
▁최우수	-11.3534
▁앙겔	-11.3534
▁이벤트	-11.3534
▁financ	-11.3534
▁하반기	-11.3534
▁압승	-11.3534
▁change	-11.3534
▁이른바	-11.3534
▁셔츠	-11.3534
▁도메인	-11.3534
▁call	-11.3534
▁습관	-11.3535
▁하리리	-11.3535
▁arm	-11.3535
▁낙찰	-11.3535
트로터	-11.3535
▁부회장	-11.3535
▁담겨있다	-11.3535
▁늘어났다	-11.3535
▁make	-11.3536
▁어휘	-11.3536
▁후계자	-11.3536
▁디스커버리호	-11.3536
▁down	-11.3537
▁유혹	-11.3537
▁제재조치	-11.3538
▁윤리적	-11.3538
▁홈런	-11.3539
▁열쇠	-11.3539
▁홀랜드	-11.3539
▁다뤄	-11.3539
▁초대형	-11.354
▁평결	-11.3542
▁자치구	-11.3543
▁벌금형	-11.3543
▁비평가들	-11.3543
▁글렌	-11.3544
▁삼림	-11.3544
▁밀집	-11.3544
▁결백	-11.3545
▁영입	-11.3547
▁데니스	-11.3547
▁생물학자	-11.355
▁놓았다	-11.3551
▁영역	-11.3553
▁모르지만	-11.3556
▁분출	-11.3561
▁대담	-11.3563
▁올릴	-11.3563
ese	-11.3564
▁도왔다	-11.3566
▁악화될	-11.3566
▁유독	-11.3566
▁agenc	-11.3569
▁시술	-11.3572
▁독점	-11.3575
▁자매	-11.3575
▁가이드	-11.3576
▁노동력	-11.358
▁불가피하다	-11.3585
▁육상	-11.3586
▁보았다	-11.3591
일이라고	-11.3602
▁비극적	-11.3613
꾸	-11.3626
▁따뜻하	-11.3628
뼈	-11.3636
넘	-11.3642
환경	-11.3653
▁star	-11.3654
amp	-11.3659
ark	-11.3666
ii	-11.3702
into	-11.3731
▁농구	-11.3745
▁esta	-11.3765
▁맡아	-11.3805
▁방문객	-11.3814
▁분리주의	-11.3836
ama	-11.384
▁녹아	-11.3848
▁살해하겠다	-11.3855
▁치명적	-11.3869
▁펼쳤	-11.3878
▁올렸	-11.3884
쁜	-11.3913
딴	-11.3916
벡	-11.3918
▁baghdad	-11.3918
▁health	-11.3918
▁pakistan	-11.3918
▁service	-11.3918
▁과테말라	-11.3918
▁국가보안법	-11.3918
▁닌텐도	-11.3918
▁리얼리티	-11.3918
▁마호메트	-11.3918
▁베테랑	-11.3918
▁보건복지부	-11.3918
▁엔터테인먼트	-11.3918
▁원내대표	-11.3918
▁의료보험	-11.3918
▁조선중앙통신	-11.3918
▁조코비치	-11.3918
▁집행유예	-11.3918
▁추수감사절	-11.3918
겹	-11.3918
낫	-11.3918
뇨	-11.3918
멧	-11.3918
무장혁명군	-11.3918
탬	-11.3918
▁bbk	-11.3918
▁단백질	-11.3918
▁솔로몬	-11.3918
▁알렉산드	-11.3918
▁ufo	-11.3918
▁싱가폴	-11.3918
▁안타까	-11.3918
▁열렬한	-11.3918
▁정동영	-11.3918
▁토마토	-11.3918
▁퍼레이드	-11.3918
▁두개골	-11.3918
▁뉴욕증시	-11.3918
▁의구심	-11.3918
▁911	-11.3919
▁제네바	-11.3919
▁종업원	-11.3919
▁콜레라	-11.3919
▁비공개	-11.3919
▁좌익	-11.3919
▁수족관	-11.3919
▁링컨	-11.3919
▁신용위기	-11.3919
▁태어나	-11.3919
▁유태인	-11.3919
ship	-11.3919
▁white	-11.3919
▁잡혀있	-11.3919
▁가볍	-11.3919
▁검출	-11.3919
▁대지진	-11.3919
▁낙관적	-11.3919
▁검진	-11.392
▁결렬	-11.392
▁꾸준	-11.3921
▁티켓	-11.3921
▁호주오픈	-11.3921
▁zan	-11.3921
▁삼엄	-11.3921
▁코미디언	-11.3921
▁참패	-11.3922
▁노리에가	-11.3922
▁과잉	-11.3922
▁돌아갔다	-11.3922
▁연합뉴스	-11.3923
▁블록	-11.3923
▁워커	-11.3923
east	-11.3924
▁free	-11.3924
▁혼합	-11.3924
▁배럭	-11.3924
▁규명	-11.3925
▁에이미	-11.3925
▁당분간	-11.3927
▁석상	-11.3927
▁설교	-11.3928
▁계층	-11.3928
▁남겼다	-11.3929
▁태양계	-11.3929
▁1984	-11.3929
▁제작자들	-11.3929
▁영예	-11.3929
▁매춘부	-11.393
▁광경	-11.3931
▁사진기자	-11.3931
▁이정인	-11.3932
▁신념	-11.3932
▁더이상	-11.3933
▁포스터	-11.3933
▁사찰	-11.3935
▁바퀴	-11.3936
▁리틀	-11.3938
▁시사회	-11.3939
▁극심	-11.3939
▁지폐	-11.3943
▁연립	-11.3944
▁격분	-11.3945
▁관행	-11.3946
▁보수파	-11.3947
▁발견돼	-11.3947
▁suv	-11.3947
▁예금	-11.395
▁권유	-11.3953
▁맡게	-11.3953
▁비자금	-11.3965
320	-11.398
론자들	-11.3995
▁취해야	-11.3998
▁지났	-11.3999
오픈	-11.404
금융	-11.4041
▁당원들	-11.4057
▁빚어	-11.409
▁파괴되	-11.416
55	-11.4205
▁per	-11.4247
▁hel	-11.4273
▁america	-11.429
롯	-11.4312
펀	-11.4318
round	-11.4318
▁갤럭시	-11.4318
▁곤돌라	-11.4318
▁대중교통	-11.4318
▁대통합민주신당	-11.4318
▁라왈핀디	-11.4318
▁루마니아	-11.4318
▁부딪혀	-11.4318
▁소수민족	-11.4318
▁아웅산수지	-11.4318
▁얀코비치	-11.4318
▁엔데버호	-11.4318
▁이데올로기	-11.4318
▁짝짓기	-11.4318
▁카톨릭	-11.4318
▁타블로이드	-11.4318
▁페널티킥	-11.4318
▁폴라로이드	-11.4318
딱	-11.4318
룽	-11.4318
쩌	-11.4318
찔	-11.4318
펫	-11.4318
▁wild	-11.4318
▁동남아시아	-11.4318
▁원정경기	-11.4318
▁터무니	-11.4318
▁페르난도	-11.4318
솜	-11.4318
▁농작물	-11.4318
▁동점골	-11.4318
▁로페즈	-11.4318
▁백화점	-11.4318
▁카라카스	-11.4318
▁평론가들	-11.4318
▁마닐라	-11.4318
▁ftse	-11.4318
▁보스니아	-11.4318
▁유망주	-11.4318
▁카리스마	-11.4318
▁내비쳤다	-11.4319
▁자이툰	-11.4319
▁냉각	-11.4319
▁테이블	-11.4319
▁뮤직	-11.4319
▁good	-11.4319
▁that	-11.4319
▁숨지게	-11.4319
▁살모넬라균	-11.4319
▁억압	-11.4319
▁소아과	-11.4319
▁가자시티	-11.432
▁부정선거	-11.432
▁brit	-11.432
▁범람	-11.432
▁franc	-11.4321
▁나중에	-11.4321
ease	-11.4321
▁관광산업	-11.4321
▁결승골	-11.4322
▁밀접	-11.4322
▁면허	-11.4323
▁당첨	-11.4325
▁입찰	-11.4326
▁경제성장률	-11.4327
▁궁금	-11.4327
▁세레나	-11.4328
▁창립	-11.4328
▁울머	-11.4328
▁기둥	-11.4328
▁표적이	-11.4329
▁2014	-11.4329
▁밀매	-11.4329
49	-11.4329
▁오스틴	-11.433
▁심장병	-11.433
▁난폭	-11.433
▁있겠지	-11.4331
▁결별	-11.4331
▁디에고	-11.4332
▁평생	-11.4332
▁삼았다	-11.4333
▁비싸	-11.4333
▁매사추세츠주	-11.4334
▁모닝	-11.4335
▁직무	-11.4335
▁지칭	-11.4339
▁동남	-11.4339
▁걸음	-11.434
▁책임감	-11.4342
▁온천	-11.4342
▁페퍼	-11.4343
▁외각	-11.4348
게이트	-11.4352
▁cur	-11.4367
▁순회	-11.4375
▁일반인들	-11.4407
ful	-11.4426
혹	-11.4428
즐	-11.4451
프로그램	-11.4453
핵	-11.4453
잘	-11.4455
▁pop	-11.448
▁소방관들	-11.4481
▁줄어들었다	-11.4484
능력	-11.4485
▁판사들	-11.4491
그램	-11.4492
▁민주당원들	-11.4528
7-6	-11.4541
▁fund	-11.4544
uni	-11.4558
▁연구조사	-11.4578
▁다쳤	-11.4586
▁상업적	-11.4587
▁자랑스럽	-11.459
▁start	-11.4612
▁보여준	-11.4668
▁여러분들	-11.4682
▁맞았	-11.4689
▁수백만명	-11.4694
out	-11.4709
▁다국적	-11.4724
▁경제성장	-11.4729
▁공급받	-11.4729
콕	-11.4733
앗	-11.4735
숭	-11.4735
▁about	-11.4735
▁oecd	-11.4735
▁report	-11.4735
▁가톨릭	-11.4735
▁로맨틱	-11.4735
▁몬타나	-11.4735
▁무크타다	-11.4735
▁버시바우	-11.4735
▁브뤼셀	-11.4735
▁사카쉬빌리	-11.4735
▁컨퍼런스	-11.4735
▁콘크리트	-11.4735
▁콜레스테롤	-11.4735
▁프란시스	-11.4735
▁프리메라리가	-11.4735
▁합참의장	-11.4735
궐	-11.4735
뭉	-11.4735
캣	-11.4735
쿤	-11.4735
퀘	-11.4735
튠	-11.4735
펙	-11.4735
▁wwf	-11.4735
▁부정부패	-11.4735
▁여객선	-11.4735
▁임산부	-11.4735
▁크리켓	-11.4735
켐	-11.4735
콥	-11.4735
▁금융제재	-11.4735
▁니제르	-11.4735
▁로널드	-11.4735
▁무차별	-11.4735
▁1953	-11.4735
▁휴양지	-11.4735
▁횡단	-11.4735
▁수마트라	-11.4735
▁팔루자	-11.4735
▁힉스	-11.4735
▁girl	-11.4735
▁뒤덮	-11.4735
▁번호판	-11.4735
▁오마바	-11.4735
▁trans	-11.4735
▁home	-11.4735
▁기번스	-11.4735
▁활력	-11.4736
▁주니어	-11.4736
▁이소연	-11.4736
▁페인트	-11.4736
▁아지즈	-11.4736
▁소요사태	-11.4736
▁쟁점	-11.4736
▁와중에	-11.4737
호르타	-11.4737
▁농촌	-11.4738
▁근접	-11.4738
▁불쾌감	-11.4738
▁참가국들	-11.4739
▁간첩	-11.4739
▁통계청	-11.4739
▁액수	-11.474
▁흉기	-11.474
▁엄중	-11.4741
▁휩싸였다	-11.4741
▁싸울	-11.4741
▁추모식	-11.4742
▁평창	-11.4742
▁총격사건	-11.4743
▁중태라	-11.4743
스테이트	-11.4744
▁평등	-11.4745
▁이루어질	-11.4745
▁union	-11.4746
▁계절	-11.4746
▁패션계	-11.4747
▁연애	-11.4748
▁테러공격	-11.475
▁테네시주	-11.475
▁금지령	-11.4751
▁피델	-11.4751
▁팔렸다	-11.4752
count	-11.4752
▁지나친	-11.4752
▁연습	-11.4754
▁물리적	-11.4755
-16	-11.4757
▁본래	-11.476
과학기술	-11.4768
▁지도력	-11.4773
▁착용하	-11.4805
clu	-11.4814
973	-11.483
other	-11.4831
▁tru	-11.4856
▁이라크인들	-11.488
곰	-11.4886
잠	-11.4887
딸	-11.4889
▁경찰청장	-11.4889
월드컵	-11.489
미사일	-11.4892
▁만족한다	-11.493
관리국	-11.4934
▁투자가들	-11.4941
▁fun	-11.4942
▁서있	-11.5081
▁들어갔	-11.5104
▁관료들	-11.5148
▁테네시	-11.5154
▁검문	-11.5156
획	-11.5159
▁constitution	-11.517
▁클레이코트	-11.517
▁australia	-11.517
▁general	-11.517
▁next	-11.517
▁검시관	-11.517
▁국토안보부	-11.517
▁그린스펀	-11.517
▁대량살상무기	-11.517
▁디얄라	-11.517
▁떨어뜨	-11.517
▁라우터바흐	-11.517
▁롱고리아	-11.517
▁선거캠페인	-11.517
▁슈나이더	-11.517
▁앨라배마	-11.517
▁언색호	-11.517
▁오차범위	-11.517
▁지구온난화	-11.517
▁테헤란	-11.517
옌	-11.517
쥬	-11.517
쭉	-11.517
츄	-11.517
▁gnp	-11.517
▁농산물	-11.517
▁신행정수도	-11.517
▁카메론	-11.517
▁급상승	-11.517
▁낙하산	-11.517
▁six	-11.517
▁괴롭	-11.517
▁안젤리	-11.517
▁졸릭	-11.517
▁올랜도	-11.517
▁줄어든	-11.517
▁내다봤	-11.517
▁획기적	-11.517
▁저녁식사	-11.517
▁마스터스	-11.517
▁tax	-11.517
▁administration	-11.517
▁유시프	-11.517
▁몬테	-11.517
▁검열	-11.517
▁반도체	-11.517
▁리더십	-11.5171
▁사냥꾼	-11.5171
▁황교수	-11.5171
▁납부	-11.5171
▁쓰러졌	-11.5172
▁싱글	-11.5172
▁근본적	-11.5172
ould	-11.5172
▁무엇인가	-11.5173
▁아르빌	-11.5173
▁호킨스	-11.5173
▁동맹관계	-11.5173
▁자살폭탄	-11.5174
▁자본주의	-11.5174
▁정부청사	-11.5174
▁토끼	-11.5174
▁보도자료	-11.5175
▁그린랜드	-11.5176
▁아바타	-11.5177
물리학	-11.5177
▁늘어난	-11.5179
▁자유로운	-11.5179
▁앙리	-11.518
▁토로했다	-11.518
ago	-11.518
▁제조회사	-11.518
▁발송	-11.5181
▁친밀	-11.5182
▁wid	-11.5187
▁해준다	-11.5187
now	-11.5193
▁제압하	-11.5195
살짜리	-11.5205
▁안되	-11.522
▁피터슨	-11.523
even	-11.5234
▁어려웠	-11.5255
▁이민법	-11.527
▁증가시키	-11.5276
▁서부지역	-11.5296
▁진정시키	-11.5309
▁괴한들	-11.5319
▁서울시장	-11.5325
휘	-11.5329
사드르	-11.5343
팬	-11.5343
댄	-11.5346
반응	-11.5347
▁피랍됐	-11.5386
dict	-11.5438
▁알려졌	-11.5459
▁피고인들	-11.5508
▁떠났	-11.5548
▁우주비행	-11.5593
갱	-11.5624
▁arrest	-11.5624
밭	-11.5624
썩	-11.5624
▁beijing	-11.5624
▁claim	-11.5624
▁hsbc	-11.5624
▁movie	-11.5624
▁nymex	-11.5624
▁resign	-11.5624
▁school	-11.5624
▁society	-11.5624
▁street	-11.5624
▁summit	-11.5624
▁갇혀있	-11.5624
▁국제사면위원회	-11.5624
▁김경준	-11.5624
▁베스트셀러	-11.5624
▁손해배상	-11.5624
▁신천옹	-11.5624
▁아라파트	-11.5624
▁아이슬란드	-11.5624
▁애널리스트	-11.5624
▁우비넨	-11.5624
▁윌리암	-11.5624
▁자이언트	-11.5624
▁콘텐트	-11.5624
▁틀림없	-11.5624
▁페르난데스	-11.5624
▁푸에르토리코	-11.5624
덱	-11.5624
둠	-11.5624
봅	-11.5624
윙	-11.5624
촨	-11.5624
파이낸셜	-11.5624
▁돈세탁	-11.5624
▁인디언	-11.5624
▁전화통화	-11.5624
▁참모총장	-11.5624
▁플레이오프	-11.5624
▁몰디브	-11.5624
▁폭넓	-11.5624
▁해리왕자	-11.5624
▁무중력	-11.5624
▁price	-11.5624
▁브라더스	-11.5624
▁가금류	-11.5625
▁gps	-11.5625
▁황박사	-11.5625
▁가석방	-11.5625
▁자부심	-11.5625
▁갱신	-11.5625
▁오페라	-11.5625
▁곳곳에서	-11.5625
▁발레리	-11.5625
▁후쿠다	-11.5625
▁탑재	-11.5625
▁선진국	-11.5625
▁지저스	-11.5625
▁차세대	-11.5625
▁islam	-11.5625
▁곤란	-11.5625
▁프리킥	-11.5625
▁남서쪽	-11.5625
▁접어들	-11.5625
▁진원지	-11.5625
▁방위군	-11.5625
▁침실	-11.5625
▁격돌한	-11.5625
▁공동성명	-11.5625
▁라시드	-11.5625
▁아이팟	-11.5625
▁놀랍	-11.5625
▁강아지	-11.5625
▁석탄	-11.5626
▁트레킹	-11.5626
▁딜리	-11.5626
▁vote	-11.5626
▁삼성그룹	-11.5626
▁선제골	-11.5626
▁프레슬리	-11.5626
▁india	-11.5626
▁익사	-11.5627
▁삭스	-11.5627
▁푸켓	-11.5627
▁poll	-11.5627
▁지방선거	-11.5628
▁다툼	-11.5628
▁이틀째	-11.5628
▁화폐	-11.5629
▁기차역	-11.5629
▁포옹	-11.5629
▁폐허	-11.5629
▁보건당국	-11.5629
▁기부금	-11.563
▁왕궁	-11.563
▁프라임	-11.5631
▁웃음	-11.5631
▁물러난	-11.5632
▁휴먼	-11.5632
▁rul	-11.5633
▁투항	-11.5633
▁않으려	-11.5635
▁맞춘	-11.5635
▁정교회	-11.5641
프라이스	-11.5642
▁대학생들	-11.5656
▁설문조사	-11.5656
▁일본인들	-11.5666
▁공화당원들	-11.5696
▁두려워하	-11.5719
▁los	-11.5727
므	-11.5738
▁우주비행사들	-11.5748
▁고고학자	-11.5752
▁여자들	-11.5763
딕	-11.5812
카메라	-11.582
투쟁	-11.5823
time	-11.5823
비행기	-11.5867
▁손님들	-11.5951
▁장악하	-11.5982
▁조직원들	-11.5983
▁매력적	-11.6022
▁돌아왔	-11.6027
▁나타냈	-11.6053
끔	-11.609
욱	-11.609
뷔	-11.6097
툰	-11.6101
앵	-11.6101
긍	-11.6101
▁black	-11.6101
▁democra	-11.6101
▁invest	-11.6101
▁journal	-11.6101
▁candidate	-11.6101
▁commission	-11.6101
▁defense	-11.6101
▁official	-11.6101
▁public	-11.6101
▁russia	-11.6101
▁science	-11.6101
▁system	-11.6101
▁가로질러	-11.6101
▁가이트너	-11.6101
▁그랜드슬램	-11.6101
▁금강산	-11.6101
▁라스무센	-11.6101
▁레드삭스	-11.6101
▁로드맵	-11.6101
▁마터호른	-11.6101
▁맞교환	-11.6101
▁메디컬	-11.6101
▁무너뜨	-11.6101
▁밀리밴드	-11.6101
▁불필요	-11.6101
▁비아그라	-11.6101
▁선생님	-11.6101
▁소렌스탐	-11.6101
▁스콜세지	-11.6101
▁스탤론	-11.6101
▁식이요법	-11.6101
▁신용경색	-11.6101
▁싫어하	-11.6101
▁얼어붙	-11.6101
▁와지리스탄	-11.6101
▁증권거래소	-11.6101
▁질렀다	-11.6101
▁코네티컷	-11.6101
▁텔레콤	-11.6101
▁투탕카멘	-11.6101
▁포틀랜드	-11.6101
▁푸에르타	-11.6101
▁헝가리	-11.6101
굽	-11.6101
덟	-11.6101
쯔	-11.6101
▁국가정보원	-11.6101
▁매릴랜드	-11.6101
▁빈라덴	-11.6101
▁생태계	-11.6101
▁알자지라	-11.6101
▁유네스코	-11.6101
▁ecb	-11.6101
▁만델라	-11.6101
▁음란물	-11.6101
▁점유율	-11.6101
▁주미대사	-11.6101
▁팽팽	-11.6101
▁학부모	-11.6101
▁forces	-11.6101
▁사절단	-11.6101
▁위안화	-11.6101
▁재처리	-11.6101
국가대표팀	-11.6101
▁아메드	-11.6101
▁납북	-11.6101
▁고마움	-11.6101
▁남동쪽	-11.6101
▁본거지	-11.6101
▁파이프라인	-11.6101
▁나이로비	-11.6101
▁트레이드	-11.6101
▁이뤄져야	-11.6101
▁핑크	-11.6101
rack	-11.6101
▁블레이크	-11.6102
▁spec	-11.6102
▁거세지	-11.6103
▁park	-11.6103
▁버려진	-11.6103
▁외딴	-11.6103
▁소행이라	-11.6104
▁신분증	-11.6104
▁불러일으키	-11.6105
▁동물보호	-11.6105
▁투옥	-11.6106
▁버클리	-11.6106
▁농부들	-11.6106
▁완승	-11.6108
▁post	-11.6108
▁우호적	-11.611
메모리얼	-11.611
▁생물학적	-11.6113
▁잠재력	-11.6116
▁전인대	-11.6118
▁앉아있	-11.6131
▁시청률	-11.6132
▁분리주의자들	-11.614
▁금연법	-11.6155
▁간부들	-11.6155
▁ira	-11.6157
form	-11.6184
▁판매되	-11.6184
▁외교관들	-11.6262
훈련	-11.6282
▁민영	-11.6298
엠	-11.6317
▁집행위원	-11.6392
▁지나갔	-11.6438
▁경호원들	-11.647
▁이뤄졌	-11.6529
▁팔레스타인인들	-11.6551
az	-11.6552
컷	-11.6566
▁메모리	-11.6591
룡	-11.6597
▁힌두	-11.6599
▁elect	-11.66
▁found	-11.6601
▁나이트클럽	-11.6601
▁와이오밍	-11.6601
▁햇볕	-11.6601
ough	-11.6601
▁break	-11.6601
▁green	-11.6601
▁rctv	-11.6601
▁support	-11.6601
▁window	-11.6601
▁갖췄다	-11.6601
▁갤러리	-11.6601
▁네그로폰테	-11.6601
▁뉴욕상업거래소	-11.6601
▁매카트니	-11.6601
▁아흐마디네자드	-11.6601
▁즈보나레바	-11.6601
▁초콜릿	-11.6601
▁포츠머스	-11.6601
▁해안경비대	-11.6601
낀	-11.6601
뜯	-11.6601
맙	-11.6601
배아줄기세포	-11.6601
삽	-11.6601
샴	-11.6601
인터내셔널	-11.6601
쩔	-11.6601
▁uae	-11.6601
▁www	-11.6601
▁쓰러져	-11.6601
▁corp	-11.6601
▁영유권	-11.6601
▁현수막	-11.6601
▁중소기업	-11.6601
▁신생아	-11.6601
▁자민당	-11.6601
▁훔쳐	-11.6601
▁눈보라	-11.6601
▁마리화나	-11.6601
▁센트럴	-11.6601
▁딜런	-11.6601
▁갱단	-11.6601
▁로날드	-11.6601
▁아폴로	-11.6601
▁프리츨	-11.6601
▁홈구장	-11.6601
▁피해여성	-11.6601
uck	-11.6601
▁low	-11.6601
▁ump	-11.6601
▁아이다호	-11.6601
▁추종자들	-11.6601
▁해들리	-11.6601
▁prosecutor	-11.6601
▁매도프	-11.6601
▁몰아넣	-11.6601
▁무자비	-11.6601
▁무하마	-11.6601
▁발자국	-11.6601
▁강원도	-11.6601
▁아로요	-11.6602
▁참의원	-11.6602
▁휴이트	-11.6602
▁함부르크	-11.6602
▁다이앤	-11.6602
▁some	-11.6602
▁사무국장	-11.6602
▁에어웨이	-11.6602
▁룰라	-11.6602
▁가르시아	-11.6603
▁연못	-11.6603
▁cru	-11.6603
▁auto	-11.6603
▁rock	-11.6603
▁봉착	-11.6603
▁파이프	-11.6603
▁게놈	-11.6603
▁그래픽	-11.6603
▁독특	-11.6604
▁혜성	-11.6604
▁웰스	-11.6604
▁퍼뜨	-11.6604
▁황폐	-11.6604
▁창업자	-11.6604
▁척추	-11.6604
▁leg	-11.6604
▁흘리	-11.6604
▁혼잡	-11.6606
▁가져왔다	-11.6606
▁선고받았다	-11.6606
▁따라잡	-11.6607
▁출항	-11.6608
water	-11.661
▁도발적	-11.6613
▁선호하	-11.6621
보관소	-11.6628
▁선보였	-11.6651
▁벌여왔	-11.6652
ift	-11.6666
앞	-11.6837
앨	-11.6845
잇	-11.6845
시리즈	-11.6846
뒤	-11.6846
▁운전자들	-11.6866
주민들	-11.6907
1945	-11.6915
▁친척들	-11.6976
▁주시하	-11.7016
▁되찾았	-11.7041
▁노인들	-11.7058
▁유대인들	-11.7069
side	-11.7127
▁북대서양	-11.7127
employ	-11.7127
▁food	-11.7127
▁glob	-11.7127
▁hostage	-11.7127
▁strike	-11.7127
▁travel	-11.7127
▁관절염	-11.7127
▁꿀벌	-11.7127
▁니스텔로이	-11.7127
▁동성결혼	-11.7127
▁디스플레이	-11.7127
▁르완다	-11.7127
▁리트비넨코	-11.7127
▁메르세데스	-11.7127
▁몸싸움	-11.7127
▁미항공우주국	-11.7127
▁방코델타아시아	-11.7127
▁베를루스코니	-11.7127
▁불매운동	-11.7127
▁블랙워터	-11.7127
▁셰퍼드	-11.7127
▁심장질환	-11.7127
▁아제르바이잔	-11.7127
▁앙카라	-11.7127
▁애틀랜티스호	-11.7127
▁역전승	-11.7127
▁옥스포드	-11.7127
▁요하네스버그	-11.7127
▁정권인수팀	-11.7127
▁지켜봤다	-11.7127
▁칠면조	-11.7127
▁토튼햄	-11.7127
▁핀란드	-11.7127
▁핸드폰	-11.7127
늄	-11.7127
늬	-11.7127
럿	-11.7127
벵	-11.7127
빔	-11.7127
▁가솔린	-11.7127
▁메신저	-11.7127
▁박정희	-11.7127
▁성매매	-11.7127
자르카위	-11.7127
▁1983	-11.7127
▁버틀러	-11.7127
▁인공위성	-11.7127
▁컨셉	-11.7127
▁키드먼	-11.7127
▁파란색	-11.7127
▁인내심	-11.7127
▁잠수함	-11.7127
▁재규어	-11.7127
▁합법화	-11.7127
▁usgs	-11.7127
▁밀라노	-11.7127
▁스즈키	-11.7127
▁영사관	-11.7127
▁조선일보	-11.7127
▁나뉘어	-11.7127
▁순이익	-11.7127
▁선거유세	-11.7127
▁종말론	-11.7127
▁카펠로	-11.7127
▁기다렸다	-11.7127
▁원자재	-11.7127
▁드러나	-11.7127
▁사직서	-11.7127
▁파라오	-11.7127
▁액션	-11.7127
▁오사카	-11.7127
▁대운하	-11.7127
▁비너스	-11.7127
▁사형선고	-11.7127
▁곤경에	-11.7127
▁괴물	-11.7127
▁막바지	-11.7127
▁유타주	-11.7127
▁반짝이	-11.7128
▁참혹	-11.7128
▁heart	-11.7128
▁징조	-11.7128
▁좌우	-11.7128
▁즐거움	-11.7128
▁번화가	-11.7128
▁페라로	-11.7128
▁묵념	-11.7128
▁그리핀	-11.7128
▁노숙자	-11.7129
좋	-11.7388
못	-11.7395
턱	-11.7399
써	-11.7596
벳	-11.7682
英	-11.7683
캇	-11.7683
흠	-11.7683
따	-11.7983
꽃	-11.7987
툼	-11.8266
텀	-11.8271
꿨	-11.8271
늑	-11.8271
띤	-11.8271
샨	-11.8271
팻	-11.8271
퐁	-11.8271
뚝	-11.8271
헬	-11.8609
홈	-11.8614
섯	-11.8889
봇	-11.889
쑤	-11.8896
市	-11.8896
랏	-11.8896
윅	-11.8896
팡	-11.8896
펑	-11.8896
헝	-11.8896
뎌	-11.8896
훌	-11.8896
셸	-11.9546
솟	-11.956
킥	-11.9562
뉘	-11.9562
햇	-11.9562
눕	-11.9562
둡	-11.9562
샵	-11.9562
엉	-11.9562
쟈	-11.9562
줌	-11.9562
퉁	-11.9562
옴	-11.9562
맹	-11.9965
큰	-11.9996
껴	-12.0276
랴	-12.0277
륭	-12.0277
멕	-12.0277
샹	-12.0277
쿡	-12.0277
性	-12.0277
뜰	-12.0277
륨	-12.0277
뭘	-12.0277
셍	-12.0277
챈	-12.0277
듀	-12.0762
덜	-12.0762
낙	-12.0764
빅	-12.0764
듭	-12.1042
쏠	-12.1046
故	-12.1046
뎀	-12.1046
샷	-12.1046
엿	-12.1046
쥔	-12.1046
쪼	-12.1046
쳇	-12.1046
퍽	-12.1046
싹	-12.1046
벗	-12.1594
퀸	-12.1596
쓸	-12.1597
떠	-12.1597
끝	-12.1598
섹	-12.1878
횡	-12.1879
넛	-12.1879
랠	-12.1879
밧	-12.1879
벙	-12.1879
삐	-12.1879
쉘	-12.1879
싯	-12.1879
엣	-12.1879
家	-12.1879
묻	-12.2502
숨	-12.2504
녹	-12.2506
콧	-12.2785
뭇	-12.2788
옷	-12.3505
윌	-12.3507
벼	-12.3777
왁	-12.3785
훼	-12.3788
깨	-12.4615
밥	-12.4617
겸	-12.4617
뢰	-12.4884
탠	-12.4896
냄	-12.4899
깅	-12.4899
펭	-12.4899
뛰	-12.5867
웹	-12.5868
곧	-12.5869
즉	-12.5873
놨	-12.6077
즌	-12.6133
휠	-12.6149
갖	-12.7293
펄	-12.7295
깊	-12.7297
또	-12.7298
팟	-12.7575
댈	-12.7578
찮	-12.7578
콴	-12.7578
뇌	-12.8956
묵	-12.8962
쌀	-12.8963
낄	-12.9244
옵	-12.9245
촛	-12.9245
탤	-12.9245
룻	-12.9245
폼	-12.9245
셴	-12.9245
맛	-13.0961
쓴	-13.0963
멀	-13.0963
밑	-13.0963
꿀	-13.1237
귄	-13.1245
덧	-13.1245
맵	-13.1245
맡	-13.3455
쏘	-13.3462
숲	-13.3463
美	-13.3464
큼	-13.3726
꿔	-13.3737
눠	-13.3739
숫	-13.3743
츨	-13.3744
뚫	-13.6796
뜻	-13.6798
왜	-13.6798
룹	-13.7031
뻐	-13.7074
깁	-13.7077
끗	-13.7077
몇	-14.1798
빚	-14.18
맺	-14.18
옆	-14.18
첫	-14.1802
떤	-14.2075
힉	-14.2077
볕	-14.2078
덮	-15.1813
굿	-15.1816
넓	-15.1817
숀	-15.1817
빼	-15.1817
봄	-15.1817
샐	-15.1869
꿰	-15.187
깥	-15.1871
겉	-15.1872
갚	-15.1873
新	-15.1874
몹	-15.1875
꼴	-15.1876
팸	-15.1877
씌	-15.1878
맷	-15.1879
깎	-15.188
헥	-15.1881
쏴	-15.1882
썹	-15.1883
슭	-15.1884
뀐	-15.1885
킷	-15.1886
챌	-15.1887
얇	-15.1888
씀	-15.1889
뀔	-15.189
꽉	-15.1891
꽂	-15.1892
콸	-15.1893
뭐	-15.1894
댕	-15.1895
꾀	-15.1896
反	-15.1897
얹	-15.1898
쐈	-15.1899
깐	-15.19
긱	-15.1901
뻗	-15.1902
뱃	-15.1903
낚	-15.1904
꼼	-15.1905
잦	-15.1906
씻	-15.1907
숍	-15.1908
맑	-15.1909
렷	-15.191
핫	-15.1911
핍	-15.1912
엎	-15.1913
뭔	-15.1914
몫	-15.1915
짖	-15.1916
샀	-15.1917
곁	-15.1918
짙	-15.1919
쏜	-15.192
낡	-15.1921
컸	-15.1922
캡	-15.1923
젭	-15.1924
싣	-15.1925
닮	-15.1926
젖	-15.1927
릅	-15.1928
탓	-15.1929
쁨	-15.193
캥	-15.1931
꽤	-15.1932
굶	-15.1933
횟	-15.1934
팰	-15.1935
췌	-15.1936
웍	-15.1937
뮬	-15.1938
릇	-15.1939
틈	-15.194
댓	-15.1941
댐	-15.1942
앰	-15.1943
붓	-15.1944
펌	-15.1945
챙	-15.1946
닿	-15.1947
뤼	-15.1948
흩	-15.1949
뿔	-15.195
前	-15.1951
뮌	-15.1952
튀	-15.1953
괜	-15.1954
꼽	-15.1955
굳	-15.1956
녔	-15.1957
굉	-15.1958
옳	-15.1959
곱	-15.196
랬	-15.1961
픔	-15.1962
밸	-15.1963
닙	-15.1964
띄	-15.1965
넹	-15.1966
낌	-15.1967
밟	-15.1968
윔	-15.1969
눴	-15.197
싫	-15.1971
괄	-15.1972
팝	-15.1973
옛	-15.1974
꼈	-15.1975
썼	-15.1976
핸	-15.1977
딪	-15.1978
잊	-15.1979
멤	-15.198
깝	-15.1981
흰	-15.1982
벅	-15.1983
갇	-15.1984
좁	-15.1985
묶	-15.1986
췄	-15.1987
뱅	-15.1988
꼭	-15.1989
닫	-15.199
왼	-15.1991
뀌	-15.1992
렴	-15.1993
깔	-15.1994
궤	-15.1995
탱	-15.1996
읽	-15.1997
뱀	-15.1998
쫓	-15.1999
짧	-15.2
쏟	-15.2001
쌓	-15.2002
뭄	-15.2003
똑	-15.2004
슴	-15.2005
뒷	-15.2006
걷	-15.2007
릎	-15.2008
뽑	-15.2009
붉	-15.201
뿌	-15.2011
얘	-15.2012
앓	-15.2013
콰	-15.2014
꺾	-15.2015
멋	-15.2016
!	-15.2017
꿈	-15.2018
곽	-15.2019
낳	-15.202
휩	-15.2021
돕	-15.2022
녁	-15.2023
듣	-15.2024
됩	-15.2025
끊	-15.2026
좀	-15.2027
갤	-15.2028
춰	-15.2029
삶	-15.203
톰	-15.2031
젝	-15.2032
늦	-15.2033
슷	-15.2034
땅	-15.2035
쿄	-15.2036
잭	-15.2037
앉	-15.2038
렵	-15.2039
옮	-15.204
젊	-15.2041
흡	-15.2042
챔	-15.2043
촬	-15.2044
흑	-15.2045
샌	-15.2046
찍	-15.2047
렀	-15.2048
떻	-15.2049
겪	-15.205
믿	-15.2051
펼	-15.2052
섰	-15.2053
먹	-15.2054
낮	-15.2055
렇	-15.2056
잃	-15.2057
캠	-15.2058
싶	-15.2059
랐	-15.206
끌	-15.2061
?	-15.2062
몸	-15.2063
켰	-15.2064
밖	-15.2065
얻	-15.2066
쇄	-15.2067
볍	-15.2068
떨	-15.2068
찾	-15.2069
높	-15.207
맞	-15.2071
혐	-15.2072
많	-15.2073
협	-15.2074
확	-15.2075
밝	-15.2076
,	-15.2077
.	-15.2078
걱	-15.2078
