<pad>	0
<s>	0
</s>	0
<unk>	0
▁the	-3.02269
▁.	-3.23778
▁,	-3.27366
s	-3.4184
ed	-3.86156
▁a	-3.89254
▁to	-3.903
▁of	-3.95119
▁in	-4.03031
▁and	-4.11083
ing	-4.33384
▁s	-4.41065
▁	-4.75829
-	-4.77514
▁said	-4.90351
▁on	-4.92067
▁for	-4.97555
▁that	-5.00447
▁is	-5.20544
▁was	-5.28514
▁with	-5.31045
ly	-5.33006
y	-5.33882
▁be	-5.35704
▁it	-5.42366
d	-5.50927
▁he	-5.51384
▁at	-5.52034
e	-5.57869
▁an	-5.61212
▁from	-5.63063
▁by	-5.65574
▁as	-5.68385
▁has	-5.69111
▁his	-5.77905
▁have	-5.77979
▁are	-5.90098
▁but	-5.95333
▁will	-5.98492
▁were	-5.98576
▁not	-6.05619
▁u	-6.11124
▁who	-6.11933
n	-6.14531
▁after	-6.16966
▁had	-6.19618
▁they	-6.21869
▁t	-6.25197
▁been	-6.25246
▁this	-6.28065
▁their	-6.32739
▁i	-6.3301
▁people	-6.33574
▁about	-6.36077
▁more	-6.36499
▁its	-6.38596
▁two	-6.4109
▁new	-6.43199
▁we	-6.43526
▁korea	-6.43595
▁which	-6.48006
▁president	-6.49593
▁one	-6.49885
▁her	-6.49962
er	-6.5105
▁would	-6.53415
▁up	-6.54602
▁or	-6.55743
▁government	-6.55768
es	-6.56972
▁she	-6.58951
▁north	-6.61405
▁also	-6.62216
▁out	-6.63333
▁than	-6.65027
▁over	-6.66407
▁last	-6.7084
▁cnn	-6.72
a	-6.72394
ies	-6.72431
▁police	-6.72728
▁when	-6.7513
▁first	-6.75514
▁year	-6.77136
▁south	-6.77226
o	-6.78837
t	-6.81903
▁us	-6.82541
▁there	-6.82749
▁some	-6.84609
▁other	-6.84645
▁into	-6.86126
▁all	-6.86738
▁no	-6.88295
▁told	-6.94273
▁can	-6.95524
▁world	-6.95688
al	-6.99027
▁time	-6.99061
i	-6.9948
▁years	-7.00948
▁state	-7.02677
▁korean	-7.02786
▁percent	-7.02863
▁you	-7.02916
▁united	-7.06176
▁1	-7.07265
▁could	-7.08134
▁them	-7.09453
▁according	-7.09579
▁if	-7.09625
▁officials	-7.09726
▁000	-7.09749
an	-7.12586
▁country	-7.13625
▁three	-7.14687
▁monday	-7.15
▁iraq	-7.16033
▁tuesday	-7.17198
▁military	-7.17203
▁says	-7.17697
▁al	-7.1778
▁un	-7.17943
▁re	-7.18597
▁national	-7.19044
in	-7.2124
▁what	-7.21359
▁kill	-7.22317
▁minister	-7.22637
▁obama	-7.2329
▁states	-7.24151
▁so	-7.24562
▁him	-7.25389
▁wednesday	-7.25798
▁week	-7.25813
▁party	-7.25885
▁before	-7.26451
▁most	-7.27495
▁million	-7.27696
on	-7.27792
▁like	-7.28304
▁since	-7.28595
▁against	-7.2862
▁sunday	-7.28739
man	-7.2992
▁now	-7.30364
▁bush	-7.31771
▁down	-7.31906
▁m	-7.32068
▁under	-7.32318
▁nuclear	-7.32392
▁china	-7.32405
▁where	-7.3278
▁may	-7.33272
▁dur	-7.33369
▁say	-7.35938
cause	-7.37169
▁day	-7.37561
▁2	-7.37724
▁official	-7.38314
▁city	-7.38414
▁take	-7.38582
▁thursday	-7.38777
▁former	-7.39151
▁just	-7.39601
year	-7.40978
▁security	-7.4125
▁do	-7.414
▁whil	-7.41411
▁back	-7.41644
▁house	-7.42454
▁reported	-7.42605
tween	-7.42617
▁off	-7.43157
ion	-7.43465
old	-7.46511
▁war	-7.46926
▁b	-7.47131
▁made	-7.48163
▁group	-7.48661
▁many	-7.49496
▁through	-7.50846
▁news	-7.52458
▁american	-7.54707
▁end	-7.55019
le	-7.5517
▁plan	-7.55391
▁man	-7.55726
▁being	-7.56266
▁including	-7.56707
▁show	-7.56946
r	-7.57052
▁10	-7.58269
▁de	-7.58348
▁any	-7.59139
▁home	-7.59169
th	-7.5919
▁did	-7.59208
▁international	-7.59482
▁statement	-7.59547
▁get	-7.60826
▁our	-7.60982
▁four	-7.61041
▁month	-7.61535
▁help	-7.61826
▁3	-7.6216
▁part	-7.63799
▁found	-7.63855
▁work	-7.64954
▁report	-7.65799
▁called	-7.66201
▁reports	-7.67233
▁court	-7.67897
▁next	-7.68028
▁won	-7.68307
ers	-7.68767
▁six	-7.69067
▁foreign	-7.69339
▁make	-7.69474
▁talks	-7.69774
hose	-7.70067
▁japan	-7.70206
▁go	-7.70348
uch	-7.70743
▁still	-7.70771
▁death	-7.70808
▁attack	-7.70817
▁days	-7.70992
▁five	-7.71072
▁second	-7.71219
▁high	-7.72663
en	-7.72687
▁5	-7.74091
▁prime	-7.74285
▁troops	-7.74527
other	-7.74634
▁seoul	-7.75706
out	-7.76628
▁least	-7.76882
▁authorit	-7.771
▁office	-7.77231
▁want	-7.77899
▁around	-7.78248
▁come	-7.79978
▁near	-7.80518
▁ministry	-7.81424
m	-7.81766
▁leader	-7.82222
▁top	-7.83008
▁set	-7.83307
▁see	-7.83499
▁k	-7.83543
▁how	-7.83778
▁spokes	-7.83892
▁program	-7.83968
▁clinton	-7.84448
▁know	-7.85137
▁lead	-7.85445
p	-7.86022
▁washington	-7.86594
▁way	-7.86979
▁long	-7.87002
▁w	-7.87118
▁company	-7.87248
▁n	-7.87578
▁public	-7.87725
▁return	-7.87798
▁site	-7.87989
k	-7.88334
ity	-7.88546
c	-7.88549
▁agency	-7.889
ment	-7.89268
▁p	-7.8928
▁believe	-7.89382
▁20	-7.89544
2	-7.89758
▁presidential	-7.89836
▁press	-7.90268
▁iraqi	-7.90442
▁well	-7.90562
▁saying	-7.91042
▁car	-7.91358
▁look	-7.91514
▁200	-7.91587
▁chief	-7.91727
▁even	-7.91794
▁expected	-7.91836
able	-7.91886
▁place	-7.91974
g	-7.92253
▁children	-7.92552
▁forces	-7.92786
▁my	-7.93144
▁york	-7.93327
▁both	-7.93656
▁4	-7.93994
▁should	-7.94055
▁billion	-7.94089
▁head	-7.9451
▁campaign	-7.95202
▁early	-7.95483
▁died	-7.95657
▁move	-7.95705
▁number	-7.95725
▁arrest	-7.96272
▁several	-7.96872
▁saturday	-7.97112
▁british	-7.97113
▁nation	-7.97472
l	-7.97531
▁earlier	-7.97838
▁bank	-7.97875
▁support	-7.9818
▁members	-7.98229
▁meeting	-7.98375
▁came	-7.9838
▁friday	-7.98692
▁times	-7.98777
▁air	-7.98875
▁white	-7.98887
▁political	-7.99572
▁countries	-7.99925
▁kim	-7.99982
▁women	-8.00671
▁democratic	-8.01323
▁economic	-8.01422
very	-8.02375
▁election	-8.02435
h	-8.02591
▁chinese	-8.02709
▁team	-8.02821
▁good	-8.02856
▁among	-8.03077
▁ask	-8.03481
▁took	-8.03617
▁months	-8.03949
▁30	-8.03966
▁visit	-8.04039
▁going	-8.0444
▁capital	-8.04479
▁think	-8.04601
▁family	-8.04881
▁human	-8.04884
▁power	-8.0493
▁center	-8.05286
▁me	-8.05678
▁lee	-8.06563
▁later	-8.06845
▁much	-8.0695
▁try	-8.07192
▁need	-8.0742
f	-8.07445
▁announc	-8.07516
▁-	-8.07794
▁life	-8.08067
▁men	-8.08676
▁deal	-8.08925
▁left	-8.09276
▁fire	-8.09547
▁john	-8.09938
▁yesterday	-8.09959
▁ago	-8.10041
▁night	-8.10243
▁use	-8.11395
▁6	-8.1146
▁secretary	-8.11761
▁then	-8.12
▁allow	-8.12476
▁health	-8.12538
ation	-8.129
▁dead	-8.1317
ther	-8.13436
▁general	-8.13735
▁per	-8.13827
▁pakistan	-8.1403
▁area	-8.1502
▁face	-8.15353
▁start	-8.15886
ri	-8.15908
▁recent	-8.16139
▁iran	-8.16203
▁same	-8.16518
▁don	-8.16526
▁c	-8.16752
or	-8.16877
▁major	-8.16877
▁release	-8.16929
▁right	-8.16948
▁held	-8.17143
ic	-8.17155
▁market	-8.17512
▁oil	-8.17585
▁local	-8.18095
▁business	-8.18095
▁media	-8.18465
▁case	-8.18578
▁put	-8.18604
▁department	-8.18843
0	-8.19324
▁co	-8.19334
▁university	-8.19626
to	-8.19772
▁force	-8.19816
▁today	-8.20339
ce	-8.2061
▁past	-8.20833
▁8	-8.20923
▁issue	-8.20965
u	-8.21115
▁appear	-8.21249
▁space	-8.21288
▁hit	-8.21331
▁record	-8.21494
▁militant	-8.2173
▁concern	-8.22037
▁roh	-8.22048
5	-8.22055
▁call	-8.22156
▁school	-8.22205
▁name	-8.22246
ra	-8.22456
▁leaders	-8.22503
▁candidate	-8.22658
▁economy	-8.22671
▁11	-8.22823
▁win	-8.22881
▁com	-8.23017
▁financial	-8.23127
▁opposition	-8.23145
▁law	-8.23177
ntil	-8.23556
▁e	-8.23725
▁morning	-8.23782
▁these	-8.23851
x	-8.23914
▁few	-8.23916
▁own	-8.25075
▁100	-8.25208
▁late	-8.25289
▁whe	-8.25557
▁london	-8.2566
us	-8.25948
▁sign	-8.26315
▁taliban	-8.26801
▁film	-8.2729
▁clear	-8.27903
▁remain	-8.27932
▁15	-8.27953
▁hours	-8.27985
▁open	-8.2813
▁main	-8.28165
▁hospital	-8.28174
▁play	-8.28332
▁your	-8.28435
▁final	-8.28542
▁close	-8.28818
▁defense	-8.28948
▁half	-8.29025
▁water	-8.29296
age	-8.29592
▁nearly	-8.2971
▁vote	-8.29903
▁test	-8.29947
each	-8.30033
▁beijing	-8.30087
▁administration	-8.30422
▁money	-8.30436
▁afghanistan	-8.30593
▁workers	-8.31382
▁mccain	-8.31437
▁claim	-8.31561
▁service	-8.31576
▁german	-8.31779
▁does	-8.31983
▁19	-8.32114
▁12	-8.32394
▁palestinian	-8.32651
▁best	-8.32742
▁rule	-8.33009
▁japanese	-8.33014
▁third	-8.33087
▁increase	-8.33151
▁park	-8.33386
▁nations	-8.33517
▁attacks	-8.33552
▁source	-8.33845
▁bill	-8.34012
▁already	-8.34021
▁system	-8.34059
▁50	-8.34494
▁free	-8.34638
b	-8.34676
▁releas	-8.34705
▁give	-8.35053
▁central	-8.35071
▁d	-8.35086
▁bomb	-8.35149
▁video	-8.35424
▁killing	-8.35465
▁along	-8.35623
▁province	-8.35746
▁baghdad	-8.35791
▁began	-8.35823
▁change	-8.3612
▁cut	-8.36313
▁decision	-8.36407
▁ve	-8.36513
▁ap	-8.36689
▁big	-8.36858
▁far	-8.37293
▁march	-8.37618
el	-8.37696
▁army	-8.37699
▁food	-8.37932
▁post	-8.38087
▁current	-8.38112
▁control	-8.38307
▁miles	-8.38638
cross	-8.38886
▁keep	-8.3907
▁thousand	-8.39208
▁away	-8.39368
▁trade	-8.40017
▁conference	-8.40316
▁however	-8.40333
▁sen	-8.40354
▁line	-8.40425
▁spokesm	-8.40428
▁become	-8.40502
▁region	-8.40656
ish	-8.40661
▁french	-8.40688
▁continue	-8.40724
▁israel	-8.41244
▁israeli	-8.41253
▁operation	-8.41771
▁consider	-8.4178
▁southern	-8.41814
▁station	-8.41894
▁web	-8.41923
▁live	-8.42142
▁rights	-8.42248
▁attempt	-8.42569
▁barack	-8.42572
8	-8.42864
▁agreement	-8.42888
▁accus	-8.43025
▁soldiers	-8.43031
▁9	-8.43139
▁run	-8.43214
▁fund	-8.43227
yang	-8.4348
▁global	-8.43524
▁f	-8.4381
▁information	-8.43921
▁woman	-8.43962
▁eight	-8.44651
▁confirm	-8.45227
▁violence	-8.45265
▁great	-8.45832
▁mak	-8.45936
▁european	-8.46107
▁others	-8.46222
▁weapons	-8.4672
9	-8.46847
▁russia	-8.47222
▁union	-8.47457
▁offer	-8.47857
▁hope	-8.47887
▁here	-8.4794
▁plann	-8.48481
est	-8.4851
▁action	-8.48929
son	-8.48974
▁committee	-8.49263
ur	-8.49532
▁students	-8.49586
▁seven	-8.49825
▁prices	-8.49973
▁town	-8.50112
▁weeks	-8.5015
z	-8.50209
▁following	-8.50216
▁short	-8.5024
▁east	-8.50282
▁northern	-8.50473
▁person	-8.50482
▁director	-8.50709
1	-8.50862
▁federal	-8.50908
▁launch	-8.51238
▁rate	-8.51266
▁peace	-8.5149
▁internet	-8.51712
▁involv	-8.51823
▁article	-8.5192
▁star	-8.52026
▁agreed	-8.52644
▁order	-8.52821
▁total	-8.52843
▁large	-8.53106
▁republican	-8.53208
▁alleged	-8.53302
▁40	-8.53484
▁strong	-8.53542
ve	-8.5358
▁every	-8.53784
il	-8.53797
▁britain	-8.54028
▁stock	-8.54086
▁added	-8.54185
▁g	-8.54293
▁pyong	-8.54458
▁might	-8.54464
spite	-8.54467
▁outside	-8.54552
▁california	-8.55118
▁never	-8.55119
▁real	-8.55263
▁aid	-8.55265
▁congress	-8.55314
▁target	-8.55314
▁ban	-8.55328
▁hand	-8.55519
▁include	-8.55551
▁comment	-8.55581
▁small	-8.55599
up	-8.55799
▁25	-8.56019
▁border	-8.56055
▁interview	-8.56181
▁key	-8.56267
▁gas	-8.56645
▁immediate	-8.57055
▁organization	-8.57504
▁side	-8.57568
▁anti	-8.57598
▁18	-8.57735
▁investigation	-8.57759
▁went	-8.57861
▁sea	-8.57934
▁points	-8.58169
▁emergency	-8.58175
▁watch	-8.58319
▁got	-8.58361
▁associat	-8.58791
▁cost	-8.58951
▁senior	-8.59051
▁hold	-8.59269
▁young	-8.59295
▁research	-8.59303
▁ahead	-8.59316
▁must	-8.59348
3	-8.59356
▁old	-8.59485
re	-8.59722
▁little	-8.59725
▁working	-8.60181
▁red	-8.60228
▁france	-8.60528
▁follow	-8.60614
▁crisis	-8.60631
▁possible	-8.60724
▁find	-8.60767
▁500	-8.60915
▁charges	-8.61075
less	-8.61246
it	-8.61349
▁22	-8.61439
▁body	-8.61487
▁council	-8.61775
▁stop	-8.61895
▁energy	-8.62005
▁largest	-8.62148
▁companies	-8.62236
▁study	-8.62237
▁2006	-8.62271
▁question	-8.62433
▁prosecutor	-8.62476
▁again	-8.6268
▁tak	-8.62776
▁game	-8.62965
4	-8.63028
ro	-8.63121
▁point	-8.6331
▁pay	-8.63532
▁o	-8.6376
▁newspaper	-8.63868
▁interest	-8.63887
▁led	-8.64092
▁january	-8.64103
▁injur	-8.6421
▁latest	-8.64372
ist	-8.64673
ance	-8.64751
een	-8.64877
ha	-8.6505
▁future	-8.6505
ive	-8.6532
▁due	-8.65397
▁race	-8.65403
time	-8.65554
▁west	-8.65559
▁reporters	-8.65707
▁elections	-8.65717
land	-8.65758
▁coast	-8.6576
▁meet	-8.65914
▁june	-8.66007
▁tell	-8.66394
▁previous	-8.66487
▁america	-8.66511
ar	-8.66725
▁further	-8.66973
▁building	-8.66987
w	-8.67003
6	-8.6707
▁bas	-8.67085
▁list	-8.67246
▁mean	-8.67293
▁toward	-8.67295
▁july	-8.67518
▁policy	-8.67638
▁search	-8.67701
ous	-8.67879
▁less	-8.67894
one	-8.67974
▁cause	-8.68085
▁13	-8.68144
▁george	-8.6819
▁travel	-8.68218
ta	-8.68315
▁airport	-8.68341
▁process	-8.6839
▁poll	-8.68624
▁weekend	-8.68953
ton	-8.68958
▁member	-8.69022
▁share	-8.6911
▁speak	-8.6915
▁england	-8.69177
▁russian	-8.69193
▁child	-8.69198
▁suicide	-8.69206
▁carry	-8.69212
▁lot	-8.69234
▁talk	-8.69242
▁once	-8.69386
▁ruling	-8.69427
▁afghan	-8.69436
▁base	-8.69858
▁minutes	-8.70088
▁heart	-8.70143
st	-8.70229
▁14	-8.70621
▁television	-8.70685
▁gaza	-8.71465
▁pro	-8.7162
▁bring	-8.71697
▁hostage	-8.71705
▁couple	-8.71716
▁demand	-8.71825
▁medical	-8.71953
▁efforts	-8.72009
▁scientist	-8.72196
▁lost	-8.72289
▁hav	-8.72386
day	-8.72523
ness	-8.72523
▁september	-8.72725
▁groups	-8.72735
▁storm	-8.72758
▁hundreds	-8.72782
▁16	-8.729
▁black	-8.72932
▁judge	-8.7297
▁send	-8.73072
self	-8.73436
▁son	-8.73461
▁executive	-8.73744
▁grow	-8.73793
▁street	-8.73871
▁grand	-8.73969
▁act	-8.7402
▁develop	-8.74172
▁round	-8.74334
▁father	-8.74532
▁victory	-8.74843
▁turn	-8.7493
▁island	-8.74969
▁ground	-8.75017
▁serious	-8.75046
▁qaeda	-8.75137
▁train	-8.75261
▁series	-8.75462
▁h	-8.75584
▁better	-8.75665
▁stay	-8.75666
▁hard	-8.75717
▁suggest	-8.75778
▁too	-8.75842
▁terrorist	-8.75845
▁full	-8.76421
ry	-8.76495
▁mission	-8.76502
woman	-8.76835
▁mother	-8.76842
▁age	-8.77249
cy	-8.773
ty	-8.77324
▁shot	-8.77406
▁goal	-8.77441
▁inter	-8.77626
▁sent	-8.7769
▁industry	-8.77709
▁role	-8.77738
▁parliament	-8.77813
um	-8.77861
be	-8.77964
▁60	-8.78006
▁provide	-8.78012
known	-8.78067
is	-8.78093
▁seek	-8.78152
▁cha	-8.78199
▁musharraf	-8.78251
▁inside	-8.78397
by	-8.78444
▁december	-8.78522
▁incident	-8.78522
▁direct	-8.78563
▁strike	-8.78729
▁almost	-8.78805
▁missile	-8.79086
ch	-8.7922
▁fall	-8.79232
coming	-8.79335
▁communist	-8.79378
▁protest	-8.7959
▁hotel	-8.79626
▁result	-8.7964
▁break	-8.79739
though	-8.80014
▁arm	-8.80172
▁cell	-8.80532
▁wide	-8.80732
▁receiv	-8.80749
▁ever	-8.80799
▁fuel	-8.80803
▁europe	-8.80919
▁met	-8.80961
▁wounded	-8.80968
▁really	-8.81146
bas	-8.81222
▁enough	-8.81281
▁important	-8.81288
ary	-8.81367
▁yet	-8.81579
▁san	-8.81635
za	-8.81639
▁caus	-8.81721
▁wall	-8.8181
▁history	-8.81843
▁prison	-8.82015
▁able	-8.82117
▁special	-8.82135
▁april	-8.82157
▁david	-8.82407
ang	-8.82431
▁front	-8.82482
▁asia	-8.82524
▁voter	-8.82855
▁behind	-8.82974
▁tour	-8.8328
▁job	-8.83331
▁vehicle	-8.83544
▁j	-8.83794
▁rice	-8.83836
▁november	-8.83845
▁flight	-8.83872
▁step	-8.84053
▁democrat	-8.84087
▁mark	-8.84183
la	-8.8428
▁plane	-8.8434
▁chairman	-8.84425
▁nine	-8.84436
▁cross	-8.84448
▁given	-8.84466
▁discuss	-8.84636
▁amid	-8.84713
ia	-8.84869
▁player	-8.85452
▁season	-8.85557
▁urg	-8.85639
▁india	-8.85646
▁started	-8.8569
led	-8.85792
▁r	-8.8585
▁middle	-8.8586
▁whose	-8.85881
▁crash	-8.86153
ally	-8.86163
▁damage	-8.86243
▁threaten	-8.8625
▁room	-8.86353
▁conduct	-8.8648
▁express	-8.86682
▁ship	-8.8694
▁fighting	-8.87275
▁different	-8.87931
▁exchange	-8.87931
▁negotiation	-8.88243
▁thought	-8.88344
▁august	-8.88531
▁evidence	-8.88832
▁rebel	-8.88848
▁western	-8.88868
▁supporter	-8.88951
▁commission	-8.88976
▁problem	-8.89186
▁victims	-8.89252
▁board	-8.89331
▁soon	-8.89345
▁though	-8.89374
ey	-8.89377
▁wife	-8.895
▁join	-8.8968
▁district	-8.89741
▁2005	-8.89813
▁tv	-8.89828
▁sex	-8.89874
▁serve	-8.89977
ful	-8.90037
▁warn	-8.90048
▁development	-8.9009
▁problems	-8.90299
▁ba	-8.90502
▁animal	-8.90666
▁aim	-8.90855
▁gen	-8.90913
▁situation	-8.90966
▁pressure	-8.90976
▁road	-8.91052
▁boy	-8.91142
▁fail	-8.91204
▁dozen	-8.91275
vez	-8.91313
▁movie	-8.9139
▁areas	-8.91399
▁homes	-8.91512
▁light	-8.91576
▁gave	-8.91593
▁trip	-8.91737
▁am	-8.91819
▁protect	-8.91867
▁price	-8.91922
▁australia	-8.91994
▁attend	-8.92209
▁resident	-8.92332
▁leave	-8.92536
hyun	-8.92721
▁survey	-8.92832
wide	-8.92908
▁lower	-8.92994
co	-8.93425
side	-8.9376
▁analyst	-8.93779
▁summit	-8.93779
▁lawyer	-8.94103
▁fell	-8.94106
▁private	-8.94242
▁reach	-8.9425
▁mid	-8.94282
te	-8.94351
▁bid	-8.94405
▁church	-8.94415
▁crew	-8.94426
▁senate	-8.9443
▁february	-8.9443
▁los	-8.94732
▁2004	-8.95104
▁complete	-8.95218
▁happen	-8.95239
▁disease	-8.95282
▁senator	-8.95376
▁low	-8.95389
▁tried	-8.95508
ant	-8.95579
▁land	-8.95653
▁illegal	-8.95699
▁islamic	-8.95708
▁24	-8.95737
▁prevent	-8.96022
▁ll	-8.96091
▁project	-8.96256
▁walk	-8.96277
▁risk	-8.96353
▁results	-8.96645
▁recently	-8.9678
v	-8.96949
▁passenger	-8.97
▁speech	-8.97
▁labor	-8.97007
▁let	-8.97189
▁pakistani	-8.97294
▁together	-8.97367
▁protesters	-8.97387
▁relations	-8.97489
▁address	-8.97501
▁vice	-8.97627
▁intelligence	-8.97656
▁heavy	-8.97675
▁pull	-8.97693
am	-8.9777
▁rival	-8.97991
▁wanted	-8.98066
▁ki	-8.98094
▁paris	-8.98383
▁hill	-8.98434
something	-8.98621
▁october	-8.9865
▁florida	-8.98983
▁request	-8.98983
▁approv	-8.99004
▁fan	-8.99251
▁21	-8.99329
▁tokyo	-8.99411
▁focus	-8.99653
▁cup	-8.99703
▁la	-8.99707
taken	-8.99845
▁arriv	-8.99887
▁moo	-8.99926
▁begin	-8.99988
▁credit	-9.00011
▁ma	-9.00044
▁link	-9.00096
▁brown	-9.00283
▁attorney	-9.00328
▁crowd	-9.00328
▁summer	-9.00329
▁gun	-9.00331
▁turned	-9.00335
▁schedul	-9.00442
▁justice	-9.00668
▁hamas	-9.00671
▁love	-9.00676
▁calls	-9.00723
▁2008	-9.00732
▁product	-9.0076
▁position	-9.0076
▁condition	-9.00785
▁seem	-9.00893
▁crime	-9.01009
▁online	-9.01061
▁growth	-9.01073
▁decided	-9.0121
▁quick	-9.01353
▁getting	-9.0138
▁loss	-9.01484
▁rais	-9.01615
▁bus	-9.01918
▁daughter	-9.02063
▁level	-9.02167
▁st	-9.02234
ni	-9.0224
▁fight	-9.02299
li	-9.02321
▁coalition	-9.02379
▁hong	-9.02403
▁technology	-9.02426
▁markets	-9.02428
ler	-9.02479
▁muslim	-9.02725
▁network	-9.02727
▁2003	-9.02781
▁eastern	-9.0296
▁phone	-9.02979
▁girl	-9.02985
▁treat	-9.03036
▁koreans	-9.03085
▁officer	-9.03104
▁popular	-9.0311
▁assembly	-9.03112
▁chance	-9.03118
▁host	-9.03257
▁missing	-9.03409
▁biggest	-9.03441
▁reached	-9.03633
▁saw	-9.03709
▁carrie	-9.03715
▁quot	-9.03756
▁blood	-9.03809
▁battle	-9.0381
▁lawmakers	-9.0389
▁apparent	-9.04121
▁games	-9.0415
▁hillary	-9.04489
off	-9.04508
▁league	-9.04521
▁pick	-9.04533
▁award	-9.04597
▁sell	-9.0462
▁effort	-9.04732
▁joint	-9.04953
▁closed	-9.05461
▁tax	-9.05495
▁bad	-9.05522
▁stage	-9.05538
▁expect	-9.05545
▁angeles	-9.05584
▁rise	-9.05758
▁asian	-9.05795
id	-9.06094
▁cit	-9.0617
▁olympic	-9.06199
▁buy	-9.06203
▁destroy	-9.06253
ma	-9.06348
▁kind	-9.06372
▁stand	-9.06419
▁officers	-9.06429
▁feel	-9.06546
da	-9.06791
came	-9.06844
▁nomination	-9.06994
▁needed	-9.0726
▁cover	-9.0757
▁music	-9.07599
▁scene	-9.077
▁robert	-9.07701
▁issues	-9.07704
▁cat	-9.07902
▁na	-9.07956
▁jail	-9.0808
▁polls	-9.08156
▁services	-9.08163
▁threat	-9.08399
▁governor	-9.0845
ul	-9.08483
▁match	-9.08487
▁form	-9.08807
lo	-9.08924
ie	-9.09007
▁murder	-9.09169
▁sarkozy	-9.09185
▁drug	-9.09217
ter	-9.09237
ent	-9.09425
ian	-9.09458
ak	-9.09503
▁texas	-9.09538
▁23	-9.09571
ba	-9.09761
▁deni	-9.09946
▁event	-9.09949
men	-9.09953
▁dr	-9.10206
▁camp	-9.10346
et	-9.10614
▁population	-9.10667
▁turkey	-9.1067
▁letter	-9.1071
▁term	-9.10816
▁australian	-9.10913
▁paul	-9.10955
▁experts	-9.1097
▁protests	-9.11004
▁blast	-9.11033
▁community	-9.11145
▁staff	-9.11158
▁describ	-9.11267
▁jobs	-9.11305
▁deput	-9.11426
pent	-9.11694
na	-9.11779
ung	-9.11959
▁majority	-9.12279
▁higher	-9.12388
▁idea	-9.12401
▁delay	-9.12553
▁field	-9.12574
▁mo	-9.12736
▁why	-9.12944
▁river	-9.13155
▁association	-9.1342
▁image	-9.13488
▁radio	-9.13693
▁iranian	-9.13735
▁plant	-9.13818
rt	-9.13896
▁things	-9.13976
▁sales	-9.13987
▁charge	-9.14074
▁embass	-9.14093
▁county	-9.14094
▁safety	-9.14108
▁continued	-9.14273
▁title	-9.14483
▁rose	-9.14721
▁fear	-9.14738
▁book	-9.14822
▁primary	-9.14873
▁26	-9.14954
▁message	-9.15113
▁suffer	-9.15126
▁li	-9.15144
▁opened	-9.15186
▁civilians	-9.15439
▁lives	-9.15462
ley	-9.1547
▁refus	-9.15499
▁appeal	-9.15658
▁similar	-9.15658
▁sanction	-9.15659
▁bar	-9.1594
▁firm	-9.16053
whil	-9.16377
▁trial	-9.16478
▁production	-9.16523
sh	-9.16585
▁earth	-9.16864
▁pre	-9.16874
▁elect	-9.16904
▁fact	-9.16917
▁average	-9.17126
▁delegates	-9.17134
▁initial	-9.17249
▁daily	-9.17323
▁debate	-9.17477
▁rest	-9.17594
▁ceremon	-9.1765
▁resolution	-9.17674
▁wait	-9.17715
▁forc	-9.17832
▁view	-9.17996
▁airline	-9.18008
▁doing	-9.18038
▁safe	-9.18039
▁journalist	-9.18062
▁royal	-9.18063
▁identified	-9.18081
▁ex	-9.1809
▁often	-9.18141
▁running	-9.1815
▁vot	-9.18316
▁measures	-9.18368
▁legal	-9.1842
▁deep	-9.18467
ial	-9.1871
▁computer	-9.18847
at	-9.18962
▁king	-9.19421
hutto	-9.19497
▁michael	-9.19683
▁reform	-9.19683
▁always	-9.19685
▁poor	-9.1971
▁care	-9.19959
▁famili	-9.20402
▁shooting	-9.20455
▁parents	-9.20487
▁neighbor	-9.20504
▁present	-9.2063
▁le	-9.2073
▁africa	-9.20734
▁rock	-9.20872
j	-9.20934
▁contain	-9.20993
▁investigator	-9.2105
▁dispute	-9.21343
rought	-9.21362
▁tourist	-9.21366
▁done	-9.21458
▁300	-9.21472
▁facilit	-9.21669
▁push	-9.21703
▁myanmar	-9.21758
ne	-9.21759
▁accident	-9.21951
▁charg	-9.22223
▁movement	-9.22311
▁commander	-9.22514
▁certain	-9.226
▁husband	-9.22639
▁29	-9.22734
mi	-9.22848
▁date	-9.22864
▁included	-9.22983
▁detain	-9.23023
▁club	-9.23024
▁ordered	-9.23027
▁investment	-9.23049
▁paper	-9.23102
ong	-9.23102
▁po	-9.2322
▁contract	-9.23313
ga	-9.23424
▁ambassador	-9.23449
▁transport	-9.23449
▁details	-9.23595
▁suspected	-9.23759
hua	-9.2382
▁provid	-9.24003
▁african	-9.24095
▁port	-9.24125
di	-9.24155
not	-9.24157
▁period	-9.24212
back	-9.24279
▁increasing	-9.24305
▁block	-9.24372
▁story	-9.24453
ever	-9.24551
▁education	-9.24737
me	-9.24745
▁accept	-9.24769
▁kong	-9.24783
▁dis	-9.24874
▁quarter	-9.24881
▁dow	-9.24928
▁matter	-9.24938
▁prince	-9.25062
▁professor	-9.25169
▁finish	-9.25178
▁foot	-9.2519
ol	-9.25323
▁difficult	-9.2555
▁drive	-9.25579
▁potential	-9.25605
▁nato	-9.25642
▁eu	-9.25646
▁access	-9.25654
▁account	-9.25829
▁gain	-9.25853
▁cars	-9.2604
▁rally	-9.26065
ho	-9.26105
im	-9.26158
▁manager	-9.26264
▁living	-9.26369
▁wear	-9.26369
▁reject	-9.26419
▁cabinet	-9.2648
▁activities	-9.26548
▁declar	-9.26557
▁th	-9.26758
▁afternoon	-9.2692
▁leav	-9.27017
▁huge	-9.27219
giving	-9.27375
▁estimate	-9.27447
▁ko	-9.27466
▁sentence	-9.27481
▁design	-9.27611
▁fourth	-9.27629
▁bodi	-9.27743
▁patient	-9.27807
▁contact	-9.27808
▁worst	-9.27814
truck	-9.27826
▁ready	-9.27872
▁31	-9.27981
▁80	-9.28022
▁common	-9.28263
▁english	-9.28275
▁marine	-9.28289
▁researchers	-9.28345
▁non	-9.28347
▁indian	-9.28467
▁friend	-9.28574
▁rain	-9.28632
stead	-9.28722
▁hour	-9.28739
ism	-9.28773
▁cho	-9.28773
▁fired	-9.28795
▁holding	-9.29085
▁saudi	-9.29155
run	-9.29243
▁track	-9.29258
▁sure	-9.29631
▁doctors	-9.29814
▁sun	-9.29864
▁sa	-9.29907
▁ben	-9.29909
▁played	-9.29953
▁cases	-9.30039
▁announcement	-9.3008
▁broadcast	-9.3009
party	-9.30147
▁course	-9.30153
▁progress	-9.30498
▁opening	-9.30511
▁raid	-9.30537
▁treatment	-9.30565
way	-9.30648
▁broke	-9.3065
▁peninsula	-9.30975
▁response	-9.30975
▁material	-9.30975
▁conservative	-9.30975
▁suspend	-9.30975
ate	-9.30979
▁mass	-9.31191
▁institute	-9.31435
▁ran	-9.31472
▁kar	-9.31745
▁challenge	-9.31932
▁read	-9.32055
▁rescue	-9.3222
▁partie	-9.32262
▁0	-9.32343
▁create	-9.32345
▁cities	-9.32547
▁hearing	-9.32602
▁village	-9.32649
no	-9.32713
▁estimat	-9.32742
▁independent	-9.32831
▁28	-9.32886
▁guard	-9.32901
▁turk	-9.32913
▁probabl	-9.32926
wood	-9.32995
▁prisoner	-9.33016
▁means	-9.33069
▁streets	-9.33087
▁shows	-9.33122
▁single	-9.3325
▁deliver	-9.33288
▁interior	-9.333
▁mexico	-9.333
▁availab	-9.33323
ner	-9.33591
▁critical	-9.33777
▁civil	-9.338
▁lift	-9.33832
ad	-9.3406
▁published	-9.3413
▁understand	-9.34226
▁session	-9.34246
▁kilometer	-9.34311
▁conditions	-9.34555
▁spoke	-9.34634
▁trading	-9.34722
▁natural	-9.34745
▁forward	-9.34981
ine	-9.35032
▁count	-9.35084
▁spread	-9.35111
▁success	-9.3515
▁explosion	-9.35201
▁illinois	-9.35201
▁relationship	-9.35201
▁investor	-9.35259
▁criticiz	-9.3533
▁green	-9.35413
▁che	-9.35452
00	-9.35531
▁allegation	-9.35685
▁nothing	-9.35701
▁chung	-9.35705
▁fly	-9.35747
▁warning	-9.35863
▁ka	-9.35999
▁nam	-9.3604
▁diplomatic	-9.36178
gnp	-9.36185
▁check	-9.36212
▁passed	-9.36216
▁actor	-9.36293
tan	-9.36431
ka	-9.36449
▁nav	-9.36726
op	-9.36849
▁enter	-9.36897
▁personal	-9.36984
▁investigat	-9.37015
▁index	-9.37145
▁35	-9.37191
▁spending	-9.37266
▁claims	-9.37273
▁fil	-9.3734
▁slow	-9.37537
▁secret	-9.3762
▁snow	-9.37627
▁data	-9.37676
▁smith	-9.37691
ac	-9.3786
selves	-9.3807
▁chicago	-9.38121
▁annual	-9.38121
▁giant	-9.38132
▁citizens	-9.3818
▁blue	-9.38201
▁hu	-9.38266
and	-9.38355
▁mayor	-9.38438
▁shin	-9.38558
▁dae	-9.38588
▁actual	-9.38617
▁rising	-9.38631
▁2001	-9.38703
▁gold	-9.38706
▁thing	-9.38846
▁social	-9.38912
▁democrac	-9.3895
▁el	-9.39026
ard	-9.39058
▁criminal	-9.39113
▁female	-9.39113
▁helicopter	-9.39113
▁insurgent	-9.39113
▁nominee	-9.39113
▁virginia	-9.39124
▁beat	-9.39152
▁avoid	-9.39164
▁separate	-9.3927
▁longer	-9.39296
▁mountain	-9.39607
▁square	-9.39668
▁mar	-9.39721
▁build	-9.39884
▁either	-9.39955
▁weather	-9.40116
▁command	-9.40219
▁ro	-9.40238
▁90	-9.40398
feet	-9.40473
▁truck	-9.40611
ney	-9.40683
▁worth	-9.40778
▁particular	-9.41128
▁approach	-9.41128
▁italian	-9.4113
▁export	-9.41142
▁lack	-9.41145
harry	-9.41238
▁affairs	-9.4125
▁satellite	-9.41638
▁above	-9.41639
▁issu	-9.41688
▁code	-9.41832
ana	-9.42093
▁honor	-9.42163
▁bit	-9.42176
▁discovered	-9.42176
▁compar	-9.42217
▁decades	-9.42232
▁boat	-9.42232
▁injuries	-9.42416
▁adding	-9.42517
▁pass	-9.42525
▁shiite	-9.42668
▁espe	-9.42669
▁richard	-9.42673
▁construction	-9.42675
▁italy	-9.42726
▁terrorism	-9.42818
ca	-9.4296
▁employees	-9.43072
▁nasa	-9.4311
ought	-9.43116
▁import	-9.43176
▁voice	-9.4319
▁science	-9.43224
▁insist	-9.43314
ling	-9.43398
mo	-9.43406
▁moment	-9.43745
▁committ	-9.43764
▁friends	-9.43865
ized	-9.43963
▁toll	-9.44108
▁xin	-9.4422
▁rare	-9.44252
▁additional	-9.44397
▁flood	-9.44616
▁earthquake	-9.44756
ese	-9.44769
▁standard	-9.44794
▁camera	-9.44873
▁visitor	-9.44914
▁unit	-9.44927
bc	-9.45051
▁college	-9.45285
▁supreme	-9.45285
▁spain	-9.45307
▁refugee	-9.45322
▁ho	-9.45454
▁steps	-9.45514
cially	-9.45627
▁anything	-9.45821
▁highest	-9.45935
ical	-9.46319
▁resign	-9.46323
▁establish	-9.46358
▁zone	-9.46366
▁peaceful	-9.46387
▁occurr	-9.46395
▁drop	-9.4641
▁400	-9.46522
▁ice	-9.46533
▁operat	-9.46606
▁raise	-9.46618
▁parts	-9.46855
▁maintain	-9.46889
▁everything	-9.46891
▁barrel	-9.46902
▁reactor	-9.46904
▁prize	-9.46905
▁severe	-9.47073
▁involve	-9.47158
▁industrial	-9.47245
▁wound	-9.47496
▁2000	-9.47603
▁su	-9.47614
der	-9.47684
▁gather	-9.47765
▁dollars	-9.47801
ll	-9.47926
▁ra	-9.47937
aught	-9.47961
▁quit	-9.47969
▁prosecution	-9.47982
▁sold	-9.48015
▁paid	-9.48081
ah	-9.48126
▁banks	-9.48234
▁experience	-9.48244
ge	-9.48277
▁dropp	-9.48326
ru	-9.4849
▁shut	-9.48515
▁moscow	-9.48519
▁defeat	-9.4852
▁sharp	-9.48596
▁fac	-9.48634
▁original	-9.4874
▁uri	-9.48859
▁l	-9.48865
▁peter	-9.48975
▁ii	-9.48991
ier	-9.49036
▁condemn	-9.49069
▁envoy	-9.49069
▁carolina	-9.49077
▁massive	-9.4909
▁figure	-9.49128
▁sexual	-9.49192
rote	-9.49515
▁attention	-9.49621
▁opportunit	-9.49621
▁regard	-9.49621
▁review	-9.49625
▁value	-9.49629
▁han	-9.49638
▁wa	-9.49824
ship	-9.49893
▁finding	-9.50112
▁represent	-9.50144
▁alliance	-9.50181
▁cancer	-9.50205
▁schools	-9.50276
▁engineer	-9.50491
▁taiwan	-9.50727
▁chang	-9.50729
▁significant	-9.5076
▁questions	-9.50827
▁convicted	-9.50862
▁driver	-9.50882
ay	-9.50922
▁super	-9.51039
▁propos	-9.51222
▁fine	-9.51286
▁8212	-9.51297
▁fill	-9.51479
▁remarks	-9.51525
▁cap	-9.51526
▁suspect	-9.51558
responsible	-9.51712
▁hands	-9.51811
kept	-9.51902
ritten	-9.51904
ina	-9.51935
bak	-9.52031
▁store	-9.5235
▁normal	-9.52392
▁marriage	-9.52431
▁jump	-9.52432
▁drink	-9.52433
▁queen	-9.52439
▁scor	-9.52449
▁brain	-9.52455
▁hurt	-9.52525
▁discussion	-9.52547
▁evening	-9.52714
▁promis	-9.5276
▁territor	-9.52879
ham	-9.52923
▁contest	-9.52933
▁remains	-9.52998
▁georgia	-9.53002
▁monitor	-9.53002
▁pennsylvania	-9.53002
▁song	-9.53062
▁whom	-9.53077
▁admitted	-9.53192
▁consumer	-9.53196
▁uk	-9.53262
▁levels	-9.53317
▁usual	-9.53586
▁society	-9.53631
▁bridge	-9.5364
▁student	-9.53764
▁sale	-9.53773
▁dollar	-9.53865
▁indonesia	-9.53942
▁prompt	-9.54155
▁aircraft	-9.54168
▁bear	-9.54206
▁museum	-9.54736
▁performance	-9.54751
▁baby	-9.54765
▁customer	-9.54878
▁jones	-9.54881
▁heard	-9.54905
▁ver	-9.55206
▁mil	-9.55297
▁produc	-9.553
▁thailand	-9.55333
▁device	-9.55344
▁millions	-9.55548
▁fighter	-9.55585
ci	-9.55672
▁wi	-9.55766
ut	-9.55854
▁ohio	-9.5591
▁management	-9.55918
▁criticism	-9.55918
▁boost	-9.55939
well	-9.56032
▁critic	-9.5615
▁finance	-9.56209
▁seiz	-9.56245
▁conflict	-9.56501
▁abbas	-9.56502
▁beginning	-9.56506
▁con	-9.56593
ence	-9.56656
▁sides	-9.56675
▁ball	-9.56811
▁training	-9.57082
▁holiday	-9.57096
▁environmental	-9.57105
▁leadership	-9.57139
▁driving	-9.57151
▁da	-9.57382
▁brother	-9.574
▁changes	-9.57536
putin	-9.57651
▁custody	-9.57695
▁scandal	-9.57695
▁james	-9.57746
▁formal	-9.5775
▁har	-9.57882
▁independence	-9.57882
▁aide	-9.57942
han	-9.57986
▁civilian	-9.58044
▁constitution	-9.58123
▁regime	-9.58294
▁surprise	-9.58297
▁commercial	-9.58301
▁intend	-9.58439
▁regional	-9.58597
▁reason	-9.58647
▁indicat	-9.58714
▁suspects	-9.58789
▁mosque	-9.58904
▁herald	-9.58916
▁impact	-9.58917
▁rather	-9.58939
ti	-9.59054
▁career	-9.59251
▁effect	-9.59252
ten	-9.59284
▁bin	-9.59323
▁brief	-9.59417
▁size	-9.59435
▁opinion	-9.59513
▁fair	-9.59533
▁negotiator	-9.59551
ea	-9.59614
▁gu	-9.59726
▁environment	-9.59846
▁reduce	-9.59899
tra	-9.59948
▁electric	-9.60025
▁receive	-9.6007
▁forest	-9.60089
▁microsoft	-9.60127
▁adopt	-9.60127
▁communication	-9.60132
▁terror	-9.60156
▁everyone	-9.60186
▁resume	-9.60263
mer	-9.60293
▁save	-9.60317
▁parliamentar	-9.60488
wa	-9.60716
▁allies	-9.60798
▁seats	-9.60883
▁word	-9.60928
▁z	-9.61251
▁repeated	-9.61272
▁choice	-9.61371
▁buildings	-9.61758
▁45	-9.61983
▁failure	-9.6199
▁climate	-9.61991
▁fresh	-9.61992
▁chi	-9.62
▁van	-9.62166
▁sound	-9.6222
▁traffic	-9.62351
▁numbers	-9.62357
▁republic	-9.62535
▁complex	-9.62619
▁blam	-9.62755
▁recover	-9.62785
▁seat	-9.62816
▁traditional	-9.62927
elect	-9.63024
pa	-9.63025
▁documents	-9.63294
▁myung	-9.63313
▁proposal	-9.63356
▁polic	-9.63392
ir	-9.63563
town	-9.6368
gu	-9.63784
▁art	-9.63811
abe	-9.63838
▁assault	-9.63889
▁domestic	-9.63889
▁football	-9.63891
▁surgery	-9.63901
▁panel	-9.63905
▁corruption	-9.6393
hi	-9.64084
responsibility	-9.64128
▁winning	-9.64145
new	-9.64285
▁corp	-9.64369
▁produce	-9.64422
▁difference	-9.64531
▁spanish	-9.64532
▁tibet	-9.6455
▁package	-9.64553
if	-9.6469
▁double	-9.64754
hour	-9.65027
▁figures	-9.65149
▁tree	-9.652
ng	-9.65205
▁route	-9.65211
▁combat	-9.65228
▁bombing	-9.65264
line	-9.65275
▁fish	-9.6533
bo	-9.656
▁id	-9.65727
do	-9.65751
▁cash	-9.65837
▁possibilit	-9.65925
▁band	-9.66239
▁itself	-9.6629
month	-9.66294
ren	-9.66342
▁penalt	-9.66479
▁coach	-9.6648
▁guilty	-9.66533
▁olympics	-9.66576
▁burn	-9.667
ize	-9.66833
lew	-9.66913
▁tie	-9.6699
▁events	-9.67034
▁moving	-9.67193
▁sleep	-9.67203
berg	-9.67205
▁option	-9.67226
ory	-9.67256
▁century	-9.67389
ting	-9.675
▁colombia	-9.67587
▁withdraw	-9.67706
▁respect	-9.6778
▁reveal	-9.67798
▁specific	-9.678
▁disaster	-9.67813
▁ky	-9.67829
▁require	-9.67882
▁built	-9.679
▁recall	-9.6805
po	-9.68051
▁spot	-9.68067
▁addition	-9.68254
▁gar	-9.68276
▁arms	-9.68287
▁respond	-9.68343
▁struggl	-9.68422
▁mine	-9.68463
▁telephone	-9.68465
▁trigger	-9.68465
▁violent	-9.68465
▁answer	-9.68465
▁apple	-9.68466
▁quake	-9.68468
▁shuttle	-9.6849
tp	-9.68541
▁adviser	-9.68598
▁auto	-9.68614
as	-9.68854
▁gates	-9.6894
▁flu	-9.69078
▁necessary	-9.69199
▁fifth	-9.69209
▁wave	-9.69429
▁rich	-9.69576
▁tests	-9.69576
▁draw	-9.69637
▁individual	-9.69812
▁lebanese	-9.69812
▁supply	-9.69812
▁correspondent	-9.69812
▁holly	-9.69813
▁owner	-9.6983
▁winter	-9.69861
▁premier	-9.69963
▁amount	-9.70035
▁self	-9.70074
ack	-9.70093
▁arab	-9.70096
▁sunni	-9.70099
▁beach	-9.70108
▁girls	-9.70122
▁makes	-9.70234
▁en	-9.70269
▁vi	-9.70275
mp	-9.70423
▁wrong	-9.70492
▁adult	-9.70492
▁lebanon	-9.70492
▁neighborhood	-9.70497
▁headquarter	-9.70501
▁dangerous	-9.70505
▁agent	-9.70506
▁screen	-9.70522
▁150	-9.70552
▁ni	-9.70616
▁protection	-9.70621
▁jong	-9.70641
▁miss	-9.70699
lin	-9.70774
▁shown	-9.70924
▁stopped	-9.70996
▁affect	-9.71068
▁magazine	-9.71177
▁astronaut	-9.71198
▁powerful	-9.71249
ger	-9.71276
▁rocket	-9.71343
▁speed	-9.71447
▁ht	-9.71522
▁male	-9.71608
▁ga	-9.71653
▁behavior	-9.71866
▁profit	-9.71869
▁ilbo	-9.7187
▁exist	-9.71897
▁forecast	-9.7194
▁appearance	-9.71946
▁pack	-9.71991
long	-9.72033
▁mug	-9.72064
▁showing	-9.72072
▁planet	-9.72247
▁declin	-9.72286
▁terms	-9.72406
▁abe	-9.72418
▁kids	-9.72528
▁fbi	-9.72578
▁else	-9.72579
▁deadline	-9.72593
▁loan	-9.72635
▁cast	-9.72758
▁winds	-9.72988
▁range	-9.73157
▁felt	-9.7326
▁flights	-9.73267
▁vow	-9.73274
▁votes	-9.73281
the	-9.73297
▁heat	-9.73381
▁ongoing	-9.73474
term	-9.73506
▁measure	-9.73652
taking	-9.73762
▁created	-9.73946
▁overseas	-9.73965
▁apartment	-9.73981
▁referr	-9.74019
▁location	-9.74023
▁et	-9.74065
▁minute	-9.74168
▁words	-9.74192
▁card	-9.74228
ily	-9.74247
▁perform	-9.74264
ani	-9.74268
▁remov	-9.74298
▁cold	-9.74542
▁anniversar	-9.74674
▁hair	-9.74692
▁cooperation	-9.74696
▁born	-9.74699
▁mobile	-9.74789
▁activists	-9.74845
▁fears	-9.74933
▁sought	-9.74957
con	-9.75155
▁lone	-9.75257
▁politic	-9.75279
▁brazil	-9.75377
▁crude	-9.75388
▁solution	-9.75388
▁shock	-9.7539
▁successful	-9.75408
▁600	-9.75506
ev	-9.75523
▁related	-9.7577
▁row	-9.75818
▁class	-9.75832
ek	-9.76017
▁ocean	-9.76107
▁positive	-9.76108
▁olme	-9.7611
▁pe	-9.76128
▁learn	-9.76162
▁inc	-9.76333
▁piece	-9.76365
▁clean	-9.76389
▁constitutional	-9.76415
▁trouble	-9.76563
▁hot	-9.76682
▁drugs	-9.76747
▁jet	-9.76761
▁content	-9.76828
▁singapore	-9.76832
▁straight	-9.76832
uters	-9.76858
▁riot	-9.76956
ahoo	-9.76982
▁32	-9.77055
▁below	-9.77056
▁tough	-9.771
fi	-9.77129
▁bay	-9.77516
▁author	-9.77553
▁hurricane	-9.77562
▁assistant	-9.77571
▁800	-9.77649
ell	-9.77917
▁doctor	-9.77957
▁yang	-9.78008
▁ta	-9.78123
▁joined	-9.78246
▁birth	-9.78286
▁wild	-9.78293
▁entire	-9.78297
▁christophe	-9.78298
▁display	-9.78301
▁controversial	-9.78314
ju	-9.78342
▁pilot	-9.78352
▁propert	-9.78576
▁bann	-9.78613
▁god	-9.78657
▁pledged	-9.78721
▁soldier	-9.78736
end	-9.78757
▁supplie	-9.78903
▁locat	-9.78981
▁pa	-9.7903
▁madrid	-9.79038
▁channel	-9.79039
▁confidence	-9.79094
▁surrounding	-9.79102
▁highway	-9.7911
▁ca	-9.79135
▁affected	-9.79199
▁improve	-9.79298
▁earn	-9.79392
iya	-9.79408
▁secure	-9.79467
▁reserve	-9.79469
▁victim	-9.79492
▁winner	-9.79509
▁hall	-9.79518
▁ji	-9.79523
▁abu	-9.79573
▁blair	-9.79784
▁happy	-9.79784
▁resort	-9.79784
▁christmas	-9.79785
▁mount	-9.79789
▁govern	-9.79789
▁freedom	-9.79796
▁famous	-9.79834
▁cancel	-9.79863
▁gone	-9.80019
▁touch	-9.8004
em	-9.80041
▁legislati	-9.80077
▁virus	-9.80114
tor	-9.80219
▁collapse	-9.80223
▁sw	-9.80247
▁resolve	-9.80252
▁model	-9.80257
work	-9.80369
go	-9.80382
▁extreme	-9.80536
▁influence	-9.80554
ated	-9.80702
▁pacific	-9.80781
▁promise	-9.80859
▁dog	-9.809
ester	-9.80905
▁treasur	-9.81004
ches	-9.81075
▁transfer	-9.81101
▁burma	-9.81129
▁kidnapped	-9.81188
▁abuse	-9.81189
▁twice	-9.81294
▁eye	-9.8132
ja	-9.81331
▁36	-9.81334
▁spark	-9.81431
▁meters	-9.81453
mail	-9.81553
ud	-9.82014
▁abandon	-9.82057
▁trail	-9.82074
over	-9.82085
▁charles	-9.82091
▁maker	-9.82103
▁asp	-9.82123
▁witnesses	-9.82196
▁trust	-9.82229
ke	-9.82351
▁fa	-9.82359
▁sub	-9.82517
▁sentenc	-9.8264
▁true	-9.82721
government	-9.82732
▁oscar	-9.82827
▁type	-9.82828
▁dress	-9.82838
▁festival	-9.82839
▁add	-9.82846
▁resignation	-9.82869
▁regular	-9.82904
nel	-9.82965
▁alone	-9.83081
▁christian	-9.8318
▁activit	-9.83525
▁software	-9.83602
▁enem	-9.8361
▁recession	-9.83611
western	-9.83641
▁min	-9.83655
▁tibetan	-9.83704
tion	-9.83706
▁score	-9.83719
▁33	-9.83744
▁champions	-9.83766
▁impos	-9.83841
▁decline	-9.83919
au	-9.84051
▁sudan	-9.84385
▁multi	-9.84388
▁studie	-9.84389
▁canada	-9.84418
zai	-9.84433
▁singer	-9.84438
▁doubt	-9.84441
▁48	-9.84515
▁dark	-9.84525
▁flow	-9.84563
▁language	-9.84621
▁active	-9.84637
gi	-9.8465
▁replace	-9.84666
▁42	-9.84666
▁ali	-9.84723
▁lo	-9.84725
om	-9.84744
ino	-9.8479
▁suit	-9.84849
▁decade	-9.8506
▁hussein	-9.8517
▁palace	-9.8517
▁pentagon	-9.8517
▁competition	-9.85171
▁married	-9.85171
▁division	-9.85176
atomic	-9.85182
▁2009	-9.85316
fire	-9.85495
▁producer	-9.85496
▁broad	-9.85869
▁zimbabwe	-9.85878
▁journal	-9.85946
▁concert	-9.85964
▁eventual	-9.85966
overall	-9.8597
▁agenci	-9.8597
▁william	-9.85994
▁beyon	-9.85995
▁gord	-9.86003
un	-9.86016
▁northeast	-9.86058
▁sch	-9.86284
▁limit	-9.86321
▁kidnapping	-9.86393
▁organiz	-9.86463
▁determine	-9.86484
▁damag	-9.86577
▁bag	-9.86713
▁reflect	-9.86764
▁currenc	-9.86764
▁francisco	-9.86766
▁rush	-9.86774
▁torch	-9.86794
▁species	-9.86832
▁pope	-9.87051
▁euro	-9.87118
ez	-9.8715
ors	-9.87204
▁foreigners	-9.87207
▁steve	-9.87358
▁oppos	-9.87358
▁gay	-9.87364
ification	-9.87472
▁williams	-9.87541
▁explod	-9.8757
▁retir	-9.87573
▁sky	-9.87699
▁bombings	-9.87828
▁door	-9.87845
▁tape	-9.87856
▁shop	-9.87866
▁syria	-9.87939
▁sha	-9.87951
vi	-9.88011
▁smoke	-9.88197
▁photograph	-9.88345
▁ronald	-9.88385
▁survivor	-9.88413
▁alert	-9.8842
▁laden	-9.88484
▁laws	-9.88494
▁demanding	-9.88522
▁38	-9.88525
▁prepared	-9.8859
▁jo	-9.88591
▁advance	-9.88679
▁leg	-9.88799
▁net	-9.891
field	-9.89142
▁condoleez	-9.89203
▁practice	-9.89203
▁kosov	-9.89203
▁commitment	-9.89224
▁declaration	-9.89258
▁roll	-9.89272
▁floor	-9.89292
▁halt	-9.89313
▁exile	-9.89324
▁thai	-9.89348
▁shar	-9.89355
ick	-9.89393
▁violat	-9.89405
▁52	-9.89521
▁signal	-9.89677
▁feature	-9.89695
▁zoo	-9.8973
▁table	-9.89791
▁consumers	-9.89818
▁presen	-9.89828
foot	-9.89989
erry	-9.90027
▁draft	-9.90029
▁economist	-9.90029
▁relief	-9.90031
▁crackdown	-9.90032
▁demonstrator	-9.90074
▁sports	-9.90094
▁effective	-9.9013
▁ten	-9.90157
▁lu	-9.90366
night	-9.90528
▁requir	-9.90709
▁bomber	-9.90754
▁extra	-9.90807
cient	-9.9085
▁dan	-9.90854
▁dialogue	-9.90863
▁implement	-9.90863
▁portug	-9.90864
▁various	-9.90866
▁stem	-9.90947
q	-9.90977
▁withdrawal	-9.90979
▁shift	-9.91038
▁foundation	-9.9115
▁farmer	-9.91164
▁culture	-9.91227
▁44	-9.91289
▁sense	-9.91436
▁shari	-9.91524
▁witness	-9.9155
▁fully	-9.91553
general	-9.91677
▁egypt	-9.91692
▁dream	-9.91703
▁spear	-9.91722
▁1999	-9.91724
▁pain	-9.91737
▁connection	-9.91759
▁martin	-9.91849
▁favor	-9.91971
min	-9.92228
▁stone	-9.92242
▁las	-9.92254
▁politicians	-9.92281
▁pictures	-9.92314
▁guy	-9.92356
▁whole	-9.92359
▁tony	-9.92441
▁complain	-9.92441
▁199	-9.92446
▁196	-9.92519
▁militia	-9.9255
▁tournament	-9.9255
▁jew	-9.92609
▁violation	-9.92611
▁throw	-9.92665
▁bo	-9.92683
▁wealth	-9.92706
▁je	-9.92707
▁55	-9.92763
▁mind	-9.92871
▁ja	-9.92923
ck	-9.92985
▁minor	-9.93027
▁waters	-9.9303
▁convention	-9.93039
▁sometimes	-9.93203
▁blame	-9.9322
▁deploy	-9.93367
▁religious	-9.93405
▁flame	-9.93411
▁version	-9.9343
▁announce	-9.93458
ber	-9.93459
▁howard	-9.93479
res	-9.93494
where	-9.93518
▁ways	-9.93565
▁troop	-9.93568
▁setting	-9.93596
▁partner	-9.93627
▁determined	-9.93668
▁traveling	-9.9371
▁historic	-9.93736
▁mad	-9.9379
per	-9.9393
▁academ	-9.94054
▁counter	-9.94074
▁blow	-9.94082
▁defend	-9.94131
▁fled	-9.94233
american	-9.94263
▁audience	-9.94267
▁delegation	-9.94267
▁kabul	-9.94267
▁unveil	-9.94267
▁beckham	-9.94269
▁boycott	-9.9427
▁sector	-9.94317
▁computers	-9.94335
aks	-9.94381
our	-9.94559
▁suffering	-9.94574
▁taxes	-9.9464
chi	-9.94703
▁works	-9.94736
▁hole	-9.94806
ji	-9.94908
▁surge	-9.94999
▁apolog	-9.95091
▁danger	-9.95126
▁encourage	-9.95137
▁medicine	-9.9514
▁ceo	-9.95145
ept	-9.95151
▁meetings	-9.95189
▁spring	-9.95281
▁losing	-9.95288
▁motor	-9.95329
▁hous	-9.95333
▁angr	-9.95398
ny	-9.95415
▁basic	-9.95499
▁cruise	-9.95522
▁ha	-9.95523
▁probe	-9.9553
he	-9.95694
▁mc	-9.95695
▁tank	-9.95831
▁budget	-9.96014
▁fraud	-9.96014
▁rapid	-9.96018
▁fellow	-9.96024
▁easi	-9.96035
▁1998	-9.96037
▁diana	-9.96044
▁actress	-9.96057
▁lake	-9.9609
▁degree	-9.96212
▁seed	-9.96244
▁picture	-9.9626
▁34	-9.9626
▁brand	-9.96271
shi	-9.96278
▁di	-9.96295
▁hear	-9.96308
▁speaker	-9.96363
ov	-9.96392
▁users	-9.96456
bi	-9.96741
▁51	-9.96751
▁198	-9.96886
▁michigan	-9.96899
▁tehran	-9.96899
▁sister	-9.96921
▁reaction	-9.96948
▁clashe	-9.97002
▁qualit	-9.97043
▁wind	-9.97082
pr	-9.97124
moon	-9.97279
ya	-9.97445
▁nor	-9.97484
▁250	-9.97572
▁slight	-9.97577
▁arabia	-9.97594
▁object	-9.97714
▁alcohol	-9.97763
▁collapsed	-9.97767
▁saddam	-9.97792
▁temperature	-9.97792
▁virtual	-9.97792
▁enjoy	-9.97792
▁modern	-9.97792
▁kennedy	-9.97792
▁favorite	-9.97799
mb	-9.97817
we	-9.9782
▁rank	-9.97983
▁tens	-9.98075
▁alive	-9.98111
▁du	-9.98115
▁agree	-9.98243
ari	-9.98345
called	-9.98392
▁items	-9.98481
▁catholic	-9.98693
▁uranium	-9.98693
▁kurdish	-9.98704
▁grave	-9.98714
▁register	-9.98752
▁soviet	-9.98761
▁heavily	-9.98761
▁unlike	-9.98761
▁appoint	-9.98797
ization	-9.98842
▁ring	-9.98871
▁demonstrations	-9.9893
▁statu	-9.98934
▁weight	-9.98951
ran	-9.99044
cu	-9.99096
▁stoo	-9.99128
ff	-9.99236
▁improv	-9.99237
▁stake	-9.99247
▁tensions	-9.99344
▁artist	-9.99368
▁pounds	-9.99393
▁systems	-9.99446
rs	-9.99463
gun	-9.99472
▁fast	-9.99483
▁isn	-9.99486
▁gov	-9.99499
ven	-9.99512
▁welcome	-9.9959
▁vietnam	-9.99602
▁serving	-9.99602
junta	-9.9961
▁explosives	-9.99654
▁43	-9.99708
▁wonder	-9.99709
har	-9.99735
▁inspector	-9.99737
▁rape	-9.99763
▁lose	-9.99808
▁kick	-9.99824
▁chose	-9.99928
▁194	-9.99931
▁broken	-10.0003
▁jan	-10.001
▁possibl	-10.0014
ron	-10.0015
▁climb	-10.0033
▁cuba	-10.0036
▁accepted	-10.0041
corporate	-10.0045
▁wolf	-10.0052
itarian	-10.0053
▁championship	-10.0053
▁visa	-10.0053
▁assistance	-10.0053
▁orbit	-10.0056
minute	-10.0057
korean	-10.0057
related	-10.0067
▁indicate	-10.0072
▁demanded	-10.0079
ribal	-10.0094
▁decide	-10.0097
▁62	-10.01
▁equal	-10.0102
▁em	-10.0107
▁tech	-10.0108
▁spend	-10.0112
▁organizer	-10.0116
▁yu	-10.0119
▁jose	-10.012
▁ahmadi	-10.0122
▁tim	-10.0123
▁kenya	-10.0123
▁exact	-10.0145
▁nicola	-10.0145
▁regulation	-10.0145
▁stadium	-10.0145
▁vegas	-10.0145
▁speculation	-10.0146
▁tourism	-10.0148
▁1980	-10.0148
▁hop	-10.0149
▁highly	-10.0159
▁acknowledg	-10.0163
ig	-10.017
▁continu	-10.0175
▁controll	-10.0191
pe	-10.02
head	-10.0212
gen	-10.0216
nd	-10.0227
suu	-10.0229
▁remote	-10.0238
▁islamabad	-10.0238
▁simpson	-10.0238
▁debt	-10.0238
▁license	-10.0243
▁physical	-10.0248
▁complaint	-10.025
▁farm	-10.0263
▁photos	-10.0269
▁10-	-10.0274
▁prove	-10.028
▁cb	-10.0287
ou	-10.0308
bu	-10.0323
den	-10.0326
vo	-10.0332
▁obtain	-10.0332
▁ethnic	-10.0332
▁jerusalem	-10.0332
▁massachusetts	-10.0332
▁enrich	-10.0333
▁machine	-10.0333
▁mis	-10.0334
▁dna	-10.0339
▁warming	-10.0352
▁ski	-10.0356
malik	-10.0371
ik	-10.0377
▁ensure	-10.038
▁traveler	-10.0383
▁dec	-10.0398
▁path	-10.04
haps	-10.0406
▁arizona	-10.0428
▁crucial	-10.0428
▁equipment	-10.0428
▁nepal	-10.0428
▁primari	-10.0428
▁rallie	-10.0428
▁joong	-10.0429
▁box	-10.0438
▁fe	-10.0444
▁captur	-10.0449
gh	-10.0475
▁commissioner	-10.0479
ability	-10.0483
▁relative	-10.0484
▁weapon	-10.0485
-0	-10.0488
▁ending	-10.0491
▁argu	-10.0493
▁enforce	-10.05
▁injury	-10.0501
▁southeast	-10.0508
▁example	-10.0524
▁globe	-10.0524
▁liberal	-10.0524
▁narrow	-10.0524
▁purpose	-10.0524
▁iowa	-10.0524
▁frank	-10.0525
▁invite	-10.0525
▁wake	-10.0527
down	-10.0527
▁plot	-10.0533
▁thanks	-10.0545
▁manag	-10.0552
▁spy	-10.0573
▁expand	-10.0585
tic	-10.0586
▁manufactur	-10.0601
▁cia	-10.0608
nbc	-10.0613
bed	-10.0618
▁google	-10.0621
▁trillion	-10.0621
▁warrant	-10.0621
▁task	-10.0621
▁alaska	-10.0623
▁bailout	-10.0624
▁tight	-10.0629
▁evacuated	-10.0633
▁standing	-10.0638
rd	-10.0652
▁wing	-10.0655
▁takes	-10.0656
▁dut	-10.0656
▁representatives	-10.0656
bar	-10.0669
▁ru	-10.0675
▁anger	-10.0676
▁tons	-10.0681
ified	-10.0685
▁detail	-10.0685
▁lawmaker	-10.0687
ious	-10.0691
▁rep	-10.0705
▁gang	-10.0705
▁mahmoud	-10.0719
▁samsung	-10.0719
▁surface	-10.0719
▁fatah	-10.0719
pp	-10.0721
▁1990	-10.0722
of	-10.0724
ground	-10.0726
▁leak	-10.0727
broad	-10.073
▁discovery	-10.0743
▁islam	-10.0743
▁closer	-10.0751
▁santa	-10.0754
▁sand	-10.0758
▁exercise	-10.0766
▁dismissed	-10.0767
▁wen	-10.0784
air	-10.0785
▁smaller	-10.0787
▁stress	-10.0806
▁manch	-10.081
hai	-10.0815
▁guarantee	-10.0818
▁perfect	-10.0818
▁subject	-10.0818
▁auction	-10.0818
▁internal	-10.0818
▁promote	-10.0819
▁professional	-10.0821
▁guest	-10.0821
▁strengthen	-10.0821
▁pair	-10.0823
▁mike	-10.0825
▁rough	-10.0834
▁calm	-10.0837
rew	-10.0838
▁46	-10.0841
▁die	-10.0843
▁bu	-10.0844
▁factor	-10.0846
▁hoped	-10.0852
▁tonight	-10.0861
fa	-10.0873
nation	-10.0878
ville	-10.0886
50	-10.0905
▁chair	-10.0914
yone	-10.0917
▁detention	-10.0918
▁invasion	-10.0918
▁daniel	-10.0918
▁jackson	-10.0919
▁estate	-10.092
▁outbreak	-10.0925
▁nobel	-10.0925
▁transition	-10.0932
▁harm	-10.0948
▁mars	-10.0965
va	-10.0966
▁provinc	-10.0967
▁bell	-10.0968
▁pet	-10.0978
mph	-10.0985
▁electronic	-10.0992
▁explain	-10.1012
▁memorial	-10.1019
▁offensive	-10.1019
▁suburb	-10.1019
▁colleague	-10.1019
▁aware	-10.1019
▁relay	-10.1019
▁lawsuit	-10.102
▁carbon	-10.1021
▁attract	-10.1021
▁assassination	-10.1022
▁restriction	-10.1023
▁strip	-10.1023
▁mal	-10.1024
▁windows	-10.1025
▁cents	-10.1026
like	-10.1036
▁arrival	-10.1047
▁patrol	-10.1053
▁dogs	-10.1057
▁fed	-10.1058
▁phones	-10.1067
▁meant	-10.1073
surance	-10.1079
▁stars	-10.1092
pped	-10.1098
▁champion	-10.11
▁identify	-10.1121
▁album	-10.1121
▁sheriff	-10.1121
▁monk	-10.1125
▁dutch	-10.113
▁theater	-10.1131
ional	-10.1132
level	-10.1135
▁writer	-10.1141
▁thank	-10.1143
▁institution	-10.115
▁reporter	-10.1167
▁none	-10.1168
▁54	-10.117
ade	-10.1171
▁putt	-10.1175
▁ku	-10.1193
▁advantage	-10.1224
▁nevada	-10.1224
▁strategy	-10.1224
▁suspicion	-10.1224
▁dubai	-10.1224
▁babies	-10.1224
▁counterpart	-10.1224
lor	-10.1226
▁nominat	-10.1229
▁remember	-10.1229
ze	-10.1237
employment	-10.1241
▁visiting	-10.1244
rk	-10.1255
▁stall	-10.1266
▁books	-10.1267
▁wal	-10.1278
▁65	-10.1278
▁remove	-10.1281
▁chen	-10.1286
▁tom	-10.1291
▁era	-10.1293
tro	-10.1298
ph	-10.1304
▁freed	-10.1309
tv	-10.1313
▁permanent	-10.1328
▁louis	-10.1329
▁berlin	-10.1329
▁casualties	-10.1331
▁creat	-10.1332
▁projects	-10.1338
▁tear	-10.1344
▁te	-10.1346
▁choose	-10.1348
▁generation	-10.1351
▁engag	-10.1368
jury	-10.137
▁reasons	-10.1373
erson	-10.1382
clear	-10.1383
▁forum	-10.139
▁im	-10.1391
▁offering	-10.1395
▁rome	-10.1398
▁edge	-10.1402
▁sp	-10.1406
▁41	-10.1407
▁extended	-10.1424
▁presiden	-10.1427
▁stimul	-10.1433
▁sudden	-10.1433
▁kingdom	-10.1434
▁lady	-10.1434
▁elector	-10.1442
qu	-10.1444
▁diplomats	-10.1451
▁dub	-10.1451
▁prepar	-10.1453
▁yes	-10.1457
▁mohamm	-10.1462
▁v	-10.1463
▁relatives	-10.1478
pi	-10.1478
▁moon	-10.148
▁aboard	-10.1488
▁feeling	-10.151
▁page	-10.1515
▁wood	-10.1516
▁supporting	-10.1518
▁venezuela	-10.1518
llah	-10.1523
▁anonymity	-10.154
▁veteran	-10.154
▁reduction	-10.154
▁diego	-10.1541
ett	-10.1544
▁exit	-10.1545
▁teenager	-10.1545
che	-10.1554
▁document	-10.1557
▁ministers	-10.1558
spread	-10.156
zo	-10.1566
▁sydn	-10.1573
▁colombian	-10.1574
▁ph	-10.1599
▁complet	-10.16
▁limited	-10.1608
bus	-10.1608
▁mr	-10.1617
▁recovery	-10.1622
▁ne	-10.1623
▁worse	-10.1625
▁participat	-10.1631
hn	-10.1634
▁sport	-10.1635
wang	-10.1638
▁threats	-10.1644
bb	-10.1644
▁hilton	-10.1647
▁technical	-10.1647
▁simple	-10.1647
▁nadal	-10.1647
▁tiger	-10.1648
▁split	-10.1653
▁buri	-10.1655
stein	-10.1658
▁sh	-10.1662
▁johnson	-10.1665
▁pose	-10.1669
water	-10.167
▁income	-10.1671
▁princess	-10.1674
▁strain	-10.1678
▁catch	-10.1695
nam	-10.1698
ural	-10.171
▁file	-10.1721
tri	-10.1741
▁bur	-10.1743
house	-10.1748
▁coup	-10.175
▁conclud	-10.1751
▁ukrain	-10.1755
▁tomorrow	-10.1756
▁excit	-10.1756
▁entertainment	-10.1756
hand	-10.1758
▁feder	-10.1758
ip	-10.1761
▁froze	-10.1766
▁fashion	-10.1768
▁authoriz	-10.1772
ub	-10.1776
▁easy	-10.1778
ab	-10.1781
ging	-10.1784
▁bird	-10.1787
▁basi	-10.1788
▁warm	-10.1791
▁heads	-10.1796
▁sit	-10.1834
▁escape	-10.1838
▁investigate	-10.1847
▁64	-10.1849
▁lay	-10.185
ki	-10.1854
▁soccer	-10.1866
▁devastat	-10.1866
▁cleric	-10.1866
▁atmospher	-10.1866
▁detonat	-10.1867
▁delta	-10.1867
▁potter	-10.1867
▁destruction	-10.1867
▁compound	-10.1867
▁highlight	-10.1869
▁arrive	-10.1869
▁shortage	-10.1879
▁extend	-10.1888
tz	-10.193
▁benefits	-10.1933
▁roads	-10.1948
▁clash	-10.1966
▁fl	-10.1968
ot	-10.1972
ap	-10.1973
▁recruit	-10.1977
▁negative	-10.1977
▁debut	-10.1977
▁simply	-10.1977
▁agenda	-10.1977
▁alexand	-10.1978
▁barr	-10.1979
▁mention	-10.1982
▁flag	-10.1986
▁mac	-10.1999
val	-10.2001
▁ease	-10.2021
ities	-10.2033
▁resources	-10.2036
▁movies	-10.2047
uc	-10.2057
▁pledge	-10.2063
▁malaysia	-10.2068
▁via	-10.2069
▁haven	-10.207
▁waste	-10.2076
▁detect	-10.2078
▁erupt	-10.2083
▁bureau	-10.2089
▁zealand	-10.2089
▁canadian	-10.2089
▁shelter	-10.2089
▁thomas	-10.209
▁conspirac	-10.209
▁cutting	-10.2094
▁expectation	-10.2099
▁gap	-10.21
▁renew	-10.2103
▁landing	-10.2103
▁listen	-10.2111
east	-10.2111
▁firefighter	-10.2111
ersey	-10.2112
▁lt	-10.2113
▁heading	-10.2116
▁lock	-10.2131
enko	-10.218
kk	-10.218
▁infect	-10.2197
▁chelsea	-10.2203
▁frequent	-10.2203
▁liverpool	-10.2203
yongbyon	-10.2203
▁element	-10.2203
▁valley	-10.2204
▁bullet	-10.2204
▁guards	-10.2205
meter	-10.2207
▁struggle	-10.221
▁lowest	-10.2211
▁shoe	-10.2213
▁56	-10.2214
▁elder	-10.2223
▁rod	-10.2224
rac	-10.2232
iz	-10.2234
lan	-10.2253
▁qu	-10.226
fare	-10.2285
arta	-10.2286
▁fin	-10.2296
▁recommend	-10.2315
▁seal	-10.2315
▁scot	-10.2318
▁atlanta	-10.2318
▁angel	-10.232
▁pace	-10.2326
▁cool	-10.233
▁scale	-10.2333
▁expert	-10.2337
point	-10.2338
▁indiana	-10.2354
aid	-10.236
▁eyes	-10.2361
▁rescuer	-10.2366
▁trapped	-10.2372
▁clon	-10.2372
▁toys	-10.2393
▁schedule	-10.2395
for	-10.2396
kin	-10.241
▁va	-10.2428
▁col	-10.2433
▁unusual	-10.2434
▁identit	-10.2434
▁assets	-10.2435
▁2010	-10.2435
▁closing	-10.2437
▁section	-10.2439
▁campus	-10.2443
▁youth	-10.2443
▁bull	-10.2445
▁cultur	-10.2446
▁corner	-10.2447
▁chemical	-10.2449
▁payment	-10.2453
▁vessel	-10.2455
body	-10.2458
▁label	-10.2464
mon	-10.2466
▁ham	-10.2478
▁dong	-10.2481
mar	-10.2499
▁fay	-10.2506
▁proper	-10.2515
▁pc	-10.2522
▁lama	-10.2533
▁handl	-10.2534
▁km	-10.2541
▁learned	-10.2543
▁disappoint	-10.2548
▁birds	-10.2551
▁bangkok	-10.2552
▁succeed	-10.2552
▁writing	-10.2552
▁chrys	-10.2552
▁diamond	-10.2552
▁crack	-10.2552
▁wedding	-10.2552
▁kang	-10.257
▁ally	-10.257
▁sort	-10.2576
▁pos	-10.258
▁ride	-10.2587
▁ill	-10.2592
▁observer	-10.2609
nature	-10.2615
▁percentage	-10.2615
▁hospitaliz	-10.2619
itting	-10.2627
▁pound	-10.2628
eus	-10.2637
▁39	-10.2639
iri	-10.2662
▁bone	-10.2669
▁disappear	-10.2669
▁divorce	-10.2671
▁preliminar	-10.2671
▁studio	-10.2671
▁mccann	-10.2671
▁digital	-10.2671
▁bilateral	-10.2671
▁shrine	-10.2671
▁clinic	-10.2671
▁dramatic	-10.2671
▁abdullah	-10.2673
▁knee	-10.2673
▁proud	-10.2674
▁stretch	-10.2676
▁execution	-10.2676
▁hopeful	-10.2679
tt	-10.268
▁golden	-10.2682
▁pushing	-10.2688
▁plead	-10.269
▁khan	-10.2693
▁homeland	-10.2696
▁sponsor	-10.2697
▁burned	-10.2698
azir	-10.27
▁engine	-10.2723
▁notice	-10.2747
▁boe	-10.2751
▁reduced	-10.2753
sen	-10.2759
▁purchase	-10.2766
▁scar	-10.277
ow	-10.2777
▁collect	-10.2777
fer	-10.278
▁surround	-10.2781
▁select	-10.2782
put	-10.2785
▁controversy	-10.2791
▁tsunami	-10.2791
▁ghaz	-10.2791
▁desert	-10.2792
▁yellow	-10.2792
▁boom	-10.2792
▁string	-10.2793
▁maryland	-10.2793
▁x	-10.2793
▁gulf	-10.2794
ara	-10.2795
▁rail	-10.2798
▁smoking	-10.2804
▁hezb	-10.2804
▁soar	-10.2828
▁coordinat	-10.2837
▁palm	-10.2841
aw	-10.2844
agan	-10.2846
▁ia	-10.2854
ova	-10.2861
af	-10.2863
beth	-10.2867
▁cor	-10.2889
▁rat	-10.2895
▁ge	-10.2898
▁edwards	-10.291
ral	-10.2911
▁alternative	-10.2913
▁darfur	-10.2913
▁error	-10.2913
▁miami	-10.2913
▁mortgage	-10.2913
▁bottle	-10.2913
▁pump	-10.2914
▁radical	-10.2914
▁balance	-10.2914
▁prett	-10.2916
▁solar	-10.2917
▁cheer	-10.2917
▁direction	-10.2919
▁palin	-10.2919
▁dala	-10.2922
▁fate	-10.2929
nga	-10.293
ep	-10.2935
▁inflation	-10.294
▁wish	-10.2941
▁opponents	-10.2947
ged	-10.2954
rey	-10.2955
▁teachers	-10.2963
▁describe	-10.2973
ef	-10.3008
▁metal	-10.3008
▁abduct	-10.3029
▁journey	-10.3037
▁method	-10.3037
▁ballot	-10.3038
▁edition	-10.304
▁dump	-10.3048
▁nas	-10.3061
▁bright	-10.3064
▁59	-10.3064
beaten	-10.3077
▁ticket	-10.308
▁restaurant	-10.3081
▁color	-10.3083
▁si	-10.3097
▁battl	-10.3105
▁landed	-10.3112
▁entering	-10.3125
▁goods	-10.3128
▁petra	-10.3133
ib	-10.3144
▁61	-10.3152
▁strength	-10.3157
▁convoy	-10.3162
▁gonzale	-10.3162
▁immigrat	-10.3162
▁yonhap	-10.3162
▁youtube	-10.3162
▁colorado	-10.3162
▁58	-10.3167
▁hunt	-10.3178
▁venezuelan	-10.3187
▁argentin	-10.3199
cha	-10.32
▁marked	-10.3206
▁indonesian	-10.3208
▁benefit	-10.3212
▁drew	-10.3218
▁jak	-10.3219
▁gains	-10.323
▁ti	-10.3237
▁belong	-10.3241
wise	-10.3248
▁sean	-10.3257
▁roman	-10.3267
▁ear	-10.3269
▁holy	-10.3276
▁weigh	-10.3278
▁sustain	-10.3288
▁bottom	-10.3288
▁client	-10.3288
▁captain	-10.3288
▁margin	-10.3288
▁emissions	-10.3288
▁tropic	-10.3289
▁macau	-10.3289
▁lab	-10.3289
ver	-10.3289
▁weaken	-10.3292
▁deployment	-10.3294
ob	-10.3308
▁charit	-10.331
▁49	-10.3312
▁magnitude	-10.3313
▁larger	-10.332
▁steven	-10.3322
▁osam	-10.3325
▁divid	-10.3329
▁pop	-10.333
ford	-10.3333
jung	-10.3334
▁lie	-10.3339
either	-10.3341
▁fix	-10.335
cc	-10.3354
▁ch	-10.3354
▁ray	-10.336
red	-10.337
tiny	-10.337
set	-10.337
▁beating	-10.3372
▁falling	-10.3393
port	-10.3394
▁reading	-10.3396
▁fatal	-10.3405
▁fee	-10.341
▁symbol	-10.3412
uri	-10.3412
▁pregnan	-10.3415
▁convince	-10.3417
▁gasoline	-10.3417
▁hyundai	-10.3417
▁cloud	-10.3417
madeleine	-10.3418
▁inspection	-10.3419
▁innocent	-10.342
▁delivery	-10.342
half	-10.3426
zi	-10.343
▁dam	-10.344
11	-10.3442
▁afford	-10.3442
hood	-10.3444
▁pla	-10.3446
▁upper	-10.3447
▁escap	-10.3449
▁print	-10.3453
▁predicted	-10.3454
stance	-10.3457
democrac	-10.3459
▁effects	-10.3468
▁imp	-10.3469
▁featur	-10.347
made	-10.3472
▁healthy	-10.3472
▁truth	-10.3476
▁par	-10.3482
room	-10.349
▁pursu	-10.3506
▁tr	-10.3511
arah	-10.3513
▁stores	-10.3519
war	-10.3524
▁fr	-10.3525
▁invest	-10.3527
ei	-10.3531
▁southwest	-10.3536
▁3-	-10.3545
▁celebrat	-10.3545
▁experiment	-10.3546
▁landslide	-10.3546
▁vatican	-10.3546
▁vladimir	-10.3546
▁drove	-10.3547
▁boston	-10.3547
▁firing	-10.3547
▁vacation	-10.3547
▁shopping	-10.3547
▁initiative	-10.3547
▁1994	-10.3549
▁jesu	-10.3551
je	-10.3552
▁stability	-10.3564
▁pitch	-10.3568
soo	-10.3575
▁stag	-10.3575
her	-10.3578
▁pi	-10.358
▁chain	-10.3582
▁53	-10.3588
▁66	-10.3589
▁gi	-10.3625
ko	-10.3632
can	-10.3636
▁95	-10.3642
jo	-10.3646
▁rockets	-10.365
sumption	-10.3653
▁skin	-10.3671
▁northwest	-10.3675
▁knowledge	-10.3678
▁prospect	-10.3678
▁corporation	-10.3678
▁patric	-10.3681
▁grew	-10.3682
▁assist	-10.3682
▁mont	-10.3693
▁cr	-10.3707
▁carrier	-10.3713
▁promot	-10.3713
▁cable	-10.3715
▁failing	-10.3715
▁introduc	-10.3718
▁drawn	-10.372
▁gathering	-10.3735
▁meaning	-10.3735
▁joe	-10.3735
mm	-10.3742
▁structure	-10.3747
▁divers	-10.3751
▁ar	-10.3753
▁rang	-10.3754
▁oh	-10.376
▁replac	-10.3762
▁younger	-10.3767
▁dealing	-10.3769
ail	-10.3777
▁capture	-10.3783
ft	-10.3785
▁survived	-10.3787
▁negotiat	-10.3792
▁flee	-10.3797
ago	-10.38
▁jim	-10.3806
▁lin	-10.3808
▁denounc	-10.3811
▁ultimate	-10.3811
▁knock	-10.3812
▁wildlife	-10.3812
▁vast	-10.3814
▁temple	-10.3814
▁accord	-10.3815
▁fox	-10.3816
▁bigger	-10.3816
ehud	-10.3824
ray	-10.3824
▁120	-10.3851
▁ya	-10.3854
▁fo	-10.3855
style	-10.3859
com	-10.3876
▁planes	-10.388
▁tradition	-10.388
election	-10.3881
▁hat	-10.3885
▁mir	-10.3896
board	-10.3925
▁pan	-10.3932
▁formed	-10.3932
▁write	-10.3933
▁typical	-10.3947
▁islamist	-10.3949
▁gallon	-10.3949
▁collection	-10.3953
▁bond	-10.3954
armament	-10.3959
▁il	-10.3962
▁bowl	-10.3969
▁sam	-10.3972
▁dy	-10.3995
▁mail	-10.3998
cation	-10.4014
dp	-10.4021
▁guns	-10.4023
▁sixth	-10.4023
▁pat	-10.4027
▁teacher	-10.4029
▁pirates	-10.4037
▁gore	-10.4046
unt	-10.4069
▁abc	-10.4075
uff	-10.4078
▁warnings	-10.4079
▁hang	-10.4079
▁connect	-10.408
▁isolat	-10.4081
▁barcelon	-10.4084
▁brutal	-10.4084
▁conversation	-10.4084
▁eliza	-10.4084
▁stepped	-10.4084
▁plastic	-10.4084
▁numer	-10.4084
▁delhi	-10.4084
▁wor	-10.4093
ants	-10.4094
▁length	-10.4098
▁participate	-10.4104
tter	-10.4109
▁peru	-10.4121
third	-10.4135
▁beef	-10.4139
-4	-10.4141
▁tru	-10.4161
oney	-10.4161
▁islands	-10.4168
▁representative	-10.4172
▁restaurants	-10.4172
▁mel	-10.418
arian	-10.4183
young	-10.4186
baki	-10.4188
bility	-10.419
eh	-10.419
ign	-10.419
tti	-10.4195
▁sensitiv	-10.4197
▁serbia	-10.4202
▁closely	-10.4215
▁operate	-10.4218
▁abdul	-10.4221
▁squad	-10.4222
▁michel	-10.4222
▁superdelegate	-10.4222
▁girlfriend	-10.4223
▁drama	-10.4225
▁birthday	-10.4226
▁shang	-10.4226
ejad	-10.4228
▁plus	-10.4242
▁briefing	-10.4245
▁responded	-10.4246
▁welcom	-10.4248
ping	-10.4255
▁resolv	-10.4275
▁philippines	-10.4285
eastern	-10.4299
▁sect	-10.4302
istan	-10.4308
maker	-10.4312
▁hiv	-10.4313
▁style	-10.4315
▁photo	-10.4317
▁provinces	-10.432
wing	-10.4321
▁130	-10.4326
▁comfort	-10.4331
won	-10.4332
▁banking	-10.4341
▁195	-10.4342
nne	-10.4354
▁note	-10.4355
▁execut	-10.4356
▁consult	-10.4356
▁mon	-10.4361
▁shi	-10.4362
▁buddhist	-10.4363
▁participant	-10.4363
▁peacekeep	-10.4363
▁revenue	-10.4363
▁routine	-10.4363
▁sovereign	-10.4363
▁surrender	-10.4363
▁endanger	-10.4363
▁stories	-10.4364
▁genetic	-10.4364
▁stole	-10.4365
▁memory	-10.4365
▁illness	-10.4365
▁brazilian	-10.4366
▁punishment	-10.4367
▁federation	-10.4367
▁runway	-10.437
▁character	-10.4375
chuan	-10.4376
▁restore	-10.4376
▁bail	-10.4378
▁liter	-10.4383
iro	-10.4385
▁rom	-10.4391
▁mate	-10.4394
▁5-	-10.4403
▁stan	-10.4406
ible	-10.4412
▁publicly	-10.4426
rat	-10.4437
▁unity	-10.4452
que	-10.4453
▁stronger	-10.4464
▁hundred	-10.4465
▁63	-10.4494
▁68	-10.4496
▁farc	-10.4498
▁televis	-10.45
▁apologiz	-10.4504
▁airstrike	-10.4506
▁civic	-10.4506
▁hampshire	-10.4506
▁hawaii	-10.4506
▁ordinar	-10.4506
▁sailor	-10.4506
▁solve	-10.4506
evin	-10.4507
▁arsenal	-10.4507
uk	-10.4511
▁mental	-10.4517
ight	-10.4519
▁boss	-10.4525
▁paint	-10.4527
▁wins	-10.4528
▁veto	-10.4529
daq	-10.4532
▁root	-10.4535
hu	-10.454
▁der	-10.4542
▁crop	-10.4553
▁disc	-10.4591
▁worrie	-10.4599
▁mor	-10.4613
▁demonstration	-10.4616
▁mistake	-10.4624
▁undergo	-10.4627
col	-10.4628
win	-10.4638
▁survive	-10.4639
▁wine	-10.4645
ture	-10.4649
▁restrict	-10.4651
▁metropoli	-10.4651
▁obvious	-10.4651
▁strict	-10.4651
▁urban	-10.4651
▁watchdog	-10.4652
▁peak	-10.4656
▁appointment	-10.4657
▁photographer	-10.4658
▁successor	-10.4662
▁hail	-10.4664
▁atlantic	-10.4667
▁morgan	-10.4669
bel	-10.4671
▁69	-10.4673
▁accusation	-10.4674
▁bob	-10.4675
▁fit	-10.4681
ker	-10.4682
▁kenyan	-10.4685
▁pen	-10.4686
▁striker	-10.4686
▁trains	-10.471
court	-10.4713
▁accuse	-10.4717
▁inform	-10.4718
eng	-10.4721
▁founder	-10.4722
▁uh	-10.4722
king	-10.4722
▁somali	-10.474
lic	-10.4742
▁fun	-10.4742
pending	-10.4746
▁depend	-10.4756
ward	-10.4757
▁tall	-10.4762
tar	-10.4766
▁declare	-10.477
iv	-10.4771
hattan	-10.4775
▁commit	-10.4778
▁dar	-10.4779
▁sample	-10.4785
▁cease	-10.4798
▁text	-10.4798
▁2012	-10.4798
▁capacity	-10.4798
▁scientific	-10.4798
▁regulator	-10.4798
▁moderate	-10.4798
▁fortune	-10.4799
▁midnight	-10.48
▁shark	-10.4806
▁hero	-10.4836
▁corps	-10.4838
▁eat	-10.4839
member	-10.4852
witz	-10.4853
▁messages	-10.4857
▁bro	-10.486
▁4-	-10.4868
ippi	-10.4869
more	-10.487
gar	-10.4876
▁ri	-10.4881
▁cloth	-10.4883
rin	-10.4885
▁tool	-10.4893
▁lev	-10.4894
pol	-10.4901
ala	-10.4902
▁revolutionar	-10.4904
evich	-10.4931
iana	-10.4935
▁steel	-10.4942
▁tri	-10.4946
▁blago	-10.4947
▁dispatch	-10.4947
▁wreck	-10.4947
▁switch	-10.4947
▁surveill	-10.4947
▁venue	-10.4947
▁cyclone	-10.4948
▁editor	-10.4948
▁jack	-10.4948
▁stephen	-10.4948
▁trend	-10.4948
▁columbia	-10.4949
▁everybody	-10.495
▁shoot	-10.495
▁inquir	-10.495
▁settlement	-10.4951
▁lung	-10.4952
owitz	-10.4952
▁sad	-10.4954
▁expensive	-10.4955
▁dick	-10.4955
cia	-10.4957
▁chile	-10.496
▁greet	-10.4966
▁slipp	-10.4971
▁humans	-10.4982
▁transferr	-10.4986
▁henr	-10.4993
▁bi	-10.4994
▁kerr	-10.5001
sadr	-10.5011
state	-10.5017
oli	-10.5018
▁cri	-10.5061
▁diplomat	-10.5077
▁eating	-10.5081
ota	-10.5082
▁emerged	-10.5086
▁celebrate	-10.5094
▁circumstances	-10.5099
▁coffee	-10.5099
▁convert	-10.5099
▁funeral	-10.5099
▁egyptian	-10.5101
▁caucuse	-10.5101
▁congo	-10.5101
▁harsh	-10.5102
▁novel	-10.5106
▁deny	-10.5111
▁comedy	-10.5112
▁stressed	-10.5119
▁jeff	-10.5119
▁matt	-10.5119
▁faster	-10.5125
▁operator	-10.5126
▁jon	-10.5134
▁maj	-10.514
▁fame	-10.5141
▁moral	-10.5143
than	-10.5143
craft	-10.5161
▁factory	-10.5176
▁sick	-10.518
dr	-10.5182
▁accounts	-10.5183
low	-10.5194
hy	-10.5204
own	-10.5212
▁intention	-10.5213
▁organ	-10.5213
▁moham	-10.5213
▁shell	-10.5216
▁gunm	-10.522
▁citizen	-10.5233
▁counts	-10.5234
▁hospitals	-10.5246
▁powers	-10.525
▁maximum	-10.5253
▁mexican	-10.5253
▁multiple	-10.5253
▁spirit	-10.5253
▁supposed	-10.5253
▁debri	-10.5253
▁mississ	-10.5253
▁crown	-10.5253
▁neck	-10.5255
▁gree	-10.5255
▁1996	-10.5256
az	-10.5257
vice	-10.5258
▁intense	-10.5264
▁native	-10.5265
▁indication	-10.5268
▁glass	-10.5269
▁greatest	-10.5269
▁hir	-10.5271
▁teen	-10.5273
▁tend	-10.5278
▁views	-10.5278
tu	-10.5281
▁bon	-10.5281
ue	-10.529
eath	-10.5291
nic	-10.5292
▁del	-10.5299
▁weak	-10.5301
▁cave	-10.532
week	-10.5323
▁mur	-10.5327
held	-10.5329
▁aids	-10.5329
▁prepare	-10.5337
▁lights	-10.5339
▁achieve	-10.535
car	-10.5355
▁map	-10.5355
▁earning	-10.5373
cut	-10.5381
▁rescued	-10.5392
▁affiliate	-10.5395
pl	-10.5404
▁breakthrough	-10.5409
▁cafe	-10.5409
▁vital	-10.5409
▁quiet	-10.541
▁false	-10.541
▁appli	-10.541
▁barrier	-10.541
▁bitter	-10.5413
▁mourn	-10.5419
▁combin	-10.5421
▁rumor	-10.5421
▁blaze	-10.5422
▁copie	-10.5442
▁sta	-10.5443
▁bombers	-10.5446
▁82	-10.5448
▁gmt	-10.5448
▁musical	-10.545
▁oppose	-10.5451
▁apologize	-10.5475
efa	-10.5476
▁yi	-10.5486
▁urge	-10.5494
▁handle	-10.5514
▁chest	-10.5515
▁odi	-10.5539
ura	-10.5543
▁recognize	-10.5547
ology	-10.5554
▁explosive	-10.5559
▁window	-10.5559
▁jane	-10.5559
▁chart	-10.556
▁punish	-10.5566
▁alex	-10.5568
▁concrete	-10.5568
▁occupation	-10.5568
▁benedict	-10.5568
▁testimon	-10.5568
▁dvd	-10.5568
▁swiss	-10.5568
▁dinner	-10.5568
▁toxic	-10.5568
▁disney	-10.5569
▁preparation	-10.5572
▁1995	-10.5573
▁gross	-10.5573
▁abus	-10.5576
▁medal	-10.5576
precedent	-10.5577
▁anticipat	-10.5581
right	-10.5583
▁agriculture	-10.559
▁owners	-10.5597
▁twin	-10.5606
▁bound	-10.5614
▁yard	-10.5627
ster	-10.5633
▁fla	-10.5639
page	-10.5643
▁chip	-10.565
mile	-10.5658
erland	-10.5665
▁react	-10.5666
▁appropriate	-10.5668
▁historical	-10.5677
▁ram	-10.568
▁diet	-10.5682
▁85	-10.5689
▁chris	-10.569
tech	-10.5701
elling	-10.5704
▁whal	-10.5706
▁christ	-10.5709
▁broadcaster	-10.5718
▁settle	-10.5718
▁chun	-10.572
▁torture	-10.5726
▁restor	-10.5727
▁conservation	-10.5728
▁confident	-10.5728
▁approve	-10.5728
▁commerc	-10.5728
▁phoeni	-10.5729
▁verdict	-10.5729
▁benchmark	-10.5729
▁conclusion	-10.5729
▁shareholder	-10.5729
▁spill	-10.5729
▁lanka	-10.573
▁passport	-10.573
▁amnes	-10.573
▁revis	-10.5732
▁cal	-10.5733
▁beaut	-10.5733
▁tower	-10.5737
▁employ	-10.5743
▁castro	-10.5745
▁mainland	-10.5746
▁loyal	-10.5747
▁attitude	-10.575
▁gul	-10.5762
▁pleas	-10.5763
▁advisor	-10.5767
▁floods	-10.5771
▁unknown	-10.5778
fp	-10.5781
▁predict	-10.5789
▁troubl	-10.5789
▁maria	-10.579
law	-10.5796
▁traffick	-10.5798
▁marks	-10.5804
burg	-10.5811
▁apart	-10.5813
chang	-10.5831
▁000-	-10.584
light	-10.5847
▁ignor	-10.5849
▁mi	-10.587
▁impose	-10.5874
▁escalat	-10.5877
▁ranking	-10.5885
▁disrupt	-10.5887
▁bangladesh	-10.5893
▁category	-10.5893
▁depression	-10.5893
mumba	-10.5894
▁joseph	-10.5894
▁repair	-10.5894
▁apply	-10.5895
▁distance	-10.5895
ble	-10.5896
▁fierce	-10.5896
▁1991	-10.5897
▁matche	-10.5902
▁socialist	-10.5915
▁continent	-10.5917
▁sir	-10.5927
▁mary	-10.5931
▁communit	-10.5931
▁brad	-10.5932
▁correct	-10.5933
53	-10.5934
▁overwhelming	-10.5936
▁pursue	-10.5943
io	-10.5954
▁plung	-10.5958
▁somalia	-10.5958
▁cd	-10.5963
ential	-10.5969
largest	-10.5972
▁shore	-10.5974
-6	-10.6
liest	-10.6022
rank	-10.6029
▁partners	-10.6033
free	-10.6036
▁austria	-10.6038
▁whit	-10.6048
▁grown	-10.6054
▁faith	-10.6058
▁unfortunate	-10.606
▁czech	-10.606
▁plutonium	-10.606
▁prohibit	-10.606
▁reconciliation	-10.606
▁tobacco	-10.606
▁striking	-10.606
▁function	-10.606
▁clark	-10.606
▁attach	-10.606
▁solid	-10.6061
▁stern	-10.6061
quo	-10.6061
▁flash	-10.6062
lated	-10.6063
▁impeach	-10.6063
▁golf	-10.6063
▁classic	-10.6063
▁cargo	-10.6068
▁breath	-10.6068
▁parent	-10.607
▁specialist	-10.607
▁laugh	-10.6071
▁liv	-10.6077
▁frame	-10.6086
nnan	-10.6088
▁substantial	-10.609
▁disable	-10.6091
▁fta	-10.6093
▁rebuild	-10.61
▁retail	-10.611
cher	-10.6113
▁cow	-10.6114
▁villager	-10.6127
▁worri	-10.6129
▁chad	-10.6149
▁cl	-10.6155
▁mag	-10.6156
▁fi	-10.6181
▁zar	-10.6182
▁worker	-10.6182
▁pav	-10.6183
▁wel	-10.6193
▁trader	-10.6193
▁grant	-10.6196
▁associate	-10.6212
hee	-10.6217
▁larr	-10.6225
▁plac	-10.6226
▁outrage	-10.6228
▁slave	-10.6228
▁mccorm	-10.6229
▁typhoon	-10.6229
▁poverty	-10.6229
▁transaction	-10.6229
▁laptop	-10.6229
▁petition	-10.6229
▁variet	-10.623
▁legend	-10.623
▁railway	-10.623
▁6-	-10.6231
▁reference	-10.6233
km	-10.6233
▁negotiate	-10.6236
▁antoni	-10.6237
▁bolt	-10.6241
▁loh	-10.6242
row	-10.6247
izu	-10.6251
▁carlo	-10.6252
▁ac	-10.6253
▁chao	-10.6253
▁copy	-10.6254
standing	-10.6261
▁tackle	-10.6266
▁defendant	-10.6271
ative	-10.6273
▁wage	-10.6274
▁familiar	-10.6278
▁pin	-10.6279
cent	-10.6282
iest	-10.6284
▁kid	-10.63
▁shape	-10.6316
▁prayer	-10.6317
range	-10.6323
nt	-10.6327
▁feed	-10.6337
▁regions	-10.6345
▁mcc	-10.6351
▁shipp	-10.6352
▁batter	-10.6355
▁shoulder	-10.6359
▁bra	-10.6359
▁camps	-10.637
oon	-10.6377
▁mer	-10.6378
star	-10.6387
14	-10.639
▁drawing	-10.6393
lets	-10.6393
▁cleve	-10.6399
▁priva	-10.6399
▁administrative	-10.6401
▁compensation	-10.6401
▁platform	-10.6401
▁referendum	-10.6401
▁kuwait	-10.6401
▁departure	-10.6402
▁separatist	-10.6402
▁confrontation	-10.6404
▁motion	-10.6404
▁pool	-10.6406
▁1992	-10.6409
▁infection	-10.6411
▁absolutely	-10.6417
▁household	-10.6417
▁celebrity	-10.6437
▁colon	-10.6438
▁contribut	-10.6438
ably	-10.6439
▁latin	-10.644
▁hub	-10.6442
▁cuban	-10.6447
▁stands	-10.6448
place	-10.6448
▁argue	-10.6452
▁bri	-10.6458
▁gra	-10.6463
iff	-10.6476
-1	-10.648
rod	-10.6487
via	-10.6488
▁phila	-10.6489
▁brothers	-10.6491
▁mat	-10.6511
ock	-10.6514
pat	-10.6519
▁dat	-10.652
▁buyer	-10.6531
▁compete	-10.6532
uz	-10.654
▁ryan	-10.6541
let	-10.6544
▁priorit	-10.6555
▁miner	-10.6555
▁painting	-10.6564
▁rio	-10.6569
▁except	-10.657
erdog	-10.6572
▁robot	-10.6574
dev	-10.6575
▁crush	-10.6577
▁luxur	-10.6577
▁uniform	-10.6577
▁muscle	-10.6577
▁sweep	-10.6577
▁sentiment	-10.6577
▁tennesse	-10.6577
▁sweet	-10.6577
▁gift	-10.6577
▁resist	-10.6577
▁baseball	-10.6578
▁conviction	-10.6578
▁contrast	-10.6578
▁volcano	-10.658
▁1993	-10.6581
▁worry	-10.6582
▁1960	-10.6583
▁dust	-10.6583
▁dia	-10.6584
▁alarm	-10.6586
▁slamm	-10.6587
▁dad	-10.659
▁villa	-10.659
▁pitt	-10.6592
▁sight	-10.6592
▁chant	-10.6593
▁float	-10.6593
▁fires	-10.6594
▁oldest	-10.6594
▁carter	-10.6594
clusive	-10.6599
▁athen	-10.6603
▁turnout	-10.6606
▁thinking	-10.6608
▁temporary	-10.6613
▁compet	-10.6622
▁paulo	-10.6631
▁wheel	-10.6631
zar	-10.6639
▁16-	-10.664
▁24-	-10.6662
▁wire	-10.6663
▁talked	-10.6672
rich	-10.6684
▁aren	-10.6718
ves	-10.6727
▁prov	-10.6732
▁libya	-10.6734
▁hug	-10.6751
▁virgin	-10.6751
▁jam	-10.6753
mate	-10.6753
▁secular	-10.6754
▁jordan	-10.6754
▁imprison	-10.6755
▁aggressive	-10.6755
▁glacier	-10.6755
▁shield	-10.6756
▁breach	-10.6756
▁rifle	-10.6756
▁smash	-10.6756
▁spotted	-10.6756
▁garden	-10.6757
▁submitt	-10.6767
izing	-10.6771
▁entry	-10.6772
▁northeastern	-10.6773
▁stable	-10.6777
▁yen	-10.6779
▁moore	-10.6785
▁attacker	-10.6786
▁nak	-10.6787
▁hitt	-10.6797
nancy	-10.6797
▁ag	-10.6798
▁advertising	-10.68
▁rafa	-10.6803
▁stick	-10.6804
▁revolution	-10.6807
▁seconds	-10.6809
▁whale	-10.6816
▁chong	-10.6816
▁athletes	-10.682
person	-10.6821
▁scott	-10.6826
▁airports	-10.6831
proof	-10.6843
▁lend	-10.6849
omar	-10.685
▁hy	-10.6851
scale	-10.6851
shore	-10.6853
runner	-10.6862
controll	-10.6863
▁euros	-10.6867
▁woo	-10.687
▁900	-10.687
face	-10.6876
hou	-10.6882
▁sole	-10.6882
▁promotion	-10.6887
sul	-10.69
▁sar	-10.6917
mas	-10.692
▁hills	-10.6927
▁lobby	-10.6936
▁unrest	-10.6937
▁caution	-10.6937
▁immigrant	-10.6937
▁liquid	-10.6937
▁qualify	-10.6937
▁vaccine	-10.6937
▁strand	-10.6937
▁retain	-10.6937
▁outcome	-10.6937
▁tunnel	-10.6938
delphi	-10.6938
▁donald	-10.6938
▁phase	-10.6939
▁acre	-10.6939
▁assessment	-10.694
▁soil	-10.694
▁slump	-10.6942
▁respective	-10.6942
▁tsv	-10.6945
▁timor	-10.6946
▁scan	-10.6947
▁robber	-10.6954
▁fleet	-10.6957
tin	-10.6964
▁rac	-10.6965
▁teens	-10.6968
mbled	-10.6973
▁towns	-10.6977
▁employee	-10.6978
▁hawk	-10.6979
▁spa	-10.6985
irai	-10.6991
ama	-10.6997
▁prais	-10.6997
▁kiss	-10.6999
▁classifie	-10.7
▁ok	-10.7006
-5	-10.7006
hit	-10.7009
ius	-10.7012
ox	-10.7029
profile	-10.7034
arm	-10.7034
ini	-10.7037
▁rum	-10.7041
▁designat	-10.7042
ect	-10.7045
▁ousted	-10.7055
▁crossing	-10.7056
▁sri	-10.7057
▁retailer	-10.7067
top	-10.707
▁banner	-10.7082
▁pray	-10.7093
▁newly	-10.7103
▁overcom	-10.7109
▁exhibit	-10.7116
▁160	-10.7118
▁attribut	-10.7122
▁capitol	-10.7122
▁detroit	-10.7122
▁extraordinar	-10.7122
▁guerrilla	-10.7122
▁essential	-10.7123
▁sheikh	-10.7123
▁embryo	-10.7123
▁pattern	-10.7123
▁ireland	-10.7123
▁airways	-10.7123
▁darwin	-10.7123
▁strategic	-10.7123
▁relocation	-10.7124
▁checkpoint	-10.7124
▁mohammad	-10.7124
▁hamid	-10.7124
▁roger	-10.7125
▁pollution	-10.7125
▁curb	-10.7125
▁huck	-10.7126
▁burst	-10.7126
▁davis	-10.7129
▁boyfriend	-10.7134
▁residence	-10.7138
▁tire	-10.7141
▁kate	-10.7144
born	-10.7148
▁doors	-10.7149
▁securit	-10.7164
oil	-10.7169
▁seventh	-10.7169
▁distribut	-10.717
▁electronics	-10.7172
▁trick	-10.7174
▁pra	-10.718
ranking	-10.7183
▁saving	-10.72
▁graduate	-10.7221
power	-10.7223
▁extremists	-10.7235
▁inde	-10.7242
▁bio	-10.7249
▁breed	-10.7263
nder	-10.7263
▁andrew	-10.7282
nke	-10.7284
▁opt	-10.7288
▁endors	-10.7298
ake	-10.7298
▁transform	-10.7308
▁ambush	-10.7311
▁consequence	-10.7311
▁exposure	-10.7311
▁netherlands	-10.7311
▁technique	-10.7311
▁impossible	-10.7311
▁cartoon	-10.7311
▁twenty	-10.7311
▁creature	-10.7311
▁quarterfinal	-10.7311
▁seattle	-10.7311
▁summon	-10.7311
▁orlean	-10.7311
▁wireless	-10.7313
▁orange	-10.7314
▁monkey	-10.7314
▁adam	-10.7317
▁runoff	-10.7323
▁prior	-10.7324
▁stroke	-10.7327
cheon	-10.733
▁hide	-10.7331
▁bribe	-10.7331
▁reli	-10.7337
▁portion	-10.7338
▁volunteers	-10.7339
▁undermine	-10.7342
▁worsen	-10.7353
nc	-10.7353
▁inspir	-10.7363
▁pal	-10.7365
▁delegate	-10.7374
▁tension	-10.7378
pec	-10.7391
▁mom	-10.7394
▁flo	-10.7394
obi	-10.7396
▁jae	-10.7403
break	-10.7403
▁15-	-10.7408
▁mall	-10.7424
▁gate	-10.7426
gan	-10.7426
▁flat	-10.7432
ode	-10.7435
▁gambar	-10.7448
▁pun	-10.747
▁mu	-10.7473
ide	-10.7495
▁mixed	-10.7497
▁complicat	-10.7498
▁dictator	-10.7503
▁exploit	-10.7503
▁compromise	-10.7503
▁hybrid	-10.7503
▁abortion	-10.7503
▁giuli	-10.7503
▁semifinal	-10.7504
▁swimming	-10.7504
▁scheme	-10.7504
▁bankruptcy	-10.7504
▁substance	-10.7504
▁wildfire	-10.7505
▁roof	-10.7505
▁greenhouse	-10.7505
▁amendment	-10.7505
▁centre	-10.7506
▁zero	-10.7506
▁toilet	-10.7506
▁panda	-10.7508
dc	-10.7509
▁laid	-10.7512
ux	-10.7522
▁grass	-10.7526
▁freeze	-10.7531
▁iron	-10.7533
▁displac	-10.7536
▁eighth	-10.7537
▁surg	-10.7545
▁nice	-10.7545
▁homeless	-10.7547
kov	-10.7547
▁offender	-10.7554
▁politician	-10.7568
▁qa	-10.7601
ean	-10.7615
▁88	-10.7619
▁sang	-10.762
bama	-10.7622
bow	-10.7624
▁advanc	-10.7628
▁warner	-10.764
▁ju	-10.764
hal	-10.7657
kyu	-10.7658
▁concept	-10.7659
▁kyo	-10.766
▁acknowledge	-10.7661
30	-10.7667
ku	-10.7668
cal	-10.7677
▁sexually	-10.7677
▁mess	-10.768
▁whales	-10.7684
▁submit	-10.7687
▁counsel	-10.7689
▁secur	-10.7694
▁eve	-10.7698
▁reiterat	-10.77
▁voluntar	-10.77
▁fulfill	-10.77
▁testify	-10.77
▁merkel	-10.77
▁anchor	-10.77
▁timetable	-10.77
▁inauguration	-10.77
▁evacuation	-10.7701
▁jungle	-10.7703
▁legs	-10.7703
die	-10.7704
▁greek	-10.7705
▁celebration	-10.7709
▁missou	-10.7709
▁fat	-10.771
▁dean	-10.771
▁viewers	-10.7712
▁gear	-10.7714
▁await	-10.7717
losi	-10.7721
▁dominat	-10.7733
▁emotional	-10.7739
▁realize	-10.7742
▁faction	-10.7747
▁20-	-10.7756
▁ke	-10.7757
▁plate	-10.7764
▁friendly	-10.7764
▁feb	-10.777
▁rider	-10.7771
▁hon	-10.7778
woo	-10.7788
▁kell	-10.7789
▁minorit	-10.7798
cious	-10.7798
▁clothe	-10.78
▁upset	-10.7805
▁ron	-10.7807
mble	-10.7808
identified	-10.7812
▁hunter	-10.7818
▁div	-10.7821
ill	-10.7821
sfeld	-10.7825
▁discover	-10.7843
test	-10.7848
▁motors	-10.7854
▁documentar	-10.7866
▁starr	-10.7866
sun	-10.7868
ition	-10.7871
▁amounts	-10.7873
-3	-10.7876
ique	-10.7893
▁proceed	-10.7896
▁guide	-10.7897
▁aftershock	-10.79
▁consecutive	-10.79
▁denucleariz	-10.79
▁minimum	-10.79
▁swift	-10.79
▁competitive	-10.79
▁clinch	-10.79
▁mandat	-10.79
▁horse	-10.79
▁stuff	-10.7902
▁clock	-10.7902
▁disappearance	-10.7903
▁momentum	-10.7906
▁keb	-10.7906
▁albert	-10.7907
▁ioc	-10.7916
▁yuan	-10.7918
▁serb	-10.7918
cer	-10.793
▁81	-10.7931
▁simon	-10.7932
▁rudd	-10.7933
cat	-10.7945
llo	-10.795
ega	-10.7951
▁shots	-10.7954
cio	-10.7965
▁polan	-10.7965
▁stream	-10.7969
teen	-10.7971
▁achiev	-10.7971
▁mouth	-10.7983
▁bow	-10.7984
mission	-10.7987
iness	-10.7988
▁mile	-10.7994
mal	-10.8003
▁defending	-10.8007
▁runner	-10.8009
▁dry	-10.8013
try	-10.8021
▁designer	-10.8029
ose	-10.8032
rc	-10.8036
▁8-	-10.8045
▁sons	-10.8047
▁fever	-10.8053
▁yel	-10.8056
▁impo	-10.8059
abee	-10.806
▁revive	-10.8065
far	-10.8078
▁tu	-10.8081
par	-10.8085
ington	-10.8086
▁investigations	-10.8088
▁slam	-10.8092
▁industri	-10.8094
▁rowl	-10.8101
▁infant	-10.8103
▁concession	-10.8104
▁elephant	-10.8104
▁hindu	-10.8104
▁technologies	-10.8104
▁cigarette	-10.8104
▁offense	-10.8104
▁terminal	-10.8104
▁inquest	-10.8104
▁encounter	-10.8104
▁detainees	-10.8104
▁hint	-10.8104
▁constant	-10.8104
▁obligation	-10.8104
▁landmark	-10.8105
▁opec	-10.8106
▁duck	-10.8107
▁1989	-10.8109
▁frontier	-10.8109
▁abduction	-10.8114
▁reward	-10.8114
▁ambition	-10.8118
▁shah	-10.8125
▁180	-10.8131
▁leftist	-10.8131
prom	-10.8134
▁gaz	-10.8136
lie	-10.8149
▁legally	-10.815
▁kansa	-10.815
▁2-	-10.8154
▁granted	-10.8155
▁icon	-10.8163
▁gray	-10.8163
13	-10.8166
▁shak	-10.8167
tten	-10.8169
▁lion	-10.817
▁clip	-10.8177
cla	-10.8179
▁winners	-10.8192
▁191	-10.8194
▁experienc	-10.8208
era	-10.8212
▁tay	-10.8219
ire	-10.8222
strong	-10.8225
border	-10.8225
▁sin	-10.823
most	-10.8233
tun	-10.8244
▁reduc	-10.8249
▁indicted	-10.8259
▁contribute	-10.8261
▁gm	-10.8265
drew	-10.8274
▁oversee	-10.83
▁regret	-10.8301
ologist	-10.8304
away	-10.8304
▁chapter	-10.8312
▁deteriorat	-10.8312
▁enterprise	-10.8312
▁spiritual	-10.8312
▁suspicious	-10.8312
▁precaution	-10.8312
▁confus	-10.8312
▁relax	-10.8312
▁blanket	-10.8312
▁admission	-10.8313
▁colonial	-10.8313
▁barbara	-10.8315
▁exposed	-10.8316
erial	-10.8316
▁houston	-10.8316
▁emphasiz	-10.832
▁arabic	-10.8321
▁turm	-10.8324
▁killer	-10.8333
▁99	-10.8336
▁86	-10.8336
6-3	-10.834
▁pole	-10.8341
▁para	-10.8341
▁wales	-10.8344
fk	-10.8345
▁stead	-10.8345
▁hud	-10.8346
suk	-10.8346
▁thin	-10.8353
my	-10.8363
▁eric	-10.8366
▁140	-10.8366
ntao	-10.8371
torn	-10.8387
ring	-10.8405
▁victor	-10.8419
bon	-10.8423
mouth	-10.8437
pound	-10.8438
▁habitat	-10.844
▁coal	-10.8443
lisa	-10.8464
▁sao	-10.8467
▁emi	-10.8468
▁turns	-10.8477
rell	-10.8482
log	-10.8483
▁vessels	-10.8487
▁occasion	-10.8501
sex	-10.8504
▁flags	-10.851
▁micro	-10.8521
▁confess	-10.8521
▁inmate	-10.8522
▁bloom	-10.8525
▁expansion	-10.8525
▁lahore	-10.8525
▁migrant	-10.8525
▁oklahoma	-10.8525
▁scholar	-10.8525
▁tornado	-10.8525
judicial	-10.8525
▁belief	-10.8525
▁utah	-10.8525
▁postpone	-10.8525
▁ballistic	-10.8525
▁pipeline	-10.8525
▁berna	-10.8525
▁mortar	-10.8525
▁insult	-10.8525
▁spray	-10.8525
dari	-10.8526
▁drill	-10.8527
▁priest	-10.8527
▁prominent	-10.8527
▁respondent	-10.8528
▁thick	-10.853
▁wright	-10.853
▁musician	-10.8532
▁ppp	-10.8533
▁meat	-10.8542
▁core	-10.8545
▁pour	-10.8545
▁yoon	-10.8551
arctic	-10.8552
mond	-10.8552
▁universal	-10.8553
▁kh	-10.8566
▁malaysian	-10.8566
▁presumpti	-10.8567
viation	-10.8571
ailing	-10.8575
hui	-10.8586
▁beer	-10.8586
▁hunting	-10.8598
take	-10.8598
▁instance	-10.8612
▁influ	-10.8616
▁lim	-10.8617
how	-10.8618
▁decisions	-10.8626
▁bang	-10.8627
▁principle	-10.863
▁sat	-10.8637
latter	-10.8641
ita	-10.8651
play	-10.8651
produc	-10.8653
▁engage	-10.8656
▁kath	-10.8662
▁tickets	-10.8666
▁divide	-10.8674
▁rob	-10.8676
▁introduce	-10.8676
▁peer	-10.8694
▁cards	-10.8697
▁chat	-10.8708
itz	-10.871
▁employment	-10.8713
▁cheap	-10.8729
lon	-10.874
▁confront	-10.874
▁ecuador	-10.8742
▁retaliat	-10.8742
▁tragedy	-10.8742
▁transplant	-10.8742
▁vienna	-10.8742
▁vitamin	-10.8742
▁centuries	-10.8742
▁telecom	-10.8742
▁massacre	-10.8743
▁libert	-10.8743
▁imagine	-10.8743
▁ibrahim	-10.8744
▁medication	-10.8745
▁proceedings	-10.8747
ues	-10.8747
▁monet	-10.8748
▁buck	-10.8749
▁urgent	-10.8751
▁laboratory	-10.8752
▁tighten	-10.8752
▁pill	-10.8753
▁knight	-10.8753
▁mix	-10.8753
▁background	-10.8756
▁fake	-10.8757
▁pointed	-10.8762
▁woods	-10.8765
▁mbc	-10.8771
▁rad	-10.8771
▁desire	-10.8773
▁decid	-10.8773
▁shara	-10.8775
refore	-10.8777
tsin	-10.8784
▁geologic	-10.8785
▁dealers	-10.8789
▁ker	-10.8789
▁hasn	-10.879
▁ir	-10.8791
tified	-10.8794
▁victoria	-10.8802
▁publication	-10.8802
kovic	-10.8806
▁follower	-10.8811
ego	-10.8833
▁masters	-10.8842
▁deliberate	-10.8844
▁vers	-10.8868
▁clo	-10.8877
▁challeng	-10.8878
▁responsibilit	-10.8881
▁wrap	-10.8889
uck	-10.8893
tting	-10.8897
lm	-10.8897
awi	-10.8898
▁qua	-10.8908
math	-10.8909
ood	-10.891
hdi	-10.8913
▁resum	-10.8917
▁grab	-10.8949
▁denie	-10.8951
▁yemen	-10.8953
▁cur	-10.8958
▁ruler	-10.8958
rg	-10.8961
▁nu	-10.8963
▁bodyguard	-10.8964
▁cocaine	-10.8964
▁consensu	-10.8964
▁craig	-10.8964
▁deficit	-10.8964
▁definite	-10.8964
▁disorder	-10.8964
▁telescope	-10.8964
▁tribute	-10.8964
▁wisconsin	-10.8964
▁evolution	-10.8964
▁unfair	-10.8964
▁chamber	-10.8964
▁extensive	-10.8964
▁evil	-10.8964
▁rodriguez	-10.8965
▁empty	-10.8965
▁instant	-10.8965
▁guideline	-10.8965
▁oct	-10.8967
▁stepping	-10.8967
▁sweden	-10.8968
▁idol	-10.8968
▁blog	-10.897
▁uncover	-10.897
▁amazon	-10.8971
▁40-	-10.8972
yu	-10.8973
▁replacement	-10.8975
ada	-10.898
▁personally	-10.8981
▁vision	-10.8988
▁marc	-10.8989
▁loud	-10.899
▁happening	-10.8991
mart	-10.8993
att	-10.8994
▁canal	-10.8994
ampa	-10.9008
gt	-10.9009
onna	-10.9016
▁ahmad	-10.9018
▁yo	-10.9021
ullah	-10.9026
kee	-10.906
▁generate	-10.9066
suf	-10.9073
▁lender	-10.908
40	-10.9083
▁philip	-10.9084
▁philippine	-10.9089
▁bal	-10.909
dom	-10.9091
bound	-10.9096
▁30-	-10.9101
▁brit	-10.9102
century	-10.9104
winning	-10.9104
▁master	-10.9111
▁350	-10.9123
▁cooperate	-10.913
380	-10.9134
▁examin	-10.9138
ket	-10.9141
ison	-10.9142
▁sim	-10.9146
stone	-10.9151
hye	-10.9159
▁kun	-10.9161
▁sau	-10.9176
▁diploma	-10.918
▁interpret	-10.9189
▁accompani	-10.9192
▁economies	-10.9192
▁genocid	-10.9192
▁predecessor	-10.9192
▁religion	-10.9192
▁tabloid	-10.9192
▁beirut	-10.9192
▁congratulat	-10.9192
▁uganda	-10.9192
▁twist	-10.9192
▁depict	-10.9192
▁extension	-10.9192
▁consistent	-10.9192
▁destination	-10.9192
▁entrance	-10.9192
▁snake	-10.9192
▁tactic	-10.9193
▁nicole	-10.9193
▁exclusive	-10.9193
▁extradit	-10.9194
▁kanda	-10.9195
▁mountains	-10.9195
▁unexpected	-10.9195
▁recommendation	-10.9198
▁outlook	-10.92
▁overturn	-10.9202
▁dragg	-10.9203
▁legitimate	-10.9203
▁hunger	-10.9205
▁bb	-10.9206
▁creation	-10.9208
▁afr	-10.9208
▁84	-10.9218
▁visibl	-10.9221
▁persuade	-10.9221
▁tho	-10.9227
▁diya	-10.9229
▁milk	-10.9229
▁refuse	-10.923
▁purchas	-10.924
▁suggestion	-10.9243
lp	-10.9256
ken	-10.9267
▁characters	-10.9268
▁factors	-10.9268
▁tomb	-10.927
indi	-10.9272
ehouse	-10.9275
verish	-10.9275
mak	-10.9281
▁models	-10.9283
▁pad	-10.9284
▁plent	-10.9291
▁remark	-10.9333
▁marking	-10.9334
▁rodd	-10.9355
ise	-10.9357
▁dun	-10.9357
▁wash	-10.9362
olo	-10.9365
▁bor	-10.9365
▁chase	-10.9369
▁tir	-10.9385
15	-10.9391
▁arrang	-10.9396
▁tale	-10.9397
▁consum	-10.9403
▁nigeria	-10.9404
▁occur	-10.9405
▁circle	-10.941
▁bars	-10.9412
▁teenage	-10.9416
▁jin	-10.9417
chan	-10.9417
▁universit	-10.942
▁14-	-10.9423
▁embarrass	-10.9424
▁ambulance	-10.9424
▁bargain	-10.9424
▁dissident	-10.9424
▁kentucky	-10.9424
▁steep	-10.9424
▁goalkeep	-10.9424
▁emirate	-10.9424
▁dedicat	-10.9425
▁pepper	-10.9425
▁suspension	-10.9425
▁jolie	-10.9425
▁partnership	-10.9426
▁lord	-10.9426
▁resistance	-10.9427
▁insurgency	-10.9427
▁seung	-10.9427
▁possession	-10.9428
zawah	-10.9428
▁statue	-10.9428
▁pardon	-10.9429
▁discount	-10.9429
▁download	-10.943
▁grace	-10.9431
▁contribution	-10.9432
▁rebound	-10.9432
▁conclude	-10.9435
▁forget	-10.9436
▁improvement	-10.9436
▁galaxy	-10.9439
ica	-10.9439
▁jobless	-10.9439
▁brook	-10.9443
▁rag	-10.9452
▁dawn	-10.9456
yong	-10.9464
▁hike	-10.9466
▁publisher	-10.9468
▁spur	-10.9469
sky	-10.9479
▁broker	-10.9483
oc	-10.9496
▁rains	-10.9499
▁pig	-10.9505
▁pr	-10.9516
▁sheet	-10.9521
▁advis	-10.9522
▁eas	-10.9531
▁pm	-10.9531
lf	-10.9537
▁phil	-10.9539
vy	-10.9543
▁financ	-10.9543
▁ranch	-10.9545
tada	-10.9553
▁wy	-10.9554
harto	-10.9559
▁craft	-10.956
▁recognized	-10.9561
▁automaker	-10.9569
▁recording	-10.957
▁sadr	-10.9573
▁hidd	-10.9574
▁penn	-10.9579
▁matters	-10.9585
▁theft	-10.9593
▁taxi	-10.9596
awat	-10.9597
▁nov	-10.96
▁gerr	-10.9603
6-2	-10.9613
▁temporar	-10.9614
ua	-10.9614
▁celebrit	-10.9621
▁pri	-10.9623
▁rev	-10.9625
▁silence	-10.9642
▁manufacturers	-10.9643
care	-10.9647
▁yoo	-10.9653
yard	-10.9658
▁pilgrim	-10.966
▁desperate	-10.9662
▁grenade	-10.9662
▁harvard	-10.9662
▁infrastructure	-10.9662
▁judiciar	-10.9662
▁statistical	-10.9662
▁tissue	-10.9662
▁unacceptabl	-10.9662
▁maritime	-10.9662
▁skull	-10.9662
▁videotape	-10.9662
▁slaughter	-10.9662
▁brigade	-10.9663
▁rubble	-10.9663
▁brick	-10.9663
▁registration	-10.9663
▁burden	-10.9663
▁dismantl	-10.9664
▁puert	-10.9664
▁shutdown	-10.9664
▁interrogation	-10.9664
▁circulat	-10.9665
▁assassinat	-10.9666
▁analysi	-10.9667
munition	-10.9667
▁everywhere	-10.9669
▁fu	-10.967
▁torre	-10.967
▁occupie	-10.9672
▁airplane	-10.9677
▁tumbl	-10.9681
tta	-10.9682
▁rent	-10.9684
▁charter	-10.9685
▁193	-10.9686
▁confirmation	-10.9699
itis	-10.9702
▁shirt	-10.9721
▁rap	-10.9725
▁flower	-10.9728
skirt	-10.9731
▁biolog	-10.9733
80	-10.9736
qui	-10.9737
▁contractor	-10.974
▁load	-10.9742
▁zoe	-10.9747
▁luc	-10.9755
▁classe	-10.9755
▁badly	-10.9755
▁sung	-10.9757
▁cre	-10.9775
▁abuses	-10.9776
▁riding	-10.9777
▁wo	-10.9786
▁principles	-10.979
▁joy	-10.9801
▁ye	-10.9803
▁tea	-10.9811
▁nazi	-10.9812
▁customs	-10.9818
piece	-10.9818
▁procedure	-10.9819
▁fisher	-10.9826
▁kidnapp	-10.9833
▁fred	-10.9836
speed	-10.9837
bank	-10.984
hook	-10.985
▁125	-10.985
wear	-10.9861
▁wip	-10.9864
nver	-10.9865
aki	-10.987
▁sink	-10.9872
▁vulnerab	-10.9888
ink	-10.989
▁defect	-10.989
▁scrap	-10.9893
▁cab	-10.9901
all	-10.9901
▁medic	-10.9903
▁amaz	-10.9903
▁ken	-10.9903
▁fundamental	-10.9904
▁pyeong	-10.9906
▁asylum	-10.9906
▁chicken	-10.9906
▁component	-10.9906
▁legislature	-10.9906
▁marathon	-10.9906
▁taxpayer	-10.9906
▁absence	-10.9906
▁incredibl	-10.9906
▁volume	-10.9906
▁regain	-10.9906
▁pornograph	-10.9906
▁defi	-10.9906
▁monarch	-10.9906
▁prosper	-10.9906
▁yasu	-10.9906
▁katrin	-10.9906
▁autonom	-10.9907
▁archaeologist	-10.9907
▁polar	-10.9907
▁endorsement	-10.9909
▁dirt	-10.991
▁remarkable	-10.991
▁principal	-10.991
▁commuter	-10.9911
▁adjust	-10.9921
▁reverse	-10.9922
▁plain	-10.9923
▁cape	-10.9927
rie	-10.9937
▁afterward	-10.9941
fo	-10.9941
▁repeat	-10.9943
▁melt	-10.9953
▁enhance	-10.9954
▁longest	-10.9954
▁wrapped	-10.9967
▁endur	-10.997
▁yong	-10.9971
▁height	-10.9971
▁ze	-10.9973
▁bark	-10.998
▁comfortabl	-10.9983
▁procedures	-10.9994
▁disclose	-10.9998
▁habit	-11.0005
aved	-11.0007
▁shake	-11.0009
van	-11.001
▁dropping	-11.0013
▁nurse	-11.0015
▁rivers	-11.0022
▁18-	-11.0026
rry	-11.0039
▁holder	-11.0041
eb	-11.0046
▁mere	-11.0063
kara	-11.0064
▁hack	-11.0068
▁covering	-11.0068
qaeda	-11.0069
world	-11.0069
▁orchestra	-11.0069
direct	-11.0069
south	-11.0072
hor	-11.0074
▁glas	-11.0077
▁expire	-11.0078
▁praise	-11.0079
▁ads	-11.009
▁magic	-11.0103
▁jay	-11.0107
vin	-11.0113
fish	-11.0115
▁sack	-11.0123
▁chancell	-11.0128
▁mask	-11.0142
liberation	-11.0151
chu	-11.0152
sburg	-11.0154
going	-11.0155
▁depart	-11.0155
▁curfew	-11.0156
▁dioxide	-11.0156
▁gradual	-11.0156
▁mirror	-11.0156
▁spaniard	-11.0156
▁statistics	-11.0156
▁landscape	-11.0156
▁restructur	-11.0156
▁reopen	-11.0156
▁superior	-11.0156
▁wilson	-11.0156
▁fault	-11.0156
▁lewis	-11.0156
▁distress	-11.0156
▁billionaire	-11.0156
▁graham	-11.0157
▁balloon	-11.0157
▁toyota	-11.0158
▁drown	-11.0158
▁myspace	-11.0158
▁pronounce	-11.0159
▁honest	-11.0159
▁ahmed	-11.0159
▁walter	-11.0159
▁combination	-11.0161
▁mice	-11.0161
▁poison	-11.0162
▁unique	-11.0166
▁skeptic	-11.0168
▁passage	-11.0169
▁ruin	-11.0171
▁fda	-11.0172
▁nair	-11.0175
ries	-11.0176
▁launder	-11.0183
▁jewel	-11.0185
▁libyan	-11.0186
anamo	-11.0188
▁astronomer	-11.019
▁partial	-11.0191
▁parade	-11.0193
▁arch	-11.02
▁clay	-11.0206
ula	-11.0207
▁rem	-11.0208
▁cheong	-11.0212
▁gambl	-11.0215
▁shim	-11.0216
▁trac	-11.0217
ware	-11.0218
ert	-11.0224
inch	-11.0231
▁mud	-11.0235
▁tam	-11.0238
▁integrat	-11.0242
▁hip	-11.0245
▁uni	-11.025
ook	-11.0258
▁val	-11.0272
▁supervis	-11.0275
▁emerg	-11.0277
▁pur	-11.0281
▁mega	-11.0281
▁manage	-11.0284
▁plea	-11.0288
▁tent	-11.0293
ida	-11.0298
▁91	-11.0298
▁lunch	-11.0302
arachi	-11.0304
▁ala	-11.0321
stream	-11.0324
fall	-11.0326
▁univers	-11.0327
▁83	-11.0332
oma	-11.0336
▁roma	-11.0337
went	-11.0337
ssett	-11.0339
▁opponent	-11.0341
▁q	-11.0347
seat	-11.0353
▁vo	-11.0356
▁om	-11.0364
holm	-11.0374
▁plays	-11.0385
▁yan	-11.0386
ott	-11.039
▁branch	-11.0398
▁audit	-11.0402
mus	-11.0406
▁politically	-11.0411
lit	-11.0411
▁descend	-11.0413
▁exhaust	-11.0413
▁bacteria	-11.0413
▁enormous	-11.0413
▁expell	-11.0413
▁indefinite	-11.0413
▁pittsburgh	-11.0413
▁volatil	-11.0413
▁buzz	-11.0413
▁midfielder	-11.0413
▁gesture	-11.0413
▁guild	-11.0413
▁patriot	-11.0413
▁vermont	-11.0413
▁gunshot	-11.0413
▁ramos	-11.0413
▁geneva	-11.0414
▁loose	-11.0414
▁steal	-11.0414
▁biologist	-11.0415
vili	-11.0415
▁harris	-11.0416
▁filmmaker	-11.0417
▁1986	-11.0418
grade	-11.0418
▁prolong	-11.0419
▁ash	-11.0419
▁clue	-11.0421
oi	-11.0421
▁distribution	-11.0421
mpson	-11.0421
▁iphone	-11.0422
▁brian	-11.0425
waz	-11.0426
▁cla	-11.0427
▁coverage	-11.0431
▁button	-11.0432
▁closure	-11.0435
▁headline	-11.0436
som	-11.0437
▁jud	-11.0437
▁burial	-11.0438
▁please	-11.044
band	-11.0441
▁ripp	-11.0443
▁toppl	-11.045
kat	-11.0451
▁reliev	-11.0457
▁25-	-11.0457
▁mrs	-11.0462
▁reviv	-11.0464
▁mul	-11.0465
lar	-11.0468
▁6-1	-11.0474
▁refusal	-11.0474
▁temp	-11.0476
▁hiding	-11.0483
▁battery	-11.0486
inho	-11.0506
▁tanker	-11.0509
-19	-11.0509
hem	-11.0511
▁slash	-11.0521
▁burg	-11.0523
▁theory	-11.0535
geun	-11.0548
▁hijack	-11.0556
shar	-11.0558
ado	-11.0558
▁mob	-11.0562
▁fatalit	-11.0562
▁pot	-11.0564
▁christians	-11.0568
orry	-11.0576
ram	-11.0578
▁skills	-11.0588
▁thus	-11.0592
▁au	-11.0593
class	-11.0594
shape	-11.0607
och	-11.0611
▁affair	-11.0612
▁activist	-11.0614
▁wav	-11.063
cho	-11.0635
mao	-11.0636
▁xi	-11.0641
▁pile	-11.0644
mark	-11.0646
▁hi	-11.0648
high	-11.0649
▁tip	-11.0655
▁refuge	-11.0657
▁12-	-11.0661
▁concentrat	-11.067
▁belgi	-11.0672
▁dismantle	-11.0674
▁surprising	-11.0676
▁unanimous	-11.0676
▁campbell	-11.0676
▁counterfeit	-11.0676
▁encouraging	-11.0676
▁oxygen	-11.0676
▁prophet	-11.0676
▁sacrifice	-11.0676
▁scrambl	-11.0676
▁thirty	-11.0676
▁escort	-11.0676
▁mutual	-11.0676
▁widow	-11.0676
▁audio	-11.0676
▁dolphin	-11.0676
remlin	-11.0676
▁bahama	-11.0676
▁dallas	-11.0676
▁oregon	-11.0676
▁teeth	-11.0676
▁composite	-11.0676
▁analyz	-11.0676
▁presum	-11.0676
▁venture	-11.0676
▁comply	-11.0676
▁exceed	-11.0676
▁optimistic	-11.0676
▁panama	-11.0676
▁romantic	-11.0677
▁equity	-11.0679
▁subway	-11.0679
▁engagement	-11.068
elite	-11.0682
▁kha	-11.0683
▁gender	-11.0684
▁rever	-11.0685
yama	-11.0686
▁determin	-11.0688
▁chill	-11.069
henin	-11.069
▁finger	-11.069
▁alien	-11.0695
▁shutt	-11.0704
▁deepen	-11.0706
▁din	-11.071
▁sevill	-11.0715
fax	-11.0717
▁demonstrate	-11.0718
▁publicist	-11.0719
▁efficient	-11.072
▁deserve	-11.0721
lla	-11.0735
▁mood	-11.0748
▁mistakes	-11.0749
▁50-	-11.0751
▁eliminat	-11.0757
allah	-11.0759
aver	-11.076
▁kaes	-11.0761
▁hal	-11.077
▁gus	-11.0774
▁eggs	-11.078
▁launching	-11.0786
▁mus	-11.0791
▁ideal	-11.0794
acas	-11.0809
uma	-11.081
▁rein	-11.0813
▁usa	-11.0815
▁programm	-11.0818
▁accidental	-11.082
▁dig	-11.0822
▁harder	-11.0832
▁smart	-11.0834
▁jets	-11.0843
illa	-11.0848
quarter	-11.0855
▁93	-11.0856
pacific	-11.0858
word	-11.0861
▁hung	-11.0864
▁trace	-11.0865
mun	-11.0866
ski	-11.087
ball	-11.087
▁burm	-11.0879
▁stalin	-11.0881
▁widen	-11.0888
cca	-11.0889
▁argument	-11.0896
ky	-11.09
▁slip	-11.0905
art	-11.0905
▁agricultur	-11.0908
fu	-11.0912
▁110	-11.0917
wine	-11.092
station	-11.0921
▁permit	-11.0925
lock	-11.0926
▁alan	-11.0927
lli	-11.0928
oul	-11.0938
▁hanging	-11.0938
▁manipulat	-11.094
▁selection	-11.0941
▁tai	-11.0941
▁cautious	-11.0946
▁benjamin	-11.0946
▁citigroup	-11.0946
▁lieutenant	-11.0946
▁retreat	-11.0946
▁shrink	-11.0946
▁coincide	-11.0946
▁intervention	-11.0946
▁talent	-11.0946
▁harbor	-11.0947
▁admir	-11.0947
▁excessive	-11.0947
▁reconstruction	-11.0947
▁probation	-11.0947
▁radar	-11.0948
▁installation	-11.0949
▁deadlock	-11.0949
▁manipulation	-11.0952
▁luis	-11.0952
▁acid	-11.0953
specifi	-11.0953
▁captor	-11.0961
ebay	-11.0966
▁castle	-11.0967
▁log	-11.0971
▁96	-11.0971
▁ferg	-11.0971
▁89	-11.0984
▁serbian	-11.099
▁mut	-11.0991
rmed	-11.0992
residential	-11.1
▁ward	-11.1004
▁armor	-11.1006
▁brac	-11.102
▁defin	-11.1058
▁truc	-11.1058
▁sept	-11.106
mura	-11.1061
una	-11.1062
▁elaborate	-11.1065
lg	-11.1068
▁zan	-11.1085
▁shame	-11.1086
▁13-	-11.1089
▁origin	-11.1089
▁cooper	-11.1107
tsu	-11.1108
▁fare	-11.1113
▁bat	-11.1118
▁vin	-11.1121
ugher	-11.1126
▁cu	-11.1129
▁rub	-11.1129
▁bears	-11.1129
▁measur	-11.1131
▁contenders	-11.1134
▁19-	-11.1135
load	-11.1136
▁swing	-11.1138
▁tap	-11.1139
egger	-11.1147
story	-11.1153
▁reserved	-11.1159
▁hostil	-11.1161
▁noon	-11.1162
ature	-11.1165
▁opera	-11.1165
▁colli	-11.1191
▁00	-11.1193
▁forecaster	-11.1194
▁minds	-11.1196
▁cambodia	-11.1202
utt	-11.1207
▁dai	-11.1211
▁deals	-11.1216
▁portray	-11.1216
▁beautiful	-11.1224
▁bolster	-11.1224
▁comprehensive	-11.1224
▁consolidat	-11.1224
▁crocodile	-11.1224
▁dakota	-11.1224
▁dinosaur	-11.1224
▁exclud	-11.1224
▁expense	-11.1224
▁incumbent	-11.1224
▁rhetoric	-11.1224
▁schwarz	-11.1224
▁sympath	-11.1224
▁triumph	-11.1224
▁unpopular	-11.1224
▁recycl	-11.1224
▁reputation	-11.1224
▁opposite	-11.1224
▁abolish	-11.1224
▁nichol	-11.1224
▁blind	-11.1224
▁fertil	-11.1224
▁eligib	-11.1224
▁subprime	-11.1224
▁haiti	-11.1224
▁ibm	-11.1224
▁prestig	-11.1224
▁cyber	-11.1224
itive	-11.1224
▁aspect	-11.1225
▁classroom	-11.1225
▁kidney	-11.1225
▁stewar	-11.1225
▁guess	-11.1226
▁linds	-11.1227
▁elevator	-11.1227
▁kyung	-11.1229
▁objective	-11.1229
▁flaw	-11.1232
▁minne	-11.1232
▁formula	-11.1233
▁disruption	-11.1234
▁fence	-11.1235
▁silver	-11.1237
▁provok	-11.1238
▁attraction	-11.124
▁prostitute	-11.1242
▁cats	-11.1242
▁taste	-11.1243
▁sum	-11.1243
▁defector	-11.1243
ria	-11.1243
▁miller	-11.1247
▁grabb	-11.1247
propell	-11.1249
▁rid	-11.1251
▁yourself	-11.1252
▁populat	-11.1259
▁manner	-11.1259
▁juan	-11.1261
▁leap	-11.1262
tel	-11.1286
▁rash	-11.1286
▁smile	-11.1289
▁academic	-11.1294
▁indict	-11.1295
▁petro	-11.1302
lick	-11.1305
▁diseases	-11.1307
▁lover	-11.1326
▁nose	-11.1326
ilia	-11.1328
hwa	-11.1328
▁sprint	-11.1339
▁dispos	-11.1339
▁raped	-11.1352
▁slim	-11.1353
aro	-11.1375
▁stopp	-11.1378
▁nur	-11.1378
▁cult	-11.1378
mu	-11.1384
arade	-11.1387
mat	-11.1389
▁smil	-11.139
▁danc	-11.1405
▁amy	-11.1405
turn	-11.1406
▁racial	-11.1406
some	-11.1415
▁jenni	-11.1417
language	-11.1422
front	-11.1422
▁argentine	-11.1425
athrow	-11.1438
▁murr	-11.1438
bn	-11.1441
▁admit	-11.1451
▁bold	-11.1452
ello	-11.1461
▁volunteer	-11.1468
ola	-11.1479
▁disabl	-11.1481
ngue	-11.1482
▁frustrat	-11.1503
▁approximate	-11.151
▁asteroid	-11.151
▁episode	-11.151
▁greenpeace	-11.151
▁mammal	-11.151
▁mogadishu	-11.151
▁motorcycle	-11.151
▁mercury	-11.151
▁motive	-11.151
▁sworn	-11.151
▁crocker	-11.151
▁eager	-11.151
▁ultra	-11.151
▁slogan	-11.151
▁toronto	-11.151
▁borrow	-11.151
▁strategist	-11.151
▁surf	-11.151
▁serge	-11.1511
▁loot	-11.1511
▁nikk	-11.1511
▁therap	-11.1512
▁rampage	-11.1512
▁ratings	-11.1513
▁madoff	-11.1514
▁teaching	-11.1514
▁extinction	-11.1515
▁bruni	-11.1515
▁ivor	-11.1515
▁1988	-11.1517
▁revision	-11.1523
nba	-11.1523
▁requirement	-11.1526
▁observation	-11.1528
▁bre	-11.153
president	-11.1534
▁publish	-11.1536
oun	-11.1542
▁hell	-11.1549
▁pas	-11.1549
▁rocky	-11.1559
▁92	-11.1567
▁wool	-11.1571
▁embrace	-11.1585
▁tries	-11.1591
ella	-11.1596
▁hom	-11.1599
▁challenger	-11.1601
▁posting	-11.1602
▁nh	-11.1607
2-1	-11.1608
▁gil	-11.1612
educat	-11.1623
ular	-11.1626
18	-11.1628
▁arti	-11.1632
▁preserv	-11.1638
▁profile	-11.1649
▁fal	-11.1649
▁dish	-11.1659
▁defender	-11.1665
bol	-11.1669
▁05	-11.1673
▁sala	-11.1679
▁cel	-11.1685
rov	-11.1708
color	-11.1726
borne	-11.1734
bit	-11.1737
ium	-11.1744
hol	-11.1754
▁anne	-11.176
▁application	-11.1769
▁khali	-11.177
hry	-11.1773
▁plott	-11.1774
chon	-11.1775
▁subsid	-11.1781
▁decrease	-11.1782
▁pus	-11.1782
▁antarctic	-11.1791
▁atlanti	-11.1799
▁optimis	-11.1804
bourne	-11.1804
▁administrator	-11.1804
▁cathedral	-11.1804
▁discriminat	-11.1804
▁equivalent	-11.1804
▁instrument	-11.1804
▁intimidat	-11.1804
▁murphy	-11.1804
▁phenomen	-11.1804
▁revenge	-11.1804
▁spectacular	-11.1804
▁twelve	-11.1804
▁visual	-11.1804
▁denmark	-11.1804
▁cardinal	-11.1804
▁wrongdoing	-11.1804
▁outdoor	-11.1804
▁incentive	-11.1804
▁casino	-11.1804
▁epicenter	-11.1804
▁bruce	-11.1804
▁crunch	-11.1804
▁fruit	-11.1804
▁devot	-11.1804
▁pension	-11.1804
▁automatic	-11.1804
▁animated	-11.1804
oprah	-11.1805
▁bernard	-11.1805
droe	-11.1806
▁foster	-11.1806
▁arrangement	-11.1806
▁zap	-11.1806
▁tripoli	-11.1806
▁claus	-11.1807
▁taiwanese	-11.1808
▁detective	-11.1808
horta	-11.1809
▁survival	-11.1811
▁albanian	-11.1811
▁rawal	-11.1812
▁divert	-11.1814
mann	-11.1817
▁ethiopian	-11.1817
▁examination	-11.1817
▁anybody	-11.1817
▁pride	-11.182
▁objection	-11.1824
▁connecti	-11.1825
▁proliferat	-11.1827
ribe	-11.1829
wai	-11.1832
▁useful	-11.1834
▁carefully	-11.1843
▁realiz	-11.1845
rotti	-11.1846
▁allen	-11.1846
▁marry	-11.1846
▁pure	-11.1852
▁cub	-11.1855
▁posts	-11.1858
▁rigg	-11.1863
▁alter	-11.1866
▁signing	-11.1874
▁shouted	-11.1886
▁vol	-11.1887
▁install	-11.1889
▁deposit	-11.1918
▁slide	-11.1929
jin	-11.1932
▁coin	-11.1953
▁laser	-11.1954
▁panic	-11.1966
position	-11.1983
▁generat	-11.1989
▁mp	-11.2
▁update	-11.2
ological	-11.2002
▁violate	-11.201
▁kn	-11.201
▁cole	-11.2011
abo	-11.2011
aving	-11.2012
▁armi	-11.2015
islam	-11.2019
speak	-11.2019
▁prop	-11.2031
walk	-11.2035
▁1950	-11.2037
▁chau	-11.2038
national	-11.2047
▁motivat	-11.2048
▁springs	-11.2063
▁personalit	-11.2064
ette	-11.2067
▁parker	-11.207
▁swed	-11.2071
▁freez	-11.2072
▁odds	-11.2079
▁tae	-11.2081
▁ambitio	-11.2086
▁alli	-11.2086
lash	-11.2086
▁wu	-11.2098
▁slum	-11.2099
▁intercept	-11.2101
▁disagree	-11.2103
▁intent	-11.2103
▁adapt	-11.2104
lov	-11.2105
round	-11.2105
▁acquitt	-11.2107
▁contaminat	-11.2107
▁accompany	-11.2107
▁anonymous	-11.2107
▁breakfast	-11.2107
▁brussels	-11.2107
▁candidacy	-11.2107
▁guitar	-11.2107
▁imminent	-11.2107
▁incursion	-11.2107
▁istanbul	-11.2107
▁pyramid	-11.2107
▁scenario	-11.2107
▁sprawl	-11.2107
▁subsequent	-11.2107
▁suppress	-11.2107
▁boast	-11.2107
▁overhaul	-11.2107
▁toddler	-11.2107
▁confine	-11.2107
▁saint	-11.2107
▁strait	-11.2107
▁ninth	-11.2107
▁empir	-11.2107
▁anthem	-11.2107
▁bride	-11.2108
▁exam	-11.2108
▁assess	-11.2108
▁random	-11.2108
▁hamper	-11.2108
▁till	-11.2108
▁estonia	-11.2108
▁belt	-11.2109
▁donations	-11.211
▁pregnancy	-11.211
▁assertion	-11.2112
▁smooth	-11.2113
▁legislator	-11.2114
▁fastest	-11.2114
▁interrupt	-11.2119
▁nick	-11.2121
▁eruption	-11.2123
▁settl	-11.2125
▁branches	-11.2126
chen	-11.2127
▁fur	-11.2129
▁assured	-11.213
▁hometown	-11.2131
▁remind	-11.2133
▁jean	-11.214
▁applications	-11.2143
cover	-11.2147
▁lucky	-11.215
rous	-11.2152
▁shooter	-11.2155
▁observ	-11.2155
▁spect	-11.2156
▁boxes	-11.2157
▁brave	-11.2169
▁tears	-11.2171
▁hate	-11.2176
▁bran	-11.2176
ider	-11.2187
▁lesson	-11.2198
digit	-11.2199
▁happens	-11.2202
▁hun	-11.2203
▁joke	-11.2204
print	-11.2209
▁humiliat	-11.2219
▁agreements	-11.222
▁expanding	-11.2221
rise	-11.2227
▁automakers	-11.2228
▁prostitut	-11.223
▁ak	-11.2232
asha	-11.2236
tuck	-11.225
▁lure	-11.2275
▁preserve	-11.2281
▁cent	-11.2284
▁characteriz	-11.2289
▁provider	-11.2292
▁mini	-11.2297
▁ramp	-11.2298
▁98	-11.2301
lynn	-11.2301
▁cook	-11.2322
▁aig	-11.2325
battle	-11.2336
pf	-11.2347
pic	-11.2354
bor	-11.2354
founder	-11.2355
▁gran	-11.2356
hun	-11.2364
▁08	-11.2368
▁trans	-11.2373
titude	-11.2377
▁donat	-11.2378
▁user	-11.2386
▁winf	-11.2396
▁prefer	-11.2402
24	-11.2403
▁equ	-11.2413
▁drunk	-11.2415
▁arn	-11.2416
▁jihad	-11.2417
▁infiltrat	-11.2419
▁surpass	-11.2419
▁appreciate	-11.2419
▁caribbean	-11.2419
▁explanation	-11.2419
▁invitation	-11.2419
▁jamaica	-11.2419
▁mammoth	-11.2419
▁pichushkin	-11.2419
▁symptoms	-11.2419
▁tragic	-11.2419
▁travolta	-11.2419
▁unsuccessful	-11.2419
▁graphic	-11.2419
▁helmand	-11.2419
▁squeez	-11.2419
▁blitz	-11.2419
▁crater	-11.2419
▁nixon	-11.2419
▁stronghold	-11.2419
▁diabet	-11.2419
▁thorough	-11.2419
▁manila	-11.2419
▁fingerprint	-11.2419
▁tumor	-11.2419
▁automobile	-11.2419
▁textbook	-11.2419
▁website	-11.242
akash	-11.242
▁autops	-11.242
▁expedition	-11.2421
▁rove	-11.2421
▁implication	-11.2421
▁facebook	-11.2422
▁norway	-11.2423
▁broadway	-11.2423
▁tribunal	-11.2423
▁echo	-11.2423
▁gibbon	-11.2424
▁restart	-11.2425
▁consultation	-11.2426
▁rick	-11.2426
bur	-11.2426
▁achievement	-11.2427
▁arson	-11.2427
▁invad	-11.2428
▁merc	-11.2429
▁spell	-11.2429
▁briton	-11.2432
▁merger	-11.2433
terrorism	-11.2434
▁09	-11.2434
▁cry	-11.2436
rbil	-11.2437
▁yield	-11.2438
▁gravit	-11.2438
▁matsu	-11.2438
zhei	-11.2439
tall	-11.244
▁mumm	-11.2441
▁soft	-11.2442
▁russe	-11.2442
▁adventure	-11.2443
▁menu	-11.2443
▁450	-11.2445
▁surgeon	-11.2445
▁presid	-11.245
▁wayne	-11.2451
ima	-11.2452
▁corn	-11.2457
▁carl	-11.2457
▁11-	-11.246
▁pap	-11.2468
▁consideration	-11.247
▁shouting	-11.2474
▁supplier	-11.2477
▁intensifie	-11.2479
▁punch	-11.248
dong	-11.249
▁denial	-11.2499
▁fisc	-11.2503
▁mill	-11.2505
▁pit	-11.2509
▁electrical	-11.251
▁gre	-11.2511
▁02	-11.2517
▁rud	-11.252
▁canne	-11.2524
comm	-11.2528
witt	-11.2539
▁theme	-11.2555
▁tala	-11.256
▁kil	-11.256
▁bonds	-11.2564
▁refer	-11.2565
▁eld	-11.2573
chum	-11.2579
▁shia	-11.2579
hen	-11.258
pping	-11.2589
▁limb	-11.259
rel	-11.2593
▁coat	-11.2602
closed	-11.2604
▁tenn	-11.2605
vian	-11.2606
▁qui	-11.2608
▁battles	-11.2616
▁nationalist	-11.2622
found	-11.2629
▁java	-11.263
▁lan	-11.2633
▁patroll	-11.2633
▁fixed	-11.2634
anda	-11.2646
wc	-11.2649
conscious	-11.2653
children	-11.2655
book	-11.2657
▁jung	-11.2664
stock	-11.2666
▁demonstrat	-11.2666
yodo	-11.2676
ico	-11.2684
▁fif	-11.2687
▁captiv	-11.2689
▁provision	-11.2694
▁gad	-11.27
▁evacuate	-11.2701
▁flexib	-11.2704
bin	-11.2707
▁households	-11.2712
soon	-11.272
▁stones	-11.2723
▁topic	-11.2723
▁screening	-11.2724
▁amin	-11.2727
▁endeavo	-11.2729
▁strange	-11.2731
▁exporter	-11.2736
wi	-11.2738
▁meh	-11.2738
▁practical	-11.2742
▁aquarium	-11.2742
▁automotive	-11.2742
▁falluja	-11.2742
▁margaret	-11.2742
▁neutral	-11.2742
▁norwegian	-11.2742
▁shepherd	-11.2742
▁throat	-11.2742
▁fossil	-11.2742
▁lynch	-11.2742
▁reunit	-11.2742
▁pact	-11.2742
▁paralyz	-11.2742
▁silent	-11.2742
▁steam	-11.2742
▁bathroom	-11.2742
▁tentative	-11.2742
▁copyright	-11.2742
▁physician	-11.2742
bro	-11.2743
▁bedroom	-11.2743
▁cristian	-11.2743
abao	-11.2743
▁contra	-11.2743
▁citizenship	-11.2743
▁compil	-11.2744
▁archive	-11.2744
▁swim	-11.2745
▁pursuit	-11.2746
▁reluctant	-11.2747
▁bryan	-11.2747
▁painful	-11.2747
▁lamp	-11.2748
▁kofi	-11.2748
▁quell	-11.2749
▁outpost	-11.2749
▁warehouse	-11.275
erald	-11.2754
▁lance	-11.2756
enberg	-11.2756
▁pants	-11.2761
▁belonging	-11.2761
▁boot	-11.2765
▁favorable	-11.2766
▁greg	-11.2768
▁medit	-11.277
▁gli	-11.2773
reb	-11.2776
▁explained	-11.2776
▁proto	-11.278
▁advocate	-11.2781
▁rec	-11.2785
1-1	-11.2794
▁silv	-11.2799
ww	-11.28
▁stabilize	-11.2808
▁arguments	-11.2815
nnie	-11.2831
▁mitt	-11.2833
raul	-11.2838
trick	-11.284
▁passes	-11.2841
▁immun	-11.2847
▁asset	-11.2857
▁cop	-11.2858
▁developer	-11.2859
hill	-11.2863
▁identifi	-11.287
joon	-11.2879
▁oust	-11.2888
▁julie	-11.2888
▁raj	-11.2892
lando	-11.2901
▁guan	-11.2908
yeon	-11.2912
▁beside	-11.2916
gb	-11.2942
▁lea	-11.2949
bani	-11.2956
▁researcher	-11.2963
▁musa	-11.2964
▁cy	-11.2968
bala	-11.2971
▁eliminate	-11.2973
▁ny	-11.2978
▁captives	-11.2979
school	-11.2988
four	-11.3005
▁intervene	-11.3006
▁gro	-11.3009
▁emotion	-11.3009
▁rings	-11.3009
lc	-11.3015
▁enable	-11.3017
▁ethic	-11.3017
▁nud	-11.3028
bal	-11.3029
link	-11.3034
dis	-11.304
▁kle	-11.305
▁thrill	-11.3053
pper	-11.3056
jeon	-11.3058
cef	-11.3062
▁hubb	-11.3065
▁extinct	-11.3069
▁assert	-11.3071
▁johnsto	-11.3072
▁psycholog	-11.3073
▁inaugura	-11.3075
▁artificial	-11.3075
▁brush	-11.3075
▁cholesterol	-11.3075
▁epidemic	-11.3075
▁hazard	-11.3075
▁homosexual	-11.3075
▁okinawa	-11.3075
▁sophisticat	-11.3075
▁judgment	-11.3075
▁purported	-11.3075
▁scream	-11.3075
▁surplus	-11.3075
▁verify	-11.3075
▁carpet	-11.3075
▁scatter	-11.3075
▁assume	-11.3075
▁mitchell	-11.3075
▁grim	-11.3075
samarra	-11.3075
▁subsidiar	-11.3075
▁mercedes	-11.3075
▁mccart	-11.3075
▁beatles	-11.3076
▁pirac	-11.3077
▁shopper	-11.3077
▁epic	-11.3078
▁disagreement	-11.3079
▁desk	-11.308
amba	-11.308
▁dili	-11.3081
▁legac	-11.3081
▁rita	-11.3081
▁1981	-11.3083
▁belgian	-11.3086
▁underscor	-11.3086
▁fujimo	-11.3086
▁operative	-11.3086
▁kwang	-11.3088
▁modest	-11.3089
▁edward	-11.3089
▁sideline	-11.3095
▁geit	-11.3095
active	-11.3097
▁undis	-11.3099
▁robb	-11.3103
▁wheat	-11.3108
▁rating	-11.311
▁swat	-11.312
enhei	-11.3121
▁communicate	-11.3121
▁cher	-11.3126
▁balk	-11.3127
▁mode	-11.3128
▁permissi	-11.3128
bre	-11.3128
▁embezzle	-11.313
llery	-11.313
▁pic	-11.3136
▁projection	-11.3138
gwan	-11.3141
▁keen	-11.3143
▁expression	-11.3144
▁vest	-11.3144
▁donor	-11.3147
▁cle	-11.3149
▁ross	-11.3151
▁lit	-11.3155
assi	-11.3159
▁32-	-11.3161
▁tips	-11.3163
▁ignore	-11.3165
▁1950-	-11.3168
▁grandm	-11.317
rang	-11.317
▁supervisor	-11.3185
ospi	-11.3192
▁smuggling	-11.3197
apping	-11.3203
▁gall	-11.3211
rop	-11.3227
span	-11.3229
▁bever	-11.3245
wan	-11.3246
rah	-11.3249
apped	-11.3257
▁tube	-11.3269
▁wag	-11.3269
▁bout	-11.3281
▁fernand	-11.3283
▁plunge	-11.3284
▁collide	-11.3285
ito	-11.3287
▁mandate	-11.3294
▁sag	-11.3299
▁cooperat	-11.3302
▁soul	-11.3303
teria	-11.332
▁kurd	-11.332
roll	-11.3325
screen	-11.3332
wal	-11.3333
▁sway	-11.3334
▁pond	-11.3337
▁geo	-11.3339
▁bot	-11.3341
pot	-11.3355
▁arena	-11.336
▁bath	-11.3366
eira	-11.3372
▁transit	-11.3372
▁kidnap	-11.3385
cna	-11.3385
▁luck	-11.3386
▁inspect	-11.34
▁swap	-11.3406
▁kam	-11.3414
▁caucus	-11.3414
aska	-11.3415
▁disturb	-11.3418
▁initiat	-11.3418
▁vigil	-11.3418
▁categori	-11.342
elecommunication	-11.342
▁aborigin	-11.342
▁consortium	-11.342
▁crystal	-11.342
▁gorilla	-11.342
▁nervous	-11.342
▁obstacle	-11.342
▁ceiling	-11.342
▁dignity	-11.342
▁conceal	-11.342
▁fahr	-11.342
▁shattered	-11.342
▁atrocit	-11.342
▁humor	-11.342
▁convey	-11.342
▁polish	-11.342
▁nelson	-11.342
▁uprising	-11.342
▁consent	-11.342
▁sierra	-11.342
▁glen	-11.342
ility	-11.342
▁imperial	-11.342
▁hormone	-11.3421
▁candle	-11.3422
▁steer	-11.3424
▁nfl	-11.3424
▁susan	-11.3424
▁flick	-11.3424
▁utilit	-11.3426
rafa	-11.3426
▁creative	-11.3426
▁heighten	-11.3426
▁dense	-11.3429
▁wazir	-11.3431
▁symbolic	-11.3433
▁stamp	-11.3434
▁drum	-11.3434
quba	-11.3437
▁linda	-11.3442
▁sued	-11.3445
▁presentation	-11.3445
▁ghan	-11.3446
▁permitt	-11.3449
▁setback	-11.3453
▁capability	-11.3455
▁ferry	-11.3455
▁removal	-11.3466
▁sank	-11.3479
▁ethical	-11.3482
▁hyun	-11.3487
▁gala	-11.3492
▁territories	-11.3496
▁pipe	-11.3497
▁antibiotics	-11.3499
▁lean	-11.3507
gel	-11.3508
▁syn	-11.351
▁bron	-11.351
▁pastor	-11.3511
▁jiang	-11.3514
▁stunning	-11.3542
▁anna	-11.3544
hir	-11.3544
▁gangs	-11.3557
▁fernando	-11.3559
ido	-11.3575
▁domin	-11.3585
stud	-11.3596
▁harmon	-11.3599
cantil	-11.36
▁raz	-11.3604
▁tag	-11.3606
▁informal	-11.3607
▁privately	-11.3614
kar	-11.3622
hwan	-11.3622
▁slid	-11.3632
nom	-11.3635
▁folks	-11.3646
nebr	-11.3648
lice	-11.3649
▁uncle	-11.3652
▁shap	-11.3654
see	-11.3654
hasa	-11.3657
oria	-11.3665
atic	-11.3666
▁genes	-11.3669
▁installed	-11.3672
eta	-11.3673
nnis	-11.3688
▁slot	-11.3694
jiang	-11.3694
▁syrian	-11.3696
▁format	-11.3723
▁45-	-11.3731
▁aging	-11.3739
ites	-11.3764
▁wang	-11.377
▁balti	-11.3771
cular	-11.3774
▁charl	-11.3776
▁aggravat	-11.3777
▁brothel	-11.3777
▁chronic	-11.3777
▁condolence	-11.3777
▁conglomerate	-11.3777
▁grandfather	-11.3777
▁jacque	-11.3777
▁knife	-11.3777
▁lopez	-11.3777
▁mcdonald	-11.3777
▁municipal	-11.3777
▁paparazz	-11.3777
▁petroleum	-11.3777
▁plummet	-11.3777
▁railroad	-11.3777
▁reaffirm	-11.3777
▁substitute	-11.3777
▁applicant	-11.3777
▁dissolv	-11.3777
▁pistol	-11.3777
▁swallow	-11.3777
▁wrestl	-11.3777
▁bishop	-11.3777
▁croatia	-11.3777
▁discharge	-11.3777
▁pioneer	-11.3777
▁throne	-11.3777
▁mystery	-11.3777
▁retirement	-11.3777
▁salmonella	-11.3777
▁trash	-11.3777
manuel	-11.3777
▁deutsch	-11.3777
▁ankle	-11.3778
▁ignit	-11.3778
▁predominant	-11.3778
▁niger	-11.3778
▁laureate	-11.3778
▁evaluation	-11.3779
▁glori	-11.3779
▁valid	-11.3779
▁rattl	-11.3779
▁layoff	-11.3781
▁irish	-11.3781
▁ownership	-11.3781
▁jeong	-11.3781
▁calculat	-11.3783
▁aug	-11.3784
▁meals	-11.3786
▁transparent	-11.3787
cap	-11.3788
▁aggression	-11.3788
▁prefecture	-11.379
▁greenland	-11.379
▁stirr	-11.3791
▁stemm	-11.3795
▁pink	-11.3796
▁massage	-11.3797
kdo	-11.3799
▁reasonable	-11.3799
▁scrapp	-11.38
▁rover	-11.3801
▁cheaper	-11.3802
▁cambodian	-11.3805
▁impass	-11.3806
▁inventor	-11.3807
▁outlaw	-11.3807
▁drought	-11.3809
▁nigerian	-11.3812
▁odd	-11.3814
▁passion	-11.3819
hab	-11.3821
▁austrian	-11.3824
gyeonggi	-11.3828
▁dave	-11.3829
viel	-11.3832
▁entitl	-11.3848
rate	-11.3856
▁cage	-11.3862
jun	-11.3885
▁rak	-11.3885
▁bae	-11.3899
pei	-11.3909
▁bash	-11.3909
▁treasure	-11.3917
attle	-11.3924
▁choi	-11.3929
▁farms	-11.3934
▁anim	-11.3943
tayyi	-11.3948
▁nest	-11.395
aq	-11.3984
fc	-11.3995
▁guided	-11.4001
eva	-11.4007
▁smuggl	-11.4013
▁doubl	-11.4018
▁julia	-11.4019
▁mild	-11.4019
▁easter	-11.4028
▁separat	-11.4028
look	-11.4039
▁propose	-11.404
shin	-11.4053
shirt	-11.4064
▁productiv	-11.4074
▁speculat	-11.4079
friendly	-11.4082
▁qualifi	-11.4085
▁capt	-11.4104
▁gram	-11.4104
▁careful	-11.4111
olk	-11.4112
dog	-11.4113
▁instruct	-11.4114
tearn	-11.4117
▁prosecut	-11.4128
▁wat	-11.4128
fl	-11.413
▁construct	-11.414
▁addict	-11.4141
▁possess	-11.4142
▁assign	-11.4147
▁annually	-11.4147
▁blockbuster	-11.4147
▁catastroph	-11.4147
▁constitute	-11.4147
▁guatemala	-11.4147
▁jirga	-11.4147
▁junior	-11.4147
▁patience	-11.4147
▁refrain	-11.4147
▁servant	-11.4147
▁slush	-11.4147
▁starbuck	-11.4147
▁disciplin	-11.4147
▁lecture	-11.4147
▁pocket	-11.4147
▁shelves	-11.4147
▁thwart	-11.4147
▁johannes	-11.4147
▁script	-11.4147
▁segment	-11.4147
▁distinct	-11.4147
▁historian	-11.4147
▁relevan	-11.4147
▁douglas	-11.4147
▁holland	-11.4147
▁sibling	-11.4147
▁protein	-11.4147
▁domain	-11.4147
▁ftse	-11.4147
▁oath	-11.4148
▁bosnia	-11.4148
▁lenno	-11.4148
▁logistic	-11.4148
▁transmission	-11.4148
▁yankee	-11.4148
▁prescription	-11.4148
▁milestone	-11.4148
▁spitz	-11.4148
▁lodge	-11.4148
▁dominica	-11.4149
▁memorab	-11.4149
▁intensive	-11.4149
▁fundrais	-11.4149
▁terra	-11.4149
▁sensation	-11.4149
▁tur	-11.4149
▁mastermind	-11.415
▁reassur	-11.415
▁decorat	-11.415
▁editorial	-11.415
▁faithful	-11.4151
▁trademark	-11.4151
▁weakness	-11.4151
▁decree	-11.4152
▁extract	-11.4154
▁impression	-11.4154
apolis	-11.4154
▁donors	-11.4155
▁1984	-11.4155
▁ethan	-11.4156
▁recogni	-11.4157
▁carmaker	-11.4157
▁exhibition	-11.416
grid	-11.416
gm	-11.4161
enos	-11.4162
▁mediator	-11.4162
▁happiness	-11.4162
▁poul	-11.4163
▁dementi	-11.4163
▁antarctica	-11.4163
singh	-11.4164
gow	-11.4167
uda	-11.4167
▁reign	-11.4168
▁hardest	-11.4178
▁elb	-11.4178
▁ranger	-11.4183
45	-11.4185
▁formation	-11.4185
ika	-11.4187
▁240	-11.4191
ario	-11.4192
▁lifetime	-11.4197
list	-11.4199
▁pelo	-11.4201
▁rahm	-11.4209
▁hank	-11.4214
xel	-11.4217
▁ministerial	-11.4217
dale	-11.422
▁revers	-11.4221
▁examine	-11.4222
▁patt	-11.4222
arity	-11.4237
▁chess	-11.4247
▁dance	-11.4249
▁manufacturer	-11.4254
ponte	-11.4266
▁popp	-11.4268
▁rib	-11.4268
onica	-11.4271
▁criticize	-11.4273
▁flare	-11.4273
▁bil	-11.4274
▁heir	-11.4278
▁garr	-11.428
ulu	-11.4281
▁raw	-11.4299
▁relat	-11.4319
ancy	-11.4338
▁hart	-11.4342
▁behead	-11.4343
lateral	-11.4345
▁01	-11.4345
▁compos	-11.4353
▁nah	-11.4355
▁neuro	-11.4362
itu	-11.4373
decent	-11.4374
▁hassan	-11.4385
penh	-11.4386
brow	-11.4394
rine	-11.4394
▁stunn	-11.4399
▁shipments	-11.4405
hm	-11.4408
suit	-11.4411
ato	-11.4411
▁kara	-11.4413
nshine	-11.4413
▁lat	-11.4417
▁tribes	-11.4418
nar	-11.4419
10	-11.442
▁romania	-11.442
cott	-11.4424
▁neil	-11.4428
▁sighting	-11.4441
syrian	-11.4443
appropriate	-11.4444
degree	-11.4444
life	-11.4444
worth	-11.4445
bert	-11.4445
▁premiere	-11.4445
kansa	-11.4445
running	-11.4447
nz	-11.4453
▁hay	-11.4457
▁anthr	-11.4459
▁choos	-11.4462
stice	-11.4464
rmal	-11.4488
▁101	-11.4494
▁exten	-11.4508
will	-11.4513
▁acquire	-11.4518
▁transparen	-11.4521
▁ub	-11.4525
▁expo	-11.4525
▁spar	-11.4527
caust	-11.4529
▁rig	-11.453
▁impressi	-11.4531
▁consist	-11.4531
▁drastic	-11.4532
▁acquisition	-11.4532
▁brilliant	-11.4532
▁decisive	-11.4532
▁franchise	-11.4532
▁frighten	-11.4532
▁homicide	-11.4532
▁kuznetsov	-11.4532
▁nightclub	-11.4532
▁peanut	-11.4532
▁penguin	-11.4532
▁premium	-11.4532
▁propaganda	-11.4532
▁respirator	-11.4532
▁vacuum	-11.4532
▁breast	-11.4532
▁contradict	-11.4532
▁kazakhstan	-11.4532
▁seok	-11.4532
▁commodit	-11.4532
▁libby	-11.4532
▁shadow	-11.4532
▁frost	-11.4532
▁martyr	-11.4532
▁crippl	-11.4532
▁transcript	-11.4532
▁cousin	-11.4532
▁mikh	-11.4532
▁depth	-11.4532
▁memories	-11.4532
▁aziz	-11.4532
▁compli	-11.4532
▁vocal	-11.4532
▁leonard	-11.4533
▁curious	-11.4533
▁nerve	-11.4533
▁monster	-11.4533
▁indoor	-11.4533
▁thunder	-11.4533
▁knut	-11.4533
▁bread	-11.4533
▁sketch	-11.4533
▁cairo	-11.4534
▁trump	-11.4534
▁mun	-11.4534
▁fifty	-11.4534
▁psychologist	-11.4534
▁hammer	-11.4534
▁coerc	-11.4534
▁parole	-11.4535
▁nori	-11.4535
▁bump	-11.4535
▁pageant	-11.4537
▁thi	-11.4538
▁robotic	-11.4539
▁awake	-11.4539
▁terrible	-11.4539
▁attractive	-11.4539
▁restraint	-11.454
▁downturn	-11.4541
▁rotat	-11.4543
▁romance	-11.4546
▁honey	-11.4546
▁dug	-11.4547
▁progressive	-11.4547
▁04	-11.4548
▁christi	-11.4548
▁isolation	-11.4549
▁brig	-11.455
▁oak	-11.4552
▁representation	-11.4553
▁23-	-11.4555
▁spice	-11.4564
▁inhal	-11.4566
▁280	-11.4566
▁oz	-11.4567
▁sooner	-11.4572
▁lotte	-11.4572
▁ourselves	-11.4572
lain	-11.4575
▁pois	-11.4576
▁contestant	-11.4581
fill	-11.4584
▁endorse	-11.4586
unch	-11.4587
▁reunifi	-11.459
▁semi	-11.4596
lena	-11.46
scus	-11.46
▁scare	-11.4607
▁gonn	-11.4608
▁comb	-11.4609
▁antho	-11.4611
▁surviv	-11.4611
▁jab	-11.462
▁busan	-11.4632
pov	-11.4634
▁digg	-11.4636
nsu	-11.4642
rave	-11.465
▁couch	-11.4651
▁rear	-11.4657
intend	-11.467
rugg	-11.467
kook	-11.4672
▁bind	-11.4678
erran	-11.4681
▁tuck	-11.4696
▁ivan	-11.4701
▁deck	-11.4701
▁eva	-11.4714
▁dominate	-11.4727
▁lane	-11.474
▁suv	-11.474
xvi	-11.474
▁spin	-11.4741
author	-11.4741
▁graduat	-11.4746
▁190	-11.4758
▁cro	-11.476
▁uncertaint	-11.4772
▁bench	-11.4778
▁chin	-11.4787
▁clemen	-11.4789
▁whi	-11.4795
cade	-11.4809
igat	-11.4816
oke	-11.4817
▁fog	-11.4829
▁cove	-11.4842
cliff	-11.4843
sponsor	-11.4844
rome	-11.4848
▁bog	-11.4853
▁jur	-11.4858
▁substanti	-11.4859
about	-11.4862
▁container	-11.4863
▁kt	-11.4868
etic	-11.4868
matic	-11.4876
▁ugl	-11.4881
▁hurl	-11.4886
ndra	-11.4895
ograph	-11.4896
▁pak	-11.49
▁contend	-11.4912
▁3-1	-11.4924
ency	-11.4926
▁bloc	-11.4928
▁elevat	-11.4928
▁circu	-11.4929
▁espi	-11.493
▁psychiatr	-11.493
▁meteorolog	-11.493
▁excess	-11.493
▁architect	-11.4932
▁fitzg	-11.4932
▁cincinnati	-11.4932
▁companion	-11.4932
▁contingent	-11.4932
▁diagnosed	-11.4932
▁frankfurt	-11.4932
▁irregularities	-11.4932
▁lincoln	-11.4932
▁mechanical	-11.4932
▁premature	-11.4932
▁simultaneous	-11.4932
▁tattoo	-11.4932
▁tremendous	-11.4932
▁vegetable	-11.4932
▁gadget	-11.4932
▁griffi	-11.4932
▁monument	-11.4932
oriented	-11.4932
▁enact	-11.4932
▁frog	-11.4932
▁notorious	-11.4932
▁absent	-11.4932
▁tenure	-11.4932
▁basketball	-11.4932
▁excuse	-11.4932
▁distort	-11.4932
▁donkey	-11.4932
▁muq	-11.4932
rogge	-11.4932
▁smell	-11.4932
▁vista	-11.4932
▁grammy	-11.4932
▁outfit	-11.4933
▁disgrace	-11.4933
▁rift	-11.4933
▁psychological	-11.4933
▁streak	-11.4933
▁blogger	-11.4933
▁radiation	-11.4934
▁tomato	-11.4934
▁sugar	-11.4934
▁laura	-11.4935
▁devil	-11.4935
ravag	-11.4936
▁boris	-11.4936
▁irresponsible	-11.4936
▁copper	-11.4936
▁obes	-11.4937
▁overthrow	-11.494
▁philli	-11.494
▁103	-11.4941
tact	-11.4942
▁kwon	-11.4945
▁employers	-11.4945
mandu	-11.4945
▁sensor	-11.4945
▁deport	-11.4945
▁amend	-11.4946
austin	-11.4949
▁terminat	-11.4951
▁unchang	-11.4952
▁ramad	-11.4952
▁santi	-11.4954
▁exo	-11.4957
saka	-11.4963
▁aspir	-11.4963
▁accurate	-11.4964
▁tut	-11.4965
▁explorer	-11.4966
▁dock	-11.4967
tract	-11.497
▁warship	-11.4975
▁kitty	-11.4979
jan	-11.498
▁225	-11.4981
▁graz	-11.4982
▁difficulty	-11.4983
▁belov	-11.4993
kind	-11.4996
▁horn	-11.5007
▁comic	-11.5008
▁roar	-11.5019
ich	-11.5019
hrai	-11.5019
step	-11.502
▁mobiliz	-11.502
▁portal	-11.5022
▁cliff	-11.503
16	-11.5065
▁slain	-11.5067
▁cycle	-11.507
▁hut	-11.507
▁sincere	-11.508
▁bobb	-11.508
▁salt	-11.5092
▁zi	-11.5104
▁barry	-11.5133
cast	-11.5151
▁ratio	-11.5165
▁outlets	-11.5172
▁gill	-11.5173
bun	-11.5174
ctic	-11.5176
ech	-11.5221
hard	-11.5235
ugg	-11.5258
income	-11.5261
threaten	-11.5261
wife	-11.5261
billion	-11.5261
course	-11.5261
girl	-11.5261
percent	-11.5263
uki	-11.5263
shift	-11.5263
▁steadi	-11.5265
million	-11.5265
trust	-11.527
▁inspire	-11.5271
action	-11.5271
rou	-11.5271
box	-11.5284
ference	-11.5286
▁gyeong	-11.529
▁chok	-11.5294
▁bother	-11.5296
▁spare	-11.53
▁assembl	-11.5302
uster	-11.5304
▁alleg	-11.5304
▁jen	-11.5311
▁eta	-11.5314
▁marin	-11.5325
▁roy	-11.5328
▁depos	-11.533
wil	-11.5333
▁volcan	-11.5342
▁polit	-11.5345
▁midwest	-11.5346
italia	-11.5347
▁laurea	-11.5348
▁roug	-11.5348
▁bizarre	-11.5349
▁certificate	-11.5349
▁default	-11.5349
▁genuine	-11.5349
▁intellectual	-11.5349
▁maradona	-11.5349
▁orthodox	-11.5349
▁pearl	-11.5349
▁precise	-11.5349
▁rhode	-11.5349
▁satisfie	-11.5349
▁vault	-11.5349
▁zhang	-11.5349
▁bonuses	-11.5349
▁competitor	-11.5349
▁fortress	-11.5349
▁reckless	-11.5349
▁bruis	-11.5349
▁bmw	-11.5349
▁negro	-11.5349
▁avenue	-11.5349
▁lyric	-11.5349
▁misdemeanor	-11.5349
▁coroner	-11.5349
▁trauma	-11.5349
▁drain	-11.5349
▁whistle	-11.5349
▁seizure	-11.5349
▁venus	-11.5349
▁stumbl	-11.5349
▁fantas	-11.5349
▁reinstate	-11.5349
▁cinema	-11.5349
▁lunar	-11.5349
▁earliest	-11.535
▁veterinarian	-11.535
▁hamburg	-11.535
▁hatred	-11.535
▁blessing	-11.535
▁thriv	-11.535
-16	-11.535
▁introduction	-11.535
▁profound	-11.5351
▁fuku	-11.5351
▁loom	-11.5351
▁confidential	-11.5351
▁bund	-11.5351
▁hawa	-11.5352
▁infantry	-11.5352
▁tamil	-11.5352
▁harper	-11.5352
▁glov	-11.5352
▁signature	-11.5353
▁colonel	-11.5354
▁collective	-11.5355
▁jamie	-11.5355
▁addiction	-11.5355
pate	-11.5357
▁concentration	-11.5358
▁harve	-11.5361
▁bulgarian	-11.5362
▁iceland	-11.5363
▁minus	-11.5364
▁tolerate	-11.5364
▁360	-11.5364
▁dire	-11.5365
▁crist	-11.5365
udge	-11.5368
▁kph	-11.5368
▁prodi	-11.5372
▁equipp	-11.5374
rosa	-11.5376
▁liu	-11.5383
▁spurr	-11.5385
▁flin	-11.5392
esco	-11.5392
▁arth	-11.5394
▁sund	-11.5395
▁zimbabwean	-11.5395
▁135	-11.5396
olla	-11.5399
▁kay	-11.5401
▁kitt	-11.5408
▁garb	-11.5411
▁liga	-11.5417
▁nash	-11.5425
▁94	-11.543
▁jok	-11.5435
▁hire	-11.5451
▁countryside	-11.5459
▁beck	-11.5466
▁conscious	-11.5466
imposed	-11.5466
due	-11.5481
holo	-11.5512
▁facilitat	-11.5522
▁shu	-11.5524
▁malik	-11.5527
card	-11.553
▁crying	-11.5532
immer	-11.5547
▁walker	-11.555
acute	-11.5552
▁karl	-11.5556
▁dismiss	-11.556
▁cac	-11.5566
▁fisherm	-11.5567
▁neo	-11.5568
▁dipp	-11.5574
ulous	-11.5582
lene	-11.5591
zel	-11.5596
uit	-11.5601
ahim	-11.5604
▁tense	-11.5616
goer	-11.5618
empt	-11.562
▁sequence	-11.5634
▁cleaner	-11.5636
oster	-11.5637
▁dim	-11.5638
kuni	-11.5642
▁heath	-11.5644
▁sometime	-11.5647
▁ismail	-11.5671
ethane	-11.5672
▁snap	-11.5684
decided	-11.5696
amount	-11.5697
north	-11.5699
trapped	-11.57
▁gp	-11.5706
cheong	-11.5708
▁lashe	-11.5712
force	-11.5715
▁item	-11.5723
ichi	-11.5736
▁230	-11.5738
▁disperse	-11.574
bury	-11.5745
hall	-11.5755
▁intel	-11.5762
seong	-11.5762
train	-11.5765
▁hend	-11.5766
▁extremis	-11.5772
two	-11.5773
▁innocen	-11.5773
jaz	-11.5775
2-0	-11.5776
▁accomplish	-11.578
▁gib	-11.5781
▁archaeolog	-11.5782
▁courage	-11.5782
▁recep	-11.5783
▁authentic	-11.5783
▁bicycle	-11.5783
▁caretaker	-11.5783
▁chocolate	-11.5783
▁ingredient	-11.5783
▁junichi	-11.5783
▁kitchen	-11.5783
▁powder	-11.5783
▁stomach	-11.5783
▁sufficient	-11.5783
▁umbrella	-11.5783
▁glimpse	-11.5783
▁fidel	-11.5784
▁dwindl	-11.5784
▁maoist	-11.5784
▁slugg	-11.5784
▁cecil	-11.5784
▁cricket	-11.5784
▁bulk	-11.5784
▁minneapolis	-11.5784
▁ridicul	-11.5784
▁alfred	-11.5784
▁potato	-11.5784
▁blunt	-11.5784
▁inhabit	-11.5784
▁defus	-11.5784
▁erect	-11.5784
▁francis	-11.5784
▁stripped	-11.5784
▁mysterious	-11.5784
▁ipod	-11.5784
▁mouse	-11.5784
▁chuck	-11.5784
▁harass	-11.5784
▁lugg	-11.5784
▁budd	-11.5784
▁squid	-11.5784
▁viacom	-11.5785
▁oversight	-11.5785
▁array	-11.5785
▁harvest	-11.5786
▁contentious	-11.5786
▁cluster	-11.5786
▁exploration	-11.5786
▁glad	-11.5787
▁lightning	-11.5788
lihood	-11.5788
pleasure	-11.5788
▁stunt	-11.5788
▁linger	-11.5789
▁injection	-11.5789
wield	-11.5789
▁haul	-11.5789
▁glow	-11.5789
▁rico	-11.579
▁drunken	-11.579
▁titan	-11.579
▁tortur	-11.5793
lary	-11.5794
▁guardian	-11.5795
▁organic	-11.5795
▁furni	-11.5796
▁consultant	-11.5797
▁barak	-11.5798
▁chunk	-11.5798
▁delight	-11.5798
▁guang	-11.5799
▁acquir	-11.58
▁grain	-11.5802
▁measurement	-11.5808
▁dell	-11.581
definition	-11.581
▁deem	-11.5819
▁dama	-11.5819
▁laute	-11.5819
▁distan	-11.5819
▁siege	-11.5821
▁adequate	-11.5821
descent	-11.5822
▁nasr	-11.5823
afford	-11.5824
▁vent	-11.5824
▁ufo	-11.5826
▁bible	-11.5832
▁sheep	-11.5837
▁unite	-11.5841
▁browne	-11.5843
▁examiner	-11.5844
▁rejection	-11.5844
▁stat	-11.5846
iko	-11.585
▁regulate	-11.5851
▁mori	-11.5861
rkele	-11.5866
▁emerge	-11.587
▁mong	-11.5873
istic	-11.5878
▁explor	-11.588
▁por	-11.5891
▁sach	-11.591
▁stok	-11.5911
▁mem	-11.592
gye	-11.5927
achi	-11.5928
tat	-11.5934
▁commemorate	-11.5936
▁monte	-11.5969
▁cooking	-11.5975
▁dann	-11.5978
iband	-11.5988
▁lp	-11.599
▁arl	-11.5993
▁repli	-11.5994
otic	-11.5996
odor	-11.6
▁bust	-11.6001
eem	-11.6014
west	-11.6025
▁pave	-11.6026
tif	-11.6034
bbie	-11.6036
schne	-11.6042
versh	-11.6044
ouf	-11.6056
-200	-11.6073
uous	-11.6082
iot	-11.6108
gne	-11.6114
▁disclos	-11.6123
▁fann	-11.6141
▁tail	-11.6143
▁hae	-11.6146
▁feeding	-11.6148
magnitude	-11.615
▁ida	-11.6156
turk	-11.6156
root	-11.6157
watch	-11.6159
ywhere	-11.6169
ark	-11.6178
wash	-11.6179
▁ministr	-11.619
▁dav	-11.6201
▁marti	-11.6201
cker	-11.6203
enter	-11.6205
aware	-11.6206
alban	-11.6212
afa	-11.6222
▁cm	-11.6222
mir	-11.6225
▁observe	-11.6229
▁quarte	-11.6232
▁recess	-11.6233
▁abrupt	-11.6238
nprofit	-11.6238
▁arroyo	-11.6238
▁diminish	-11.6238
▁fragil	-11.6238
▁illicit	-11.6238
▁intensify	-11.6238
▁irritat	-11.6238
▁librar	-11.6238
▁magistrate	-11.6238
▁negligen	-11.6238
▁perception	-11.6238
▁pharmaceutical	-11.6238
▁polaroid	-11.6238
▁provocative	-11.6238
▁recount	-11.6238
▁sacramento	-11.6238
▁levinson	-11.6238
▁solomon	-11.6238
▁sumatra	-11.6238
▁serena	-11.6238
▁venice	-11.6238
▁anxious	-11.6238
▁compris	-11.6238
▁database	-11.6238
▁depriv	-11.6238
▁fantastic	-11.6239
▁nikol	-11.6239
▁reception	-11.6239
▁multinational	-11.6239
▁derail	-11.6239
▁greenspan	-11.6239
▁collins	-11.6239
▁cannon	-11.624
▁cancellation	-11.624
▁barely	-11.624
▁federline	-11.6241
▁dependent	-11.6242
▁frontrunner	-11.6242
scope	-11.6243
▁interaction	-11.6243
▁ukrainian	-11.6243
▁interstate	-11.6243
▁slavery	-11.6243
▁keat	-11.6243
▁click	-11.6244
▁wan	-11.6245
▁informant	-11.6245
▁overweight	-11.6246
▁rehab	-11.6248
▁frustration	-11.6248
▁handgun	-11.6248
onnell	-11.6248
▁hick	-11.6248
▁ledger	-11.6251
▁hover	-11.6251
▁workplace	-11.6251
▁disappointment	-11.6253
▁generator	-11.6255
▁von	-11.6256
▁yale	-11.6257
▁creator	-11.6257
arch	-11.6258
▁assum	-11.6262
▁showdown	-11.6264
▁retrieve	-11.6264
▁ferrer	-11.6266
▁preferr	-11.6267
kel	-11.6267
▁nk	-11.6268
▁fiction	-11.6269
▁instruction	-11.627
▁conceded	-11.6271
▁pollut	-11.6271
▁brun	-11.6271
▁priorities	-11.6272
▁playoff	-11.6272
qaw	-11.6275
▁gust	-11.6276
▁nail	-11.6277
▁marr	-11.6279
▁sharon	-11.6279
▁marco	-11.6279
▁neal	-11.6282
▁foe	-11.6282
▁dual	-11.6285
▁nutrition	-11.6291
▁economically	-11.6294
▁ec	-11.6295
lb	-11.63
▁melan	-11.631
ochi	-11.6315
▁tipp	-11.6317
dium	-11.6319
qi	-11.6326
▁wii	-11.6329
▁climber	-11.6334
▁lak	-11.6334
▁shre	-11.6337
▁vari	-11.6341
mont	-11.6342
▁basin	-11.6346
var	-11.635
▁procession	-11.6352
▁normaliz	-11.6353
▁cord	-11.6353
▁batch	-11.6354
▁math	-11.6361
▁vanco	-11.6367
▁drag	-11.6367
urgency	-11.6372
▁hur	-11.638
atory	-11.638
ovic	-11.6399
fired	-11.6401
▁goh	-11.6412
▁tribe	-11.6412
kto	-11.6412
▁bern	-11.6419
▁uncertain	-11.6424
vich	-11.643
▁bore	-11.6433
unes	-11.6437
▁leone	-11.6441
nintend	-11.6441
▁addresses	-11.6461
▁holed	-11.6483
▁bp	-11.6488
▁underst	-11.6495
▁duk	-11.6496
▁performer	-11.6498
▁allege	-11.6499
320	-11.6512
▁kye	-11.652
▁counterterroris	-11.6557
shima	-11.656
▁lag	-11.657
bane	-11.6574
▁lump	-11.6579
▁franc	-11.6587
phone	-11.6613
osa	-11.6613
▁stabiliz	-11.6617
▁owe	-11.6617
space	-11.6627
wealth	-11.6627
dollar	-11.6627
morning	-11.6627
▁offend	-11.6629
▁tian	-11.663
claren	-11.6632
map	-11.6637
sibility	-11.6639
▁fre	-11.6639
▁scrutin	-11.6639
lom	-11.6656
▁desp	-11.6677
spoke	-11.6686
▁ethiopia	-11.6693
▁xu	-11.6694
▁poster	-11.6696
horn	-11.6698
▁outlin	-11.67
▁grip	-11.6706
▁pu	-11.6709
▁evacu	-11.671
▁column	-11.6712
▁ashle	-11.6713
eera	-11.6714
▁mislead	-11.6714
▁battalion	-11.6714
▁cosmonaut	-11.6714
▁evolv	-11.6714
▁excavat	-11.6714
▁excerpt	-11.6714
▁implant	-11.6714
▁merchant	-11.6714
▁millenni	-11.6714
▁pediatric	-11.6714
▁philosoph	-11.6714
▁quarantine	-11.6714
▁scratch	-11.6714
▁seafood	-11.6714
▁supplement	-11.6714
▁tycoon	-11.6714
▁dentist	-11.6714
▁hispanic	-11.6714
▁portrait	-11.6714
▁reinforcement	-11.6714
▁blake	-11.6714
▁keith	-11.6714
▁oxford	-11.6714
▁brink	-11.6714
▁artifact	-11.6714
▁himalaya	-11.6714
▁piano	-11.6714
▁unilateral	-11.6714
▁freight	-11.6715
▁staple	-11.6715
▁dorm	-11.6715
▁headache	-11.6715
▁persistent	-11.6715
▁rubber	-11.6715
rbach	-11.6715
▁gallery	-11.6715
▁malawi	-11.6715
▁stabb	-11.6716
▁stockpile	-11.6716
▁dictatorship	-11.6716
▁lucas	-11.6717
▁kumar	-11.6717
▁horrifi	-11.6717
▁quest	-11.6717
▁liver	-11.6718
▁deportation	-11.6718
▁liais	-11.6718
▁emanuel	-11.6718
▁foley	-11.6718
▁verification	-11.6719
pollo	-11.6719
▁workforce	-11.672
▁fitness	-11.672
▁baker	-11.672
▁shwe	-11.672
▁scottish	-11.672
▁flock	-11.672
▁basque	-11.672
▁soften	-11.6721
▁dragon	-11.6722
▁continuous	-11.6723
▁facial	-11.6724
▁1910	-11.6724
einfeld	-11.6724
▁scam	-11.6724
▁atleti	-11.6727
▁gibb	-11.6728
▁salarie	-11.6729
▁franco	-11.6729
pur	-11.6729
▁cabin	-11.6729
▁overlook	-11.6731
▁prediction	-11.6732
▁valen	-11.6734
▁juror	-11.6735
▁owen	-11.6736
▁costume	-11.6737
hop	-11.6737
▁noise	-11.6737
berra	-11.6738
▁logo	-11.6738
koo	-11.6744
▁circuit	-11.6745
▁auditor	-11.6745
▁rack	-11.6746
start	-11.675
authoriz	-11.6751
▁550	-11.6752
trade	-11.6753
▁phillip	-11.6759
track	-11.6763
▁occasional	-11.6768
▁tender	-11.6769
▁fier	-11.6771
▁arrange	-11.6772
▁lap	-11.6773
▁nec	-11.6773
under	-11.6776
▁edit	-11.6776
▁quote	-11.6783
▁advise	-11.679
▁qualifier	-11.6795
▁helpful	-11.6795
▁airliner	-11.6796
▁utter	-11.6797
▁caffein	-11.6807
▁tun	-11.6807
▁hid	-11.6808
▁claren	-11.6811
▁hik	-11.6815
▁210	-11.6815
▁chan	-11.6816
ehr	-11.6818
▁interven	-11.6822
crab	-11.6823
taek	-11.6826
▁smoker	-11.6826
tano	-11.6832
▁tooth	-11.6832
kia	-11.6849
inous	-11.6856
bright	-11.6858
▁pul	-11.6862
▁seasonal	-11.6866
realistic	-11.6868
▁superb	-11.6869
zer	-11.687
▁sensitivit	-11.6873
▁publicity	-11.6887
▁contender	-11.6895
▁popul	-11.6896
▁henri	-11.6896
▁hacker	-11.6901
▁staffer	-11.6905
▁yell	-11.6908
mz	-11.6915
▁assurance	-11.6916
▁pirate	-11.6926
▁debat	-11.6927
▁outline	-11.6929
gang	-11.693
▁collaps	-11.6933
▁casualt	-11.6935
jani	-11.6936
▁captive	-11.6937
▁shipment	-11.694
hansa	-11.6969
▁devi	-11.6969
▁skill	-11.6971
▁dodg	-11.6973
▁planner	-11.6996
fuel	-11.7
▁bok	-11.7008
iora	-11.7009
jab	-11.7027
thic	-11.7034
▁distribute	-11.7054
▁dop	-11.7056
▁define	-11.7057
▁proven	-11.7061
uart	-11.7062
lima	-11.7072
ndrome	-11.7077
▁overwhelm	-11.7081
▁grat	-11.7082
▁fab	-11.7105
lese	-11.7106
planes	-11.7111
fund	-11.712
sule	-11.7121
▁prof	-11.7123
▁citi	-11.7123
▁jimm	-11.7124
defense	-11.7127
season	-11.7128
▁intens	-11.7129
iah	-11.7136
bali	-11.714
acre	-11.7143
mitt	-11.7159
workers	-11.7162
▁fitt	-11.7163
ecd	-11.7164
cost	-11.7165
mmy	-11.7165
▁necessar	-11.7166
▁societ	-11.7166
▁juli	-11.7168
▁disarm	-11.7169
▁applau	-11.7172
▁beache	-11.7179
▁quant	-11.7191
▁algeria	-11.7192
▁significan	-11.7203
▁triple	-11.7205
▁inject	-11.7208
▁campaigner	-11.7212
case	-11.7213
▁confiscat	-11.7214
▁demilitariz	-11.7214
▁engulf	-11.7214
▁abraham	-11.7214
▁albatross	-11.7214
▁calendar	-11.7214
▁efficienc	-11.7214
▁intelligent	-11.7214
▁juvenile	-11.7214
▁plume	-11.7214
▁prototype	-11.7214
▁scuffle	-11.7214
▁stalemate	-11.7214
▁wheelchair	-11.7214
▁barricade	-11.7214
▁cruel	-11.7214
▁disguis	-11.7214
▁newcastle	-11.7214
▁satisfact	-11.7214
▁exxon	-11.7214
▁gossip	-11.7214
▁lesbian	-11.7214
▁contemporar	-11.7214
▁pretend	-11.7214
▁rogue	-11.7214
▁wrist	-11.7214
bhumi	-11.7214
▁keynote	-11.7214
▁biofuel	-11.7214
▁napoli	-11.7214
cted	-11.7215
▁spouse	-11.7215
▁slope	-11.7215
▁zheng	-11.7215
▁predator	-11.7215
▁disclosure	-11.7215
▁strife	-11.7215
▁nickname	-11.7216
▁revelation	-11.7216
▁torrent	-11.7216
▁snack	-11.7216
▁avert	-11.7216
▁plagu	-11.7217
▁evans	-11.7217
▁beverage	-11.7218
▁collaboration	-11.7218
▁gator	-11.7219
▁conservationist	-11.722
nction	-11.7222
▁youngster	-11.7222
▁preach	-11.7222
▁cartel	-11.7222
▁inspiration	-11.7222
▁cordon	-11.7222
▁andrea	-11.7223
▁instructor	-11.7225
▁djo	-11.7225
▁kiev	-11.7225
▁micke	-11.7226
▁barrage	-11.7226
▁referee	-11.723
rais	-11.7231
▁township	-11.7234
confirmed	-11.7234
▁daylight	-11.7234
▁fond	-11.7235
▁acceptance	-11.7236
▁850	-11.7238
▁reinforc	-11.724
▁tenor	-11.7247
▁thriller	-11.7248
▁distract	-11.7254
▁applaud	-11.7257
▁crumbl	-11.7258
▁ruth	-11.726
▁165	-11.7269
▁custom	-11.7273
▁conscien	-11.7275
▁resemble	-11.7278
▁marie	-11.7283
▁cope	-11.7291
hom	-11.7298
▁composer	-11.73
▁accelerate	-11.7304
atus	-11.7306
▁bald	-11.7313
luster	-11.7317
▁jol	-11.7319
pil	-11.7323
▁115	-11.7325
rom	-11.7325
onga	-11.733
▁interfer	-11.7333
▁lum	-11.7334
▁verifi	-11.7346
▁arabian	-11.7348
collar	-11.7352
▁ferrar	-11.7352
▁kurdis	-11.7358
arov	-11.7362
▁gamba	-11.7365
hallow	-11.7366
▁cycl	-11.7367
▁emitt	-11.7377
▁orchestrat	-11.7393
▁bhut	-11.7399
-10	-11.7403
▁folk	-11.7405
▁hook	-11.7406
dominant	-11.7409
gio	-11.7409
▁pub	-11.7415
▁alma	-11.7415
▁server	-11.7417
▁lett	-11.742
feld	-11.743
▁lang	-11.7439
▁chased	-11.7443
▁combine	-11.7443
▁champ	-11.7446
▁spike	-11.7447
▁skinn	-11.7457
oppo	-11.7465
plan	-11.7472
gling	-11.7474
▁ensur	-11.7474
caul	-11.7481
▁coordinate	-11.7481
mf	-11.7499
▁mit	-11.7503
▁unhapp	-11.751
lloy	-11.7539
▁equaliz	-11.7541
part	-11.7554
▁lander	-11.7562
▁sanit	-11.7573
blanc	-11.7574
▁explore	-11.7576
rative	-11.7593
▁galla	-11.76
▁keeper	-11.7607
▁advertis	-11.7607
diane	-11.7611
▁prest	-11.7631
▁finalize	-11.7638
▁vincen	-11.7639
expected	-11.7645
▁accelerat	-11.7647
generat	-11.7647
develop	-11.7653
tibet	-11.7653
▁cam	-11.7653
what	-11.7654
market	-11.7655
tick	-11.7658
▁daw	-11.7668
chong	-11.7679
kick	-11.768
▁bounc	-11.7681
▁physic	-11.7682
efficient	-11.7684
▁absolute	-11.7692
▁capabilit	-11.7692
▁phu	-11.7694
believ	-11.7698
fre	-11.7699
▁trap	-11.7717
▁hoi	-11.7726
▁restrain	-11.773
▁pric	-11.7731
▁stir	-11.7732
▁colomb	-11.7738
▁differ	-11.7739
▁enthusias	-11.774
▁hydro	-11.774
▁unconditional	-11.7741
▁unlawful	-11.7741
▁bipartisan	-11.7741
▁bubble	-11.7741
▁confederation	-11.7741
▁convincing	-11.7741
▁destabilize	-11.7741
▁embargo	-11.7741
▁emperor	-11.7741
▁envelop	-11.7741
▁evangelical	-11.7741
▁external	-11.7741
▁extinguish	-11.7741
▁fractur	-11.7741
▁gorbachev	-11.7741
▁jacob	-11.7741
▁kangaroo	-11.7741
▁mechanism	-11.7741
▁miracle	-11.7741
▁pancreati	-11.7741
▁parachute	-11.7741
▁parallel	-11.7741
▁perspective	-11.7741
▁rhino	-11.7741
▁rwanda	-11.7741
▁steroid	-11.7741
▁technician	-11.7741
▁unofficial	-11.7741
▁valuable	-11.7741
▁cough	-11.7741
▁helmet	-11.7741
▁robust	-11.7741
▁spiral	-11.7741
proclaim	-11.7741
▁chapel	-11.7741
▁maneuver	-11.7741
▁mujah	-11.7741
▁anxiet	-11.7741
▁forensic	-11.7741
▁griev	-11.7741
▁aerospace	-11.7741
▁spree	-11.7741
five	-11.7741
▁plug	-11.7741
▁munich	-11.7741
▁spiel	-11.7741
▁monaster	-11.7741
▁snatch	-11.7741
▁charr	-11.7741
▁sneak	-11.7741
▁cameroon	-11.7741
▁boulder	-11.7741
▁antiquit	-11.7741
▁perceiv	-11.7741
▁consulate	-11.7741
▁taint	-11.7741
▁clerk	-11.7741
▁manual	-11.7741
▁supermarket	-11.7741
▁premise	-11.7741
▁spider	-11.7741
▁comedian	-11.7742
▁craz	-11.7742
▁comparison	-11.7743
sphere	-11.7743
▁meteorologist	-11.7743
▁constructive	-11.7743
▁wander	-11.7744
▁whisk	-11.7744
▁therapist	-11.7744
▁lugo	-11.7744
▁eacute	-11.7744
▁chadian	-11.7744
▁lauren	-11.7744
▁qala	-11.7746
▁trek	-11.7746
▁lobbyist	-11.7746
▁brake	-11.7746
▁medium	-11.7746
▁salary	-11.7747
▁vick	-11.7747
▁policymaker	-11.7747
▁bias	-11.7748
▁garner	-11.7748
▁salmon	-11.7748
▁kasp	-11.7749
▁nursing	-11.7749
▁blackmail	-11.7752
eparation	-11.7753
▁lifestyle	-11.7753
▁1930	-11.7754
▁cram	-11.7754
▁allocat	-11.7754
▁leno	-11.7755
▁thu	-11.7755
▁coastline	-11.7756
▁foil	-11.7756
▁bamb	-11.7756
▁downplay	-11.7757
▁privilege	-11.7758
▁mullah	-11.7758
▁picket	-11.7759
▁machi	-11.776
▁spann	-11.7762
▁qassam	-11.7763
▁courthouse	-11.7764
scribe	-11.7765
▁kilogram	-11.7767
▁cheat	-11.7768
▁nts	-11.7769
▁readers	-11.777
▁drift	-11.7772
▁adel	-11.7773
▁warhead	-11.7774
onian	-11.7775
▁soap	-11.7777
▁doom	-11.7779
▁establishment	-11.7779
▁lyon	-11.778
▁deter	-11.7781
lana	-11.7783
▁186	-11.7783
▁fried	-11.779
napped	-11.779
▁usher	-11.7792
▁yea	-11.7793
▁weaker	-11.7794
▁jang	-11.7795
sterda	-11.7795
▁hak	-11.7795
▁upgrade	-11.7797
▁bounce	-11.7801
-20	-11.7803
▁buyout	-11.7806
▁psycho	-11.7806
agar	-11.7816
▁affiliat	-11.7821
▁rust	-11.7821
▁gem	-11.7822
▁carla	-11.7833
▁entr	-11.7847
▁gigg	-11.7849
▁bayer	-11.7855
glasses	-11.7856
irna	-11.7856
▁adj	-11.7864
▁helen	-11.7868
▁rim	-11.7869
▁hyper	-11.7871
▁blown	-11.7877
▁chole	-11.7877
aria	-11.7886
▁hag	-11.7887
▁mol	-11.79
asse	-11.791
▁hungar	-11.7913
▁porn	-11.7919
▁logg	-11.7922
▁convene	-11.7925
▁amuse	-11.7965
▁extremist	-11.7974
drop	-11.7974
▁conventional	-11.7974
arab	-11.7977
quet	-11.798
niste	-11.7982
▁troph	-11.7983
▁tick	-11.8001
▁bent	-11.8002
▁03	-11.803
▁uncomm	-11.8033
▁layer	-11.8034
bian	-11.804
▁pont	-11.8042
▁levi	-11.8059
tank	-11.8072
▁winston	-11.8075
lumin	-11.8092
▁ivanov	-11.8097
abel	-11.8113
▁vil	-11.8141
voi	-11.8142
▁jp	-11.8152
▁blu	-11.8153
rough	-11.8163
▁exception	-11.8175
ears	-11.8198
grow	-11.8199
qualit	-11.8206
dominat	-11.8208
wheel	-11.8208
▁doll	-11.8208
built	-11.8209
iraq	-11.8211
generation	-11.8215
shot	-11.8218
mill	-11.8218
▁desir	-11.8219
▁persuad	-11.8222
jong	-11.8225
match	-11.8227
china	-11.8232
▁const	-11.8234
▁loya	-11.8236
▁guilt	-11.8248
▁militar	-11.8248
▁undermin	-11.8249
bok	-11.8251
▁assure	-11.8255
▁influen	-11.8255
drive	-11.8255
▁memo	-11.8256
▁breathe	-11.8268
▁festiv	-11.8288
▁comput	-11.829
▁veterinar	-11.8295
▁cigar	-11.8296
▁adjourn	-11.8296
tikrit	-11.8296
▁athletic	-11.8296
▁compatriot	-11.8296
▁crawford	-11.8296
▁crusade	-11.8296
▁curator	-11.8296
▁embark	-11.8296
▁fatigue	-11.8296
▁immense	-11.8296
▁messenger	-11.8296
▁mismanage	-11.8296
▁obstruct	-11.8296
▁pandemic	-11.8296
▁precinct	-11.8296
▁ritual	-11.8296
▁spectators	-11.8296
▁subpoena	-11.8296
▁translation	-11.8296
▁translator	-11.8296
▁appall	-11.8296
▁baggage	-11.8296
▁beneficia	-11.8296
▁machete	-11.8296
▁pharmac	-11.8296
▁bahrain	-11.8296
▁defence	-11.8296
▁deplor	-11.8296
▁ideology	-11.8296
▁miserable	-11.8296
▁intrigu	-11.8296
▁jerem	-11.8296
yushch	-11.8296
▁lehman	-11.8296
lroo	-11.8296
▁storage	-11.8296
▁evasion	-11.8296
▁calorie	-11.8296
▁bypass	-11.8296
▁fabio	-11.8296
▁wholesale	-11.8296
▁staunch	-11.8297
▁litvin	-11.8297
▁krist	-11.8297
▁norris	-11.8297
▁sacred	-11.8297
▁marij	-11.8297
▁seminar	-11.8297
▁weird	-11.8297
▁jefferson	-11.8298
▁reservation	-11.8298
▁sadden	-11.8298
▁brent	-11.8298
▁lavish	-11.8298
▁ailment	-11.8298
onym	-11.8299
▁reprocess	-11.8299
▁landfall	-11.8299
▁feud	-11.8299
▁cruz	-11.83
▁horror	-11.83
▁vacan	-11.83
▁nike	-11.8301
▁leather	-11.8301
▁francois	-11.8302
▁chimp	-11.8302
▁outrageous	-11.8302
dorf	-11.8303
▁considerably	-11.8304
▁ancestor	-11.8304
▁transformation	-11.8305
▁leaf	-11.8307
▁span	-11.8307
▁2030	-11.8307
▁floren	-11.8308
uver	-11.8308
▁nabi	-11.8309
▁confession	-11.8312
▁distributor	-11.8313
▁hardship	-11.8313
▁vary	-11.8313
millionaire	-11.8314
▁sicken	-11.8314
▁whipp	-11.8314
▁complication	-11.8314
▁alcoholic	-11.8315
▁destructi	-11.8319
▁backward	-11.832
▁kashmir	-11.8325
dependence	-11.8327
▁jaw	-11.8333
▁mah	-11.8334
▁kean	-11.8337
▁detector	-11.8346
▁newborn	-11.8347
▁sampl	-11.8349
▁abdel	-11.835
▁disk	-11.8351
▁rehabilitat	-11.8354
hton	-11.836
▁haa	-11.837
graph	-11.837
▁xp	-11.8377
▁stair	-11.8386
ladi	-11.8386
▁speculate	-11.8391
▁155	-11.8393
bagh	-11.8395
iquit	-11.8399
▁roller	-11.8402
▁forgot	-11.841
▁flip	-11.8415
▁soda	-11.8418
▁104	-11.8423
kawa	-11.8427
shire	-11.8428
riel	-11.8432
▁lucian	-11.845
▁dive	-11.8454
wall	-11.8479
▁observat	-11.848
▁abd	-11.8492
paid	-11.8493
fest	-11.8502
▁cure	-11.8504
▁christin	-11.8505
▁carve	-11.8508
▁karim	-11.8523
▁mobil	-11.8529
▁metro	-11.8535
brew	-11.854
▁commun	-11.8541
hoon	-11.8552
▁dodge	-11.8586
▁watcher	-11.8593
▁buff	-11.8608
▁timo	-11.8612
unk	-11.8638
wind	-11.8641
▁dear	-11.8642
amine	-11.8646
ussi	-11.8652
azz	-11.8655
uana	-11.8659
▁unifi	-11.8668
phis	-11.8675
▁pale	-11.8741
▁justifi	-11.8769
▁hostilit	-11.8771
achel	-11.8779
▁lou	-11.878
scription	-11.8783
employ	-11.8793
defendant	-11.8796
continent	-11.8796
▁clap	-11.8796
affected	-11.8797
chinese	-11.8797
jones	-11.8798
frame	-11.8799
deal	-11.88
storm	-11.8801
boat	-11.8807
beat	-11.8819
grown	-11.882
▁145	-11.8825
▁cancell	-11.883
host	-11.8836
price	-11.8838
pack	-11.8838
▁concede	-11.8842
▁entit	-11.8847
▁acr	-11.8847
▁preced	-11.8851
gram	-11.8854
vu	-11.8856
▁tune	-11.8861
bou	-11.887
▁cali	-11.8871
▁morocc	-11.8876
lab	-11.8879
bind	-11.888
orenst	-11.8881
▁compass	-11.8883
▁improper	-11.8884
▁archipelag	-11.8884
▁console	-11.8884
▁delicate	-11.8884
▁dynast	-11.8884
▁filipino	-11.8884
▁globo	-11.8884
▁gloom	-11.8884
▁hamilton	-11.8884
▁hectare	-11.8884
▁humpback	-11.8884
▁hutchins	-11.8884
▁integrity	-11.8884
▁jupiter	-11.8884
▁pedestrian	-11.8884
▁quebec	-11.8884
▁reconsider	-11.8884
▁rhythm	-11.8884
▁safeguard	-11.8884
▁solving	-11.8884
▁technological	-11.8884
▁armenian	-11.8884
▁clutch	-11.8884
▁dissatisf	-11.8884
▁mbeki	-11.8884
▁noodle	-11.8884
▁advertisement	-11.8884
▁dignitar	-11.8884
▁spawn	-11.8884
▁syndicat	-11.8884
▁gauge	-11.8884
▁renovat	-11.8884
▁tariff	-11.8884
▁waiver	-11.8884
convenient	-11.8884
▁dormitor	-11.8884
▁commentator	-11.8884
▁necessit	-11.8884
▁cultivat	-11.8884
▁grappl	-11.8884
▁liberia	-11.8884
▁partisan	-11.8884
▁cemeter	-11.8885
▁foreclosure	-11.8885
▁slaying	-11.8885
▁forbidd	-11.8885
▁guangdong	-11.8885
▁sultan	-11.8885
▁dmitr	-11.8885
▁davyd	-11.8885
▁homeowner	-11.8885
leigh	-11.8885
▁heaven	-11.8885
▁definitive	-11.8885
▁buoy	-11.8885
yacht	-11.8885
solicit	-11.8885
▁stint	-11.8885
▁forthcoming	-11.8885
▁scour	-11.8885
▁depressed	-11.8885
▁fritz	-11.8885
▁splash	-11.8885
▁clown	-11.8885
▁repressi	-11.8886
▁yoko	-11.8886
▁fiber	-11.8886
▁mandel	-11.8886
▁disband	-11.8887
▁luft	-11.8887
▁falter	-11.8887
▁funny	-11.8887
▁magnetic	-11.8887
ngdu	-11.8887
▁uneas	-11.8887
▁defiant	-11.8888
▁persist	-11.8888
▁darling	-11.8888
▁cream	-11.8888
▁forgive	-11.8888
▁feat	-11.8888
▁floodwater	-11.8889
▁theatre	-11.8889
▁jacket	-11.8889
▁canyon	-11.8889
slaught	-11.889
▁maure	-11.8891
▁installment	-11.8892
▁gripp	-11.8894
▁firearm	-11.8895
vinen	-11.8896
▁retract	-11.8896
▁stiff	-11.8896
▁kaka	-11.8897
rasmus	-11.8898
▁khala	-11.8898
▁scorch	-11.8901
tched	-11.8902
▁alvar	-11.8902
▁canoe	-11.8903
▁inflict	-11.8904
▁roland	-11.8906
▁scientolog	-11.8907
▁vanish	-11.8907
▁render	-11.8909
▁stranger	-11.8909
▁checkup	-11.8909
▁zahi	-11.8913
▁halfway	-11.8919
kistan	-11.892
▁cake	-11.8922
▁incit	-11.8923
▁reef	-11.8924
▁coupon	-11.8924
▁passionate	-11.8927
wadd	-11.8928
▁woke	-11.893
▁baton	-11.8934
▁masa	-11.8935
▁mour	-11.8937
▁charm	-11.8939
▁klo	-11.894
▁infringe	-11.894
▁jav	-11.8941
▁transmitt	-11.8943
▁126	-11.8946
▁perch	-11.8953
▁credibl	-11.8957
▁lawless	-11.8957
acent	-11.8965
▁capitalist	-11.897
▁mona	-11.897
usch	-11.897
▁accessor	-11.8975
serve	-11.8985
eads	-11.8985
▁blackout	-11.8987
▁parr	-11.8989
▁118	-11.8991
velt	-11.8997
▁persi	-11.9002
tious	-11.9021
▁stalinis	-11.9032
lley	-11.9043
▁merit	-11.9051
otto	-11.9063
adilla	-11.907
ongju	-11.9071
▁gag	-11.9073
holder	-11.9078
▁hog	-11.9079
libu	-11.9086
viole	-11.9088
▁esta	-11.909
▁downsiz	-11.9102
▁maha	-11.9119
post	-11.9127
▁lunche	-11.9153
environmentalist	-11.9155
▁medi	-11.9172
▁resource	-11.9175
▁serie	-11.9181
▁lav	-11.9182
bearer	-11.9194
▁buffet	-11.9199
▁prob	-11.9248
▁kyong	-11.9261
▁blade	-11.9264
▁haniy	-11.9281
▁clippe	-11.929
core	-11.9292
▁starv	-11.9306
ruz	-11.9315
▁kor	-11.9323
▁diver	-11.9327
▁bir	-11.9331
▁relocate	-11.9347
▁roj	-11.9349
adic	-11.9352
cell	-11.9353
▁correction	-11.9353
teau	-11.9358
▁skipp	-11.9358
▁renounce	-11.9359
▁tackl	-11.9371
▁skip	-11.9374
▁leon	-11.9379
hart	-11.9393
▁eco	-11.94
coni	-11.9414
league	-11.9422
constitutional	-11.9422
kilometer	-11.9422
technology	-11.9422
second	-11.9422
▁corpse	-11.9426
▁admitt	-11.9429
▁dose	-11.943
plus	-11.9433
surge	-11.9434
flight	-11.9435
▁specializ	-11.9443
▁rehabilitati	-11.9444
appoint	-11.945
media	-11.945
▁heavi	-11.9461
wick	-11.9465
▁refin	-11.9478
prio	-11.9493
ecker	-11.9506
▁conspir	-11.9508
▁capita	-11.9508
▁abnormal	-11.9509
▁censor	-11.9509
▁explicit	-11.9509
▁archbishop	-11.9509
▁azerbaijan	-11.9509
▁centrifuge	-11.9509
▁corridor	-11.9509
▁defensive	-11.9509
▁deterrent	-11.9509
▁diarrhea	-11.9509
▁dynamic	-11.9509
▁exaggerat	-11.9509
▁excellent	-11.9509
▁fragment	-11.9509
▁mosquito	-11.9509
▁orientation	-11.9509
▁overshadow	-11.9509
▁provocation	-11.9509
▁sabotage	-11.9509
▁skeleton	-11.9509
▁skyscraper	-11.9509
▁standstill	-11.9509
▁stipulat	-11.9509
▁submarine	-11.9509
▁temblor	-11.9509
▁unearth	-11.9509
▁mogul	-11.9509
▁oppress	-11.9509
▁paramilitar	-11.9509
▁sanctuar	-11.9509
▁tremor	-11.9509
▁halloween	-11.9509
▁inevitabl	-11.9509
▁hurdle	-11.9509
▁rebuke	-11.9509
▁rejoin	-11.9509
▁zambia	-11.9509
reconcil	-11.9509
▁reunion	-11.9509
▁vendor	-11.9509
▁belgrade	-11.9509
▁chemist	-11.9509
▁genome	-11.9509
▁stump	-11.9509
▁surname	-11.9509
▁overheat	-11.9509
▁coloss	-11.9509
▁elegan	-11.9509
▁soyuz	-11.9509
▁textile	-11.9509
▁resurgen	-11.9509
▁amateur	-11.9509
▁inherit	-11.9509
▁overdose	-11.951
▁abram	-11.951
▁justify	-11.951
▁sweat	-11.951
▁xiao	-11.951
▁feather	-11.951
▁hydrogen	-11.951
▁pupp	-11.951
▁snag	-11.951
▁rooftop	-11.951
▁qatar	-11.951
▁heavyweight	-11.951
▁notify	-11.951
▁meltdown	-11.951
▁roadblock	-11.9511
▁annul	-11.9511
▁felon	-11.9511
▁robinson	-11.9511
▁fuse	-11.9512
▁courageous	-11.9512
▁navigat	-11.9512
ternate	-11.9512
▁estrange	-11.9513
▁disturbance	-11.9513
▁gerald	-11.9513
▁jordanian	-11.9514
▁interactive	-11.9514
▁gangster	-11.9514
▁blacksburg	-11.9514
anxi	-11.9514
▁enron	-11.9514
▁shortfall	-11.9515
▁description	-11.9515
▁nap	-11.9515
▁josh	-11.9516
▁showcase	-11.9517
▁litter	-11.9517
▁kirk	-11.9517
▁hanaro	-11.9518
▁arthr	-11.9518
▁moroccan	-11.9519
▁breakdown	-11.952
zawa	-11.952
▁conner	-11.952
▁duja	-11.9521
▁collud	-11.9522
▁dismissal	-11.9523
▁silic	-11.9524
pisco	-11.9524
▁slapp	-11.9524
▁nano	-11.9527
▁zay	-11.9527
phrase	-11.953
▁portrayal	-11.9531
▁frig	-11.9532
▁ramm	-11.9532
▁maul	-11.9532
▁anymore	-11.9533
▁compensate	-11.9533
▁foul	-11.9533
▁06	-11.9534
atero	-11.9535
▁ventilat	-11.9535
▁algerian	-11.9537
▁qara	-11.9538
▁dax	-11.9539
hiko	-11.9542
▁fisheries	-11.9543
▁yemeni	-11.9545
▁waterway	-11.9546
▁hilar	-11.955
▁translate	-11.9557
fraction	-11.9559
zio	-11.956
▁nile	-11.956
▁plantation	-11.956
zaki	-11.9561
▁stil	-11.9562
▁horribl	-11.9562
▁yass	-11.9563
▁affection	-11.9567
▁crest	-11.9574
▁pine	-11.9579
▁pir	-11.9583
▁repatriat	-11.9584
dica	-11.9585
▁maid	-11.959
▁walkout	-11.9596
rwin	-11.9601
irming	-11.9606
▁poet	-11.9616
lude	-11.9617
▁patch	-11.9619
▁naga	-11.9628
medic	-11.9629
▁motivation	-11.9634
▁pett	-11.9635
riza	-11.9637
stair	-11.9646
hmer	-11.9647
▁snu	-11.9647
eij	-11.9648
▁periodic	-11.9651
▁robe	-11.9651
▁gere	-11.9652
▁underline	-11.9659
▁kamp	-11.9668
▁exceptional	-11.9672
stitution	-11.9674
borough	-11.9677
fix	-11.9689
▁intentional	-11.969
▁rena	-11.9691
▁mock	-11.972
▁angle	-11.972
▁mineral	-11.9723
▁emergenc	-11.9733
shmi	-11.9738
▁burk	-11.9743
habi	-11.9757
kwan	-11.9767
▁naf	-11.9797
rada	-11.98
dec	-11.9817
alkati	-11.9817
setting	-11.9847
▁relation	-11.9852
▁exercis	-11.9855
errill	-11.986
▁corre	-11.9865
ieu	-11.9874
liga	-11.9876
▁recogniz	-11.9878
▁shaf	-11.9878
▁cosm	-11.9885
noble	-11.9887
▁activat	-11.9888
▁outlet	-11.9889
▁imag	-11.9892
▁legislat	-11.9895
▁aero	-11.9929
zvo	-11.993
▁nim	-11.9954
▁bernie	-11.9968
▁bike	-11.9979
wage	-11.9984
▁gig	-11.9997
▁petrol	-12.0013
minded	-12.0013
▁olive	-12.0019
after	-12.0027
reze	-12.0054
▁114	-12.0057
heim	-12.0059
▁credi	-12.0065
▁hawkin	-12.0067
burgh	-12.0071
rani	-12.0073
iki	-12.0073
▁communicat	-12.0077
throw	-12.0084
chemical	-12.0088
communist	-12.0089
white	-12.0089
office	-12.0089
launch	-12.0091
smith	-12.0091
check	-12.0092
rup	-12.0109
▁interfere	-12.0115
around	-12.0117
vani	-12.0118
human	-12.0128
▁dip	-12.0138
▁bulgaria	-12.0154
▁fuji	-12.0155
▁ferr	-12.0164
▁interrogat	-12.017
▁orphan	-12.0174
▁charisma	-12.0176
▁unleash	-12.0176
▁absorb	-12.0176
▁accumulate	-12.0176
▁affidavit	-12.0176
▁appreciati	-12.0176
▁bystander	-12.0176
▁centimeter	-12.0176
▁charlotte	-12.0176
▁eagle	-12.0176
▁fascinat	-12.0176
▁infuriat	-12.0176
▁johansson	-12.0176
▁kazemi	-12.0176
▁malfunction	-12.0176
▁nephew	-12.0176
▁paraguay	-12.0176
▁precondition	-12.0176
▁reshuffl	-12.0176
▁sanchez	-12.0176
▁sculpture	-12.0176
▁shrimp	-12.0176
▁undersecretary	-12.0176
▁unnecessar	-12.0176
▁vomit	-12.0176
▁wizard	-12.0176
▁barclay	-12.0176
▁bennett	-12.0176
▁conceive	-12.0176
▁guinea	-12.0176
▁lawrence	-12.0176
▁carriage	-12.0176
▁coffin	-12.0176
▁simulate	-12.0176
▁swamp	-12.0176
▁renown	-12.0176
▁sherpa	-12.0176
▁warlord	-12.0176
▁jogg	-12.0176
▁bleeding	-12.0176
▁impressed	-12.0176
▁garrison	-12.0176
▁gorge	-12.0176
▁disapprov	-12.0176
▁minimiz	-12.0176
▁hinder	-12.0177
▁grocer	-12.0177
▁minimal	-12.0177
▁diesel	-12.0177
▁biograph	-12.0177
▁memoir	-12.0177
▁valentin	-12.0177
▁brewer	-12.0177
▁redeployment	-12.0177
dysse	-12.0177
▁bureaucrat	-12.0177
▁enlist	-12.0177
▁clamp	-12.0178
▁compress	-12.0178
▁vinci	-12.0178
▁adolescent	-12.0178
▁chopper	-12.0178
▁braun	-12.0178
▁classmate	-12.0178
▁inflammat	-12.0179
▁orphanage	-12.0179
▁blend	-12.0179
▁morris	-12.0179
▁spotlight	-12.0179
▁stroll	-12.0179
▁swarm	-12.0179
▁blacklist	-12.0179
▁regiment	-12.0179
▁scout	-12.0179
▁gentle	-12.0181
▁migration	-12.0181
▁worship	-12.0181
▁endurance	-12.0181
▁cramp	-12.0181
▁pillar	-12.0182
▁huddl	-12.0182
▁lenient	-12.0182
▁emmy	-12.0182
▁accomplishment	-12.0182
▁spacewalk	-12.0182
▁pilgrimage	-12.0183
▁glu	-12.0184
▁derby	-12.0184
▁shank	-12.0185
▁ditch	-12.0185
▁battlefield	-12.0186
▁farmland	-12.0189
aiss	-12.0189
▁barney	-12.0191
▁amber	-12.0192
▁casp	-12.0192
▁hideout	-12.0192
▁wagon	-12.0192
▁ameli	-12.0192
▁roam	-12.0194
▁pais	-12.0194
croft	-12.0195
crates	-12.0195
▁misus	-12.0196
vasive	-12.0199
ffen	-12.02
▁peel	-12.0201
▁luther	-12.0201
▁refiner	-12.0201
fayette	-12.0202
▁kati	-12.0202
▁reap	-12.0203
▁thorn	-12.0206
▁email	-12.0206
▁spen	-12.0206
▁cull	-12.0208
▁rupe	-12.021
▁matchup	-12.0213
diac	-12.0214
▁insect	-12.0216
▁boil	-12.0216
▁330	-12.0219
▁hugh	-12.022
▁zeb	-12.022
▁mason	-12.0223
rose	-12.0223
▁kana	-12.0226
▁norm	-12.0229
▁lac	-12.0229
▁reproducti	-12.0229
wich	-12.0233
▁qar	-12.0234
▁dash	-12.0235
▁pedr	-12.0236
lett	-12.0247
▁raft	-12.025
▁reminder	-12.0252
▁tide	-12.0253
▁freezer	-12.0258
▁finaliz	-12.0259
▁grove	-12.0262
moto	-12.0263
▁pesh	-12.0267
▁provisional	-12.0278
▁incorporat	-12.0313
▁benoi	-12.0317
kill	-12.0324
▁cric	-12.0341
▁enforc	-12.0346
▁paradi	-12.0353
left	-12.038
▁expir	-12.0391
▁stam	-12.0403
ryl	-12.0405
▁industrializ	-12.0446
schle	-12.0455
▁lago	-12.0475
▁hijacker	-12.0492
stricke	-12.0501
▁zin	-12.0507
gomer	-12.0508
▁guid	-12.0544
▁casual	-12.0546
bola	-12.0562
trophy	-12.0567
diaz	-12.0582
▁lexi	-12.06
nix	-12.0656
pac	-12.0659
▁reminiscen	-12.0664
oros	-12.0678
▁doming	-12.0701
▁robin	-12.0705
asso	-12.0708
▁mediate	-12.0715
guet	-12.0719
▁curv	-12.0722
▁firefight	-12.0748
▁embezzl	-12.0771
▁proportion	-12.0788
kyo	-12.0793
morgan	-12.0802
combat	-12.0803
electric	-12.0803
together	-12.0803
april	-12.0803
japanese	-12.0803
country	-12.0803
opposition	-12.0805
operation	-12.0805
block	-12.0808
lift	-12.081
stability	-12.0819
ghi	-12.0829
▁260	-12.0837
▁retriev	-12.085
▁coll	-12.086
▁collaborat	-12.0867
▁reliabl	-12.0867
nso	-12.0872
▁laund	-12.0875
▁commute	-12.0878
▁reluctan	-12.0879
▁columb	-12.0882
▁corrupt	-12.0884
▁abdulla	-12.0887
▁doug	-12.0888
▁blank	-12.0889
▁barbar	-12.0889
▁revitaliz	-12.089
▁clarify	-12.089
▁congregat	-12.089
▁puzzl	-12.089
▁salvador	-12.089
▁specify	-12.089
▁acclaim	-12.089
▁accommodate	-12.089
▁amoeba	-12.089
▁baptist	-12.089
▁blanchett	-12.089
▁bolivar	-12.089
▁convenience	-12.089
▁curtain	-12.089
▁eduard	-12.089
▁frantic	-12.089
▁fugitive	-12.089
▁gondola	-12.089
▁ideological	-12.089
▁imagination	-12.089
▁jaguar	-12.089
▁jurisdiction	-12.089
▁lithuania	-12.089
▁mathematic	-12.089
▁motorbike	-12.089
▁nutrient	-12.089
▁ossuar	-12.089
▁pneumonia	-12.089
▁rainforest	-12.089
▁rendition	-12.089
▁ritchie	-12.089
▁supermodel	-12.089
▁thieves	-12.089
▁zurich	-12.089
▁fortunate	-12.089
▁penetrat	-12.089
▁prague	-12.089
▁throng	-12.089
▁valerie	-12.089
▁dupre	-12.089
▁utiliz	-12.089
▁relegat	-12.089
hajj	-12.089
▁discourag	-12.089
▁claudi	-12.089
▁telegraph	-12.089
▁siberia	-12.089
▁nightmare	-12.089
▁cyberspace	-12.0891
▁erotic	-12.0891
▁ascend	-12.0891
▁muhammad	-12.0891
▁inflat	-12.0891
▁gilbert	-12.0891
misunderstanding	-12.0891
▁envision	-12.0891
▁enthusiastic	-12.0891
▁extort	-12.0891
▁thumb	-12.0891
▁expulsion	-12.0891
▁crane	-12.0891
▁surrogate	-12.0891
▁shunn	-12.0891
▁freud	-12.0891
▁emmanuel	-12.0891
▁tread	-12.0892
▁skidd	-12.0892
▁bjor	-12.0892
▁defy	-12.0892
emptive	-12.0892
▁ridge	-12.0892
▁footprint	-12.0893
▁physicist	-12.0893
▁sulli	-12.0893
▁swimmer	-12.0893
▁ceasefire	-12.0893
▁annoy	-12.0893
▁motel	-12.0893
▁jitter	-12.0894
▁pizz	-12.0894
▁superstar	-12.0894
▁preference	-12.0894
▁aisle	-12.0894
▁trench	-12.0894
▁elbow	-12.0894
metric	-12.0894
▁condon	-12.0894
▁jihadist	-12.0895
▁molest	-12.0895
▁stre	-12.0895
▁systematic	-12.0896
▁hypo	-12.0896
▁fundamentalist	-12.0896
▁exert	-12.0896
▁nickel	-12.0896
▁invention	-12.0896
▁fool	-12.0896
▁kenne	-12.0897
▁cubic	-12.0898
▁adaptation	-12.0898
▁peek	-12.0898
▁racist	-12.0898
▁perpetrator	-12.0898
▁imam	-12.09
▁junk	-12.09
▁interpretation	-12.09
▁normalization	-12.0901
▁hobb	-12.0902
▁hoop	-12.0902
▁rafi	-12.0903
▁refineries	-12.0904
▁billboard	-12.0904
rw	-12.0904
▁zebra	-12.0905
▁stray	-12.0905
▁yoga	-12.0906
▁fayya	-12.0908
▁collaborator	-12.0908
▁jessi	-12.091
▁shootout	-12.0912
▁foment	-12.0912
▁secretari	-12.0914
▁candid	-12.0916
▁steelers	-12.0916
▁prescrib	-12.0918
▁authoritarian	-12.0918
pick	-12.0919
▁rental	-12.092
▁jonat	-12.0922
▁deaf	-12.0923
▁oblig	-12.0923
▁nasir	-12.0926
▁drac	-12.0926
▁hogan	-12.0926
oval	-12.0926
▁spaceship	-12.0928
▁regrett	-12.0931
onso	-12.0935
▁watt	-12.0936
▁irra	-12.0936
▁everton	-12.0938
▁vip	-12.0942
▁quantit	-12.0943
▁tile	-12.0949
▁vir	-12.0953
mmel	-12.0954
idf	-12.0971
jaf	-12.0974
▁paw	-12.0986
▁gum	-12.0996
evaluate	-12.0999
ulsa	-12.1006
culate	-12.1009
agua	-12.1035
errez	-12.1047
▁qin	-12.1055
clusion	-12.1078
▁estra	-12.1081
▁yog	-12.1081
rill	-12.1101
▁degrad	-12.1101
▁hatch	-12.1101
awar	-12.1108
▁dancer	-12.1112
lund	-12.1131
▁peta	-12.1139
raped	-12.1148
▁riv	-12.116
mise	-12.1172
▁lava	-12.1173
▁viru	-12.1197
dana	-12.1203
▁ferri	-12.123
leaning	-12.1232
uku	-12.1244
▁philipp	-12.1245
libi	-12.1247
askari	-12.125
gone	-12.1268
▁dill	-12.1278
▁uphold	-12.1306
▁replica	-12.131
▁radi	-12.1316
heddin	-12.1321
rubb	-12.1323
ulder	-12.1335
▁shout	-12.1343
▁salam	-12.1364
bodie	-12.1379
pine	-12.138
bili	-12.1388
reva	-12.1414
400	-12.1435
▁clan	-12.1446
ggle	-12.1453
emory	-12.1454
▁embrac	-12.1454
▁lonel	-12.1458
park	-12.1472
ratt	-12.1516
friend	-12.1521
▁reconn	-12.1522
▁trapp	-12.1549
counter	-12.1555
weight	-12.156
uez	-12.1561
ready	-12.1564
haria	-12.1566
govern	-12.1568
terror	-12.1571
fashion	-12.1572
child	-12.1572
bridge	-12.1572
sexual	-12.1572
square	-12.1572
conduct	-12.1572
blood	-12.1572
finding	-12.1572
economic	-12.1572
final	-12.1573
eille	-12.1582
laden	-12.1585
▁infring	-12.1587
game	-12.1591
▁invent	-12.1592
hurt	-12.1592
robe	-12.1598
report	-12.16
▁advocat	-12.1604
▁galax	-12.1617
▁emphasi	-12.163
▁tribun	-12.1651
mpact	-12.1652
▁berl	-12.1655
▁enroll	-12.1657
▁bankrupt	-12.1658
▁legitima	-12.1658
▁happi	-12.1658
▁resettle	-12.1659
dimensional	-12.166
▁aggregate	-12.166
▁anglican	-12.166
▁bachelor	-12.166
▁barroso	-12.166
▁bodlander	-12.166
▁bulldozer	-12.166
▁chimpanzee	-12.166
▁delinquent	-12.166
▁evident	-12.166
▁eyewitness	-12.166
▁gabriel	-12.166
▁identical	-12.166
▁leopard	-12.166
▁liquor	-12.166
▁mauritania	-12.166
▁meghani	-12.166
▁namdaemu	-12.166
▁neglect	-12.166
▁ounces	-12.166
▁plaintiff	-12.166
▁rabbit	-12.166
▁rehears	-12.166
▁reptile	-12.166
▁resurrect	-12.166
▁samuel	-12.166
▁satisfy	-12.166
▁scooter	-12.166
▁scowcroft	-12.166
▁smurf	-12.166
▁turbulen	-12.166
▁tyrann	-12.166
▁ultimatum	-12.166
▁upheaval	-12.166
▁bimbo	-12.166
▁geographic	-12.166
▁persecut	-12.166
▁quadruple	-12.166
▁sporadic	-12.166
▁tarmac	-12.166
▁viagra	-12.166
▁overflow	-12.166
▁panamanian	-12.166
▁comrade	-12.166
▁vague	-12.166
▁ecosystem	-12.166
▁voyage	-12.166
vaccinat	-12.166
▁intimate	-12.166
▁embroi	-12.166
▁inundat	-12.166
▁2020	-12.166
▁adolf	-12.166
▁feminin	-12.166
▁intrude	-12.166
▁krug	-12.166
▁unfold	-12.166
▁compell	-12.166
▁jalal	-12.166
▁analog	-12.166
▁astonish	-12.166
▁complicit	-12.166
▁warrior	-12.166
▁delaware	-12.166
▁characteristic	-12.166
▁knox	-12.166
▁polanski	-12.166
ussain	-12.166
▁bulb	-12.166
▁resemblance	-12.166
▁frenz	-12.166
▁columbine	-12.166
▁faint	-12.1661
▁mixture	-12.1661
▁workshop	-12.1661
▁celtic	-12.1661
▁sermon	-12.1661
▁primate	-12.1661
▁verbal	-12.1661
▁sindh	-12.1661
▁salute	-12.1662
▁cedar	-12.1662
▁quinn	-12.1662
▁canister	-12.1662
▁snowfall	-12.1662
▁psychiatrist	-12.1663
▁enrollment	-12.1663
▁flatten	-12.1664
▁abdomen	-12.1664
▁lynd	-12.1664
▁void	-12.1664
▁marble	-12.1664
▁dogged	-12.1664
▁yoshi	-12.1664
▁calder	-12.1664
▁cypr	-12.1665
▁swearing	-12.1665
uddin	-12.1665
▁kennel	-12.1665
llusion	-12.1666
▁thaw	-12.1668
▁assignment	-12.1668
▁modifie	-12.1668
▁elvi	-12.1668
▁disneyland	-12.1669
▁revel	-12.1669
▁hallway	-12.167
▁rope	-12.167
▁gown	-12.1671
▁eisen	-12.1671
▁refund	-12.1672
▁clara	-12.1672
▁calculation	-12.1673
▁shotgun	-12.1674
elhof	-12.1674
▁ginger	-12.1674
▁gwang	-12.1675
▁trev	-12.1675
ruba	-12.1676
▁feast	-12.1676
▁motorist	-12.1676
▁weightless	-12.1676
▁ryo	-12.1677
▁heroic	-12.1677
▁stack	-12.1679
▁coward	-12.1679
▁downgrade	-12.1681
▁alleviat	-12.1681
▁burri	-12.1681
▁purse	-12.1681
▁deliberation	-12.1682
glio	-12.1682
▁clarifi	-12.1682
▁luz	-12.1683
-12	-12.1684
▁montrea	-12.1686
▁tangib	-12.169
pinning	-12.1692
▁insight	-12.1693
▁hillside	-12.1694
tikh	-12.1696
▁scrub	-12.1696
▁wow	-12.1699
▁fabricat	-12.1701
kanit	-12.1701
▁collector	-12.1703
▁roche	-12.1704
ukov	-12.171
connect	-12.1711
▁adventurer	-12.1712
▁entertainer	-12.1713
▁decreas	-12.1718
▁originat	-12.1724
▁lars	-12.1734
▁boundar	-12.1737
▁tyl	-12.1742
▁ripple	-12.1758
trea	-12.1764
▁proportional	-12.1771
jord	-12.1785
asia	-12.1788
▁gert	-12.179
▁balco	-12.182
▁hydra	-12.1828
▁camill	-12.1831
▁snub	-12.1833
▁enabl	-12.1845
leban	-12.1867
retz	-12.1891
▁lease	-12.1914
rjee	-12.1938
▁rip	-12.1941
▁rename	-12.1942
designate	-12.1944
▁merg	-12.1956
▁updat	-12.1967
lula	-12.1977
▁zab	-12.1985
abad	-12.2009
▁scr	-12.2115
▁spik	-12.2115
▁betray	-12.2128
▁fabr	-12.2137
325	-12.218
fta	-12.2188
chief	-12.2198
▁unsc	-12.2201
▁conven	-12.2209
volt	-12.2308
flation	-12.232
▁fou	-12.232
enhanc	-12.2327
▁egg	-12.234
025	-12.236
shiro	-12.2362
harmonic	-12.237
▁rewrit	-12.2383
nutrition	-12.2404
guided	-12.2404
inspir	-12.2404
length	-12.2405
smoking	-12.2405
regular	-12.2405
protect	-12.2405
avoid	-12.2405
palestinian	-12.2406
nominat	-12.2406
three	-12.2406
▁wacho	-12.2412
sleep	-12.2413
marie	-12.2415
master	-12.2418
operat	-12.2421
march	-12.2425
illard	-12.243
▁bibl	-12.2436
▁jeopard	-12.2437
▁advoca	-12.245
legg	-12.2454
rgis	-12.2456
otherap	-12.2468
▁albania	-12.2471
▁lame	-12.2484
▁clint	-12.2486
▁strategi	-12.2487
▁migrat	-12.2487
▁abdom	-12.249
▁correspond	-12.2492
▁palestin	-12.2492
▁panmunj	-12.2493
▁skyrocket	-12.2493
▁culminat	-12.2493
▁outnumber	-12.2493
▁rockefeller	-12.2493
▁accomplice	-12.2493
▁administer	-12.2493
▁alejandr	-12.2493
▁aurora	-12.2493
▁avalanche	-12.2493
▁awkward	-12.2493
▁brawl	-12.2493
▁cantaloupe	-12.2493
▁carnival	-12.2493
▁cheetah	-12.2493
▁cockpit	-12.2493
▁constituenc	-12.2493
▁context	-12.2493
▁deflect	-12.2493
▁discontent	-12.2493
▁disqualifi	-12.2493
▁eclipse	-12.2493
▁enclave	-12.2493
▁felix	-12.2493
▁fertilizer	-12.2493
▁frequenc	-12.2493
▁futurist	-12.2493
▁grylls	-12.2493
▁juventu	-12.2493
▁madagascar	-12.2493
▁memorandum	-12.2493
▁paleontologist	-12.2493
▁prevail	-12.2493
▁refrigerator	-12.2493
▁sequel	-12.2493
▁specimen	-12.2493
▁superjumbo	-12.2493
▁trinidad	-12.2493
▁unhcr	-12.2493
▁abolition	-12.2493
▁pavilion	-12.2493
▁architecture	-12.2493
▁pegg	-12.2493
▁thymus	-12.2493
▁caesar	-12.2493
▁illuminat	-12.2493
▁intoxicat	-12.2493
▁boulo	-12.2493
▁omaha	-12.2493
▁affirm	-12.2493
▁glory	-12.2493
▁wrangl	-12.2493
▁connor	-12.2493
▁cesar	-12.2493
▁namibia	-12.2493
▁patern	-12.2493
eutic	-12.2493
▁flank	-12.2493
▁straw	-12.2493
▁unreasonabl	-12.2493
▁unify	-12.2493
▁fifteen	-12.2493
▁revoke	-12.2493
▁desktop	-12.2493
▁ricard	-12.2494
▁muddy	-12.2494
▁qualification	-12.2494
▁gym	-12.2494
▁preview	-12.2494
▁marshall	-12.2494
▁suitcase	-12.2494
ratchet	-12.2494
▁blackberr	-12.2494
▁allergi	-12.2494
▁celesti	-12.2494
▁morici	-12.2494
▁sniff	-12.2494
ollea	-12.2494
ceptive	-12.2495
▁cobbl	-12.2495
▁creek	-12.2495
▁forehand	-12.2495
▁grill	-12.2495
▁horm	-12.2495
▁malign	-12.2496
▁cement	-12.2496
▁patron	-12.2496
▁finalists	-12.2496
▁columnist	-12.2496
▁volley	-12.2496
▁hopkin	-12.2496
▁commemoration	-12.2496
▁cascad	-12.2497
▁rajas	-12.2497
▁helms	-12.2498
▁meddl	-12.2498
▁clima	-12.2498
▁nuts	-12.2498
▁feline	-12.2499
▁bradley	-12.2499
▁zhe	-12.2499
▁carolin	-12.2499
▁resent	-12.2499
▁touchdown	-12.2499
▁galv	-12.2499
▁innovation	-12.2499
▁stride	-12.2499
▁headphone	-12.25
▁discard	-12.25
▁patent	-12.25
▁electorate	-12.25
▁induce	-12.25
▁mcqu	-12.2501
▁molecul	-12.2501
▁levee	-12.2502
▁sushi	-12.2502
▁backpack	-12.2502
▁fabrication	-12.2502
▁guti	-12.2503
cheema	-12.2503
▁colorful	-12.2503
▁crouch	-12.2503
▁iceberg	-12.2504
▁barber	-12.2504
▁sniper	-12.2504
▁shack	-12.2504
▁ayres	-12.2504
▁sunny	-12.2504
▁abductee	-12.2505
▁unsur	-12.2507
etcher	-12.2507
▁woodland	-12.2508
▁flush	-12.2508
▁gins	-12.2508
▁groom	-12.2508
▁gaul	-12.2508
ndell	-12.251
▁cheese	-12.2512
▁1963	-12.2513
▁ober	-12.2513
▁turkmen	-12.2514
▁unfit	-12.2515
▁911	-12.2516
▁recreat	-12.2517
▁parliamentarian	-12.252
▁verifiabl	-12.2524
unier	-12.2524
▁endeavor	-12.2527
▁claw	-12.253
▁counselor	-12.254
pache	-12.2546
aimi	-12.2552
▁ironic	-12.2566
fia	-12.2566
▁kazu	-12.2572
▁wrapp	-12.2574
vision	-12.2577
▁escalator	-12.2579
▁combatant	-12.2587
▁casa	-12.2596
effer	-12.26
reau	-12.2609
▁purge	-12.2614
▁hernan	-12.262
lissa	-12.2622
asahi	-12.2636
▁begg	-12.2643
▁saber	-12.2643
▁solt	-12.2649
▁hugg	-12.2652
▁stubb	-12.2669
▁oliver	-12.2696
▁corona	-12.2703
▁relocat	-12.2711
2-2	-12.2729
saba	-12.2756
▁bois	-12.2824
▁prim	-12.2839
nnah	-12.295
▁deliberat	-12.2967
▁compuls	-12.2979
▁plen	-12.3013
▁pessimist	-12.3023
▁kerch	-12.3051
▁diwa	-12.3066
▁athlete	-12.3066
writer	-12.3067
▁horr	-12.3094
riyad	-12.3096
▁wade	-12.3107
▁fig	-12.3112
hafi	-12.3135
accessib	-12.3158
osis	-12.3159
▁convict	-12.3183
▁confe	-12.3189
embe	-12.32
paste	-12.3231
control	-12.3245
kow	-12.3271
lusive	-12.3309
christ	-12.3314
mobile	-12.3314
atlantic	-12.3314
describ	-12.3314
effective	-12.3314
fifth	-12.3314
driving	-12.3314
husband	-12.3315
dawn	-12.3315
california	-12.3315
record	-12.3315
democratic	-12.3315
first	-12.3315
wanted	-12.3316
whal	-12.3323
sense	-12.3331
visibl	-12.3345
▁fabric	-12.3346
▁glea	-12.337
▁profession	-12.3372
▁interact	-12.3373
seven	-12.3377
calib	-12.3388
▁snipe	-12.3392
▁innovati	-12.3395
▁implicat	-12.3396
▁registr	-12.3399
▁advers	-12.3401
atorium	-12.3402
▁kazakh	-12.3402
▁indiscriminate	-12.3402
▁abstain	-12.3402
▁demolish	-12.3402
▁disregard	-12.3402
▁flourish	-12.3402
▁fluctuat	-12.3402
▁fraudulent	-12.3402
▁impatien	-12.3402
▁leisure	-12.3402
▁meadow	-12.3402
▁olympia	-12.3402
▁steadfast	-12.3402
▁appetite	-12.3402
▁audiotape	-12.3402
▁autobiograph	-12.3402
▁ayurved	-12.3402
▁berezovsky	-12.3402
▁clergy	-12.3402
▁conciliat	-12.3402
▁contagio	-12.3402
▁crawl	-12.3402
▁culprit	-12.3402
▁curtail	-12.3402
▁demographic	-12.3402
▁djamena	-12.3402
▁dynamite	-12.3402
▁erratic	-12.3402
▁fowler	-12.3402
▁hosseini	-12.3402
▁housekeeper	-12.3402
▁loophole	-12.3402
▁mistreat	-12.3402
▁module	-12.3402
▁norfolk	-12.3402
▁obscur	-12.3402
▁ordinance	-12.3402
▁portfolio	-12.3402
▁salvage	-12.3402
▁seismic	-12.3402
▁souvenir	-12.3402
▁tanzania	-12.3402
▁terrifi	-12.3402
▁yugoslav	-12.3402
▁encrypt	-12.3402
▁evict	-12.3402
▁liberate	-12.3402
▁rebuff	-12.3402
▁cowboy	-12.3402
▁jetliner	-12.3402
▁rethink	-12.3402
▁submerg	-12.3402
▁churn	-12.3402
▁cogniti	-12.3402
▁edmund	-12.3402
▁goddess	-12.3402
▁icahn	-12.3402
▁opium	-12.3402
▁outflow	-12.3402
▁swirl	-12.3402
▁crescent	-12.3402
▁dreamliner	-12.3402
▁defamat	-12.3402
▁antenna	-12.3402
▁bourse	-12.3402
▁strangl	-12.3402
▁converg	-12.3402
▁gwen	-12.3402
▁kraus	-12.3402
brant	-12.3402
▁generous	-12.3402
▁fetus	-12.3402
▁snapshot	-12.3402
dispens	-12.3402
▁juice	-12.3402
▁pierce	-12.3402
▁crematori	-12.3402
▁ontario	-12.3402
▁unwilling	-12.3402
▁biometric	-12.3402
▁elliot	-12.3402
▁scoop	-12.3402
▁cadet	-12.3402
▁ericsson	-12.3402
▁educator	-12.3402
nourishe	-12.3402
▁jorge	-12.3402
▁mortal	-12.3402
▁minivan	-12.3402
▁tanner	-12.3402
▁charismatic	-12.3403
▁ecsta	-12.3403
▁jelly	-12.3403
▁mimic	-12.3403
▁trunk	-12.3403
▁omega	-12.3403
▁categorical	-12.3403
▁mutilat	-12.3403
▁diaries	-12.3403
▁divisi	-12.3403
▁furious	-12.3403
▁adversari	-12.3403
▁birthrate	-12.3404
▁maldiv	-12.3404
▁mauric	-12.3404
▁summar	-12.3404
▁arrow	-12.3404
▁mubar	-12.3404
▁empower	-12.3404
choles	-12.3404
▁grasp	-12.3404
▁freak	-12.3404
▁recip	-12.3405
▁breez	-12.3405
▁cardiov	-12.3405
▁spoil	-12.3405
▁richmond	-12.3405
▁grape	-12.3405
▁sylv	-12.3406
▁latitude	-12.3406
▁lieber	-12.3406
▁hedge	-12.3406
▁infra	-12.3406
▁racket	-12.3406
▁rational	-12.3406
▁airlift	-12.3407
▁mcnam	-12.3407
▁recit	-12.3408
▁variation	-12.3408
▁luke	-12.3409
▁yuko	-12.3409
▁basket	-12.3409
▁sophi	-12.3409
▁scaling	-12.3411
▁artwork	-12.3411
▁germ	-12.3411
▁secularist	-12.3412
▁kiku	-12.3412
▁tusk	-12.3413
▁tigr	-12.3414
▁lapse	-12.3415
▁paddl	-12.3415
▁thoms	-12.342
▁interceptor	-12.342
▁kinne	-12.343
▁valve	-12.3437
▁lagg	-12.3445
wire	-12.3449
▁jeopardize	-12.3463
▁equalise	-12.3471
1966	-12.348
yongsan	-12.3495
▁destin	-12.35
▁nurtur	-12.3501
awful	-12.3506
flexibilit	-12.3511
rbat	-12.3544
zuma	-12.3544
▁verge	-12.3545
villain	-12.359
conception	-12.3599
▁ryd	-12.3602
▁porch	-12.3635
pulse	-12.3649
assa	-12.3679
▁withstand	-12.3759
▁icr	-12.3808
▁shade	-12.3833
▁tutori	-12.3835
▁mosle	-12.389
carat	-12.3925
▁vill	-12.3969
bouc	-12.3996
building	-12.4017
mitag	-12.4042
▁pledg	-12.4047
macho	-12.4052
▁reserv	-12.406
▁zem	-12.4089
▁ratifi	-12.414
moving	-12.4161
▁deserv	-12.4236
regulat	-12.4243
▁astronom	-12.4264
design	-12.4289
stands	-12.4295
view	-12.4304
closure	-12.4312
adequate	-12.4313
comfortabl	-12.4313
examine	-12.4313
await	-12.4314
anticipat	-12.4314
blaze	-12.4314
floor	-12.4314
establish	-12.4314
committee	-12.4315
economy	-12.4315
stroke	-12.4315
leader	-12.4315
daughter	-12.4316
▁residenc	-12.4316
species	-12.4317
civil	-12.4317
launder	-12.4317
forward	-12.4317
service	-12.4318
dump	-12.4318
fact	-12.4326
▁entertain	-12.4328
fried	-12.4328
terrestrial	-12.4341
ollen	-12.4361
▁stampede	-12.4375
▁pardo	-12.4386
nsei	-12.4395
▁slap	-12.4396
▁prominen	-12.4397
▁magnet	-12.4398
▁arsen	-12.4401
▁eavesdropp	-12.4402
▁recharge	-12.4402
-1990	-12.4402
gigabyte	-12.4402
▁absurd	-12.4402
▁anorexi	-12.4402
▁arraignment	-12.4402
▁basilica	-12.4402
▁berkshire	-12.4402
▁blizzard	-12.4402
▁complement	-12.4402
▁cuisine	-12.4402
▁deforest	-12.4402
▁disadvantage	-12.4402
▁effig	-12.4402
▁gymnast	-12.4402
▁incompeten	-12.4402
▁jockey	-12.4402
▁lifeguard	-12.4402
▁malicious	-12.4402
▁matthew	-12.4402
▁merchandise	-12.4402
▁mudslide	-12.4402
▁netscape	-12.4402
▁obscen	-12.4402
▁pacify	-12.4402
▁pharaoh	-12.4402
▁precarious	-12.4402
▁receipt	-12.4402
▁reclaim	-12.4402
▁relentless	-12.4402
▁slovakia	-12.4402
▁soprano	-12.4402
▁spontaneous	-12.4402
▁surcharge	-12.4402
▁telecast	-12.4402
▁theoretical	-12.4402
▁thirteen	-12.4402
▁transgender	-12.4402
▁vigorous	-12.4402
▁cremation	-12.4402
▁dysfunction	-12.4402
▁emphatic	-12.4402
▁rupture	-12.4402
▁rutger	-12.4402
▁sandbag	-12.4402
▁turbine	-12.4402
▁eject	-12.4402
▁pelvi	-12.4402
▁pluck	-12.4402
▁revamp	-12.4402
▁tsuyo	-12.4402
▁alligator	-12.4402
▁enlarg	-12.4402
▁hondura	-12.4402
▁purple	-12.4402
▁ravine	-12.4402
▁temptation	-12.4402
hearted	-12.4402
▁amphibi	-12.4402
▁detach	-12.4402
▁tasmania	-12.4402
▁shrunk	-12.4402
▁solemn	-12.4402
▁belarus	-12.4402
▁landlord	-12.4402
▁1920	-12.4402
▁twitter	-12.4402
▁bolivia	-12.4402
▁cambridge	-12.4402
▁humid	-12.4402
▁thrust	-12.4402
▁cosmetic	-12.4402
▁panoram	-12.4402
▁inviting	-12.4402
▁reneg	-12.4402
▁solace	-12.4402
▁tgv	-12.4402
▁dreamworks	-12.4402
werp	-12.4402
▁dispel	-12.4402
▁itinerar	-12.4402
▁commend	-12.4402
▁senegal	-12.4402
▁unfreez	-12.4402
▁chinook	-12.4402
▁arrowhead	-12.4402
▁screw	-12.4402
▁emigra	-12.4403
▁kirch	-12.4403
▁unnerv	-12.4403
uncture	-12.4403
▁newcomer	-12.4403
▁prevalen	-12.4403
▁shrugg	-12.4403
▁zhao	-12.4403
▁disconnect	-12.4403
▁preemptive	-12.4403
▁mafia	-12.4404
▁venet	-12.4404
▁drummer	-12.4404
▁pinpoint	-12.4404
▁stymie	-12.4404
▁abundan	-12.4405
▁mitch	-12.4405
▁spew	-12.4405
▁narco	-12.4405
▁sitcom	-12.4405
▁condom	-12.4405
▁ghost	-12.4406
elysee	-12.4406
▁funnel	-12.4406
▁vigilant	-12.4406
▁insurer	-12.4406
▁blazers	-12.4406
▁taunt	-12.4407
wrack	-12.4407
mpress	-12.4408
▁adrian	-12.441
varna	-12.4411
▁wanna	-12.4414
dental	-12.4414
▁invok	-12.4417
etsk	-12.4418
▁swindl	-12.4419
ratify	-12.4419
ngchon	-12.442
▁terroriz	-12.4422
▁sooth	-12.4422
cultur	-12.4435
allest	-12.444
▁congesti	-12.4448
dweller	-12.445
ducat	-12.446
ridde	-12.4462
culty	-12.4465
▁dangl	-12.447
ynov	-12.4486
▁pause	-12.451
riddle	-12.4537
quille	-12.454
,	-14.2691
.	-14.2692
